#ifndef GESTURE_MODEL_H
#define GESTURE_MODEL_H

unsigned char gesture_model[] = {
  0x1c, 0x00, 0x00, 0x00, 0x54, 0x46, 0x4c, 0x33, 0x14, 0x00, 0x20, 0x00, 
  0x1c, 0x00, 0x18, 0x00, 0x14, 0x00, 0x10, 0x00, 0x0c, 0x00, 0x00, 0x00, 
  0x08, 0x00, 0x04, 0x00, 0x14, 0x00, 0x00, 0x00, 0x1c, 0x00, 0x00, 0x00, 
  0x90, 0x00, 0x00, 0x00, 0xe8, 0x00, 0x00, 0x00, 0x84, 0x0a, 0x00, 0x00, 
  0x94, 0x0a, 0x00, 0x00, 0x54, 0x2f, 0x00, 0x00, 0x03, 0x00, 0x00, 0x00, 
  0x01, 0x00, 0x00, 0x00, 0x10, 0x00, 0x00, 0x00, 0x00, 0x00, 0x0a, 0x00, 
  0x10, 0x00, 0x0c, 0x00, 0x08, 0x00, 0x04, 0x00, 0x0a, 0x00, 0x00, 0x00, 
  0x0c, 0x00, 0x00, 0x00, 0x1c, 0x00, 0x00, 0x00, 0x3c, 0x00, 0x00, 0x00, 
  0x0f, 0x00, 0x00, 0x00, 0x73, 0x65, 0x72, 0x76, 0x69, 0x6e, 0x67, 0x5f, 
  0x64, 0x65, 0x66, 0x61, 0x75, 0x6c, 0x74, 0x00, 0x01, 0x00, 0x00, 0x00, 
  0x04, 0x00, 0x00, 0x00, 0x98, 0xff, 0xff, 0xff, 0x16, 0x00, 0x00, 0x00, 
  0x04, 0x00, 0x00, 0x00, 0x08, 0x00, 0x00, 0x00, 0x6f, 0x75, 0x74, 0x70, 
  0x75, 0x74, 0x5f, 0x30, 0x00, 0x00, 0x00, 0x00, 0x01, 0x00, 0x00, 0x00, 
  0x04, 0x00, 0x00, 0x00, 0x5e, 0xf5, 0xff, 0xff, 0x04, 0x00, 0x00, 0x00, 
  0x05, 0x00, 0x00, 0x00, 0x69, 0x6e, 0x70, 0x75, 0x74, 0x00, 0x00, 0x00, 
  0x02, 0x00, 0x00, 0x00, 0x34, 0x00, 0x00, 0x00, 0x04, 0x00, 0x00, 0x00, 
  0xdc, 0xff, 0xff, 0xff, 0x19, 0x00, 0x00, 0x00, 0x04, 0x00, 0x00, 0x00, 
  0x13, 0x00, 0x00, 0x00, 0x43, 0x4f, 0x4e, 0x56, 0x45, 0x52, 0x53, 0x49, 
  0x4f, 0x4e, 0x5f, 0x4d, 0x45, 0x54, 0x41, 0x44, 0x41, 0x54, 0x41, 0x00, 
  0x08, 0x00, 0x0c, 0x00, 0x08, 0x00, 0x04, 0x00, 0x08, 0x00, 0x00, 0x00, 
  0x18, 0x00, 0x00, 0x00, 0x04, 0x00, 0x00, 0x00, 0x13, 0x00, 0x00, 0x00, 
  0x6d, 0x69, 0x6e, 0x5f, 0x72, 0x75, 0x6e, 0x74, 0x69, 0x6d, 0x65, 0x5f, 
  0x76, 0x65, 0x72, 0x73, 0x69, 0x6f, 0x6e, 0x00, 0x1a, 0x00, 0x00, 0x00, 
  0x98, 0x09, 0x00, 0x00, 0x90, 0x09, 0x00, 0x00, 0x78, 0x09, 0x00, 0x00, 
  0x5c, 0x09, 0x00, 0x00, 0xec, 0x08, 0x00, 0x00, 0x5c, 0x08, 0x00, 0x00, 
  0x4c, 0x05, 0x00, 0x00, 0xdc, 0x04, 0x00, 0x00, 0xf4, 0x03, 0x00, 0x00, 
  0x84, 0x03, 0x00, 0x00, 0x54, 0x02, 0x00, 0x00, 0x14, 0x02, 0x00, 0x00, 
  0x98, 0x01, 0x00, 0x00, 0x58, 0x01, 0x00, 0x00, 0xdc, 0x00, 0x00, 0x00, 
  0xd4, 0x00, 0x00, 0x00, 0xcc, 0x00, 0x00, 0x00, 0xc4, 0x00, 0x00, 0x00, 
  0xbc, 0x00, 0x00, 0x00, 0xb4, 0x00, 0x00, 0x00, 0xac, 0x00, 0x00, 0x00, 
  0xa4, 0x00, 0x00, 0x00, 0x9c, 0x00, 0x00, 0x00, 0x94, 0x00, 0x00, 0x00, 
  0x74, 0x00, 0x00, 0x00, 0x04, 0x00, 0x00, 0x00, 0x3a, 0xf6, 0xff, 0xff, 
  0x04, 0x00, 0x00, 0x00, 0x60, 0x00, 0x00, 0x00, 0x0c, 0x00, 0x00, 0x00, 
  0x08, 0x00, 0x0e, 0x00, 0x08, 0x00, 0x04, 0x00, 0x08, 0x00, 0x00, 0x00, 
  0x10, 0x00, 0x00, 0x00, 0x28, 0x00, 0x00, 0x00, 0x00, 0x00, 0x06, 0x00, 
  0x08, 0x00, 0x04, 0x00, 0x06, 0x00, 0x00, 0x00, 0x04, 0x00, 0x00, 0x00, 
  0x01, 0x00, 0x00, 0x00, 0xeb, 0x03, 0x00, 0x00, 0x0c, 0x00, 0x18, 0x00, 
  0x14, 0x00, 0x10, 0x00, 0x0c, 0x00, 0x04, 0x00, 0x0c, 0x00, 0x00, 0x00, 
  0xaf, 0x76, 0xc9, 0xb5, 0xda, 0xa4, 0x1e, 0x77, 0x02, 0x00, 0x00, 0x00, 
  0x02, 0x00, 0x00, 0x00, 0x04, 0x00, 0x00, 0x00, 0x06, 0x00, 0x00, 0x00, 
  0x32, 0x2e, 0x32, 0x31, 0x2e, 0x30, 0x00, 0x00, 0xa6, 0xf6, 0xff, 0xff, 
  0x04, 0x00, 0x00, 0x00, 0x10, 0x00, 0x00, 0x00, 0x31, 0x2e, 0x31, 0x34, 
  0x2e, 0x30, 0x00, 0x00, 0x00, 0x00, 0x00, 0x00, 0x00, 0x00, 0x00, 0x00, 
  0x88, 0xd3, 0xff, 0xff, 0x8c, 0xd3, 0xff, 0xff, 0x90, 0xd3, 0xff, 0xff, 
  0x94, 0xd3, 0xff, 0xff, 0x98, 0xd3, 0xff, 0xff, 0x9c, 0xd3, 0xff, 0xff, 
  0xa0, 0xd3, 0xff, 0xff, 0xa4, 0xd3, 0xff, 0xff, 0xa8, 0xd3, 0xff, 0xff, 
  0xe6, 0xf6, 0xff, 0xff, 0x04, 0x00, 0x00, 0x00, 0x6c, 0x00, 0x00, 0x00, 
  0x31, 0x38, 0x0f, 0xf4, 0x59, 0x46, 0x26, 0x4c, 0x81, 0x3a, 0x81, 0xb4, 
  0xcd, 0x62, 0x39, 0x14, 0x23, 0x31, 0x1e, 0x7d, 0xc5, 0x7a, 0x7f, 0xa1, 
  0xa5, 0x0e, 0xd9, 0xe6, 0x81, 0xec, 0x89, 0x5d, 0xb8, 0x14, 0x6b, 0x19, 
  0x9b, 0xcc, 0x0b, 0x81, 0x0b, 0xe1, 0x9f, 0xc5, 0x22, 0x04, 0xe7, 0xfb, 
  0x7f, 0x4c, 0x57, 0x5a, 0x7c, 0x73, 0x49, 0xab, 0x9a, 0x81, 0xc7, 0x1b, 
  0x6a, 0x51, 0x29, 0x2d, 0x26, 0xad, 0xfb, 0x30, 0x96, 0x9d, 0x60, 0x81, 
  0x8c, 0x15, 0x77, 0x86, 0x14, 0xb6, 0x81, 0xe9, 0x79, 0x1f, 0x19, 0xeb, 
  0x71, 0x91, 0x55, 0xd2, 0xd8, 0x81, 0x7f, 0x64, 0x61, 0x16, 0x56, 0xab, 
  0xe1, 0xce, 0xd6, 0x0a, 0x10, 0x2a, 0x98, 0xa7, 0x3f, 0x81, 0x77, 0xf1, 
  0x5e, 0xf7, 0xff, 0xff, 0x04, 0x00, 0x00, 0x00, 0x30, 0x00, 0x00, 0x00, 
  0xf6, 0xa0, 0xff, 0xff, 0xbc, 0xed, 0xff, 0xff, 0x6b, 0xc8, 0xff, 0xff, 
  0xf4, 0x32, 0x00, 0x00, 0x7a, 0x9c, 0x00, 0x00, 0x8f, 0x2d, 0xff, 0xff, 
  0xc0, 0x0f, 0x00, 0x00, 0x13, 0x49, 0x00, 0x00, 0xf3, 0x43, 0x00, 0x00, 
  0x62, 0x26, 0x00, 0x00, 0x0b, 0xa1, 0xff, 0xff, 0x71, 0x2d, 0x00, 0x00, 
  0x9a, 0xf7, 0xff, 0xff, 0x04, 0x00, 0x00, 0x00, 0x6c, 0x00, 0x00, 0x00, 
  0x5b, 0xd5, 0xe1, 0x22, 0x1d, 0x81, 0x43, 0x45, 0xf7, 0x81, 0x41, 0x2a, 
  0x81, 0x25, 0x2a, 0x96, 0x4f, 0x3b, 0x43, 0xf8, 0x4d, 0xc1, 0xa8, 0x81, 
  0x9c, 0x45, 0xeb, 0xd4, 0x5c, 0x4d, 0xe7, 0x50, 0x0c, 0xff, 0xf8, 0xc7, 
  0x67, 0x5a, 0x81, 0x2f, 0xab, 0x3b, 0x37, 0x29, 0xf2, 0x2d, 0x3e, 0xf1, 
  0xf9, 0x43, 0x61, 0x81, 0x81, 0x60, 0xe7, 0x81, 0x1a, 0xc6, 0x22, 0xd8, 
  0xe0, 0x46, 0x3a, 0xce, 0x57, 0x1a, 0x7f, 0xa7, 0x86, 0x1e, 0x4f, 0xb1, 
  0x5a, 0xa1, 0x08, 0xaf, 0x04, 0x01, 0xff, 0x48, 0x81, 0x88, 0xea, 0x36, 
  0x9a, 0x81, 0x47, 0x2b, 0xcb, 0xb7, 0x56, 0x35, 0x68, 0x64, 0x81, 0x69, 
  0x9e, 0xa4, 0xcc, 0xe1, 0x79, 0x10, 0x0b, 0x22, 0x2e, 0x26, 0x53, 0x7f, 
  0x12, 0xf8, 0xff, 0xff, 0x04, 0x00, 0x00, 0x00, 0x30, 0x00, 0x00, 0x00, 
  0x2d, 0x11, 0x00, 0x00, 0x5e, 0x01, 0x00, 0x00, 0x70, 0xfa, 0xff, 0xff, 
  0x6d, 0x16, 0x00, 0x00, 0x37, 0xf7, 0xff, 0xff, 0x06, 0xf7, 0xff, 0xff, 
  0x19, 0xf4, 0xff, 0xff, 0xfd, 0xfa, 0xff, 0xff, 0x42, 0xff, 0xff, 0xff, 
  0xed, 0x04, 0x00, 0x00, 0x3c, 0xfc, 0xff, 0xff, 0xa7, 0xff, 0xff, 0xff, 
  0x4e, 0xf8, 0xff, 0xff, 0x04, 0x00, 0x00, 0x00, 0x20, 0x01, 0x00, 0x00, 
  0x60, 0x0e, 0x3c, 0x76, 0x0a, 0x21, 0x38, 0xf1, 0x61, 0x16, 0xdc, 0x81, 
  0x37, 0xb8, 0x0a, 0x5c, 0x90, 0xce, 0xa4, 0x6b, 0x7f, 0xf5, 0xf6, 0xba, 
  0x81, 0x0d, 0x1e, 0x70, 0x1c, 0xa5, 0x2d, 0xdc, 0x55, 0xf3, 0x0b, 0x0b, 
  0x81, 0x67, 0xed, 0x68, 0xa4, 0x43, 0xec, 0x68, 0xbf, 0x12, 0x26, 0x76, 
  0xe7, 0xe3, 0x02, 0x0f, 0x94, 0x59, 0x32, 0xd4, 0x61, 0x81, 0x0e, 0xe1, 
  0x8c, 0xfc, 0xe7, 0xe9, 0xc1, 0x1c, 0x0b, 0xb0, 0x24, 0x94, 0x1a, 0x7f, 
  0xd1, 0x75, 0x20, 0x61, 0xb9, 0xb3, 0x31, 0x81, 0xcb, 0xad, 0xfd, 0x29, 
  0x14, 0x2e, 0x9b, 0x7b, 0x9d, 0xeb, 0xfe, 0x11, 0xc7, 0x81, 0x97, 0x04, 
  0x05, 0x81, 0xb8, 0x2b, 0x54, 0xa0, 0xa0, 0xa2, 0x46, 0x09, 0xb6, 0x29, 
  0x1c, 0x11, 0xc3, 0xd6, 0xf9, 0x81, 0x2d, 0x78, 0x91, 0xc3, 0x00, 0x42, 
  0xe3, 0xfd, 0xee, 0x12, 0x08, 0x81, 0xdd, 0xac, 0xba, 0x05, 0x76, 0x2a, 
  0x36, 0x81, 0x2a, 0xac, 0x65, 0xb2, 0x2d, 0x60, 0xcb, 0x39, 0xef, 0x41, 
  0x64, 0x1b, 0x36, 0x27, 0xa0, 0x88, 0xaf, 0xe5, 0x81, 0xf3, 0x3c, 0x5b, 
  0x1c, 0xd3, 0x7f, 0xcf, 0x31, 0xba, 0x03, 0xf6, 0x02, 0x35, 0x16, 0x13, 
  0xb7, 0x78, 0x08, 0xee, 0xe1, 0xb9, 0x7f, 0x15, 0xe0, 0x10, 0x90, 0xed, 
  0x97, 0x61, 0x2e, 0x7f, 0x8e, 0x34, 0xdd, 0x28, 0x00, 0xa6, 0x29, 0x36, 
  0x81, 0x31, 0x91, 0xd5, 0xd3, 0x01, 0x1c, 0x09, 0xc6, 0xf9, 0xe8, 0xfb, 
  0xf1, 0x59, 0x23, 0x29, 0xb6, 0x4d, 0xe6, 0xa8, 0x43, 0x81, 0xe6, 0x1d, 
  0xf3, 0x41, 0xa8, 0xa7, 0x81, 0x3e, 0x01, 0x05, 0x5c, 0xaa, 0x6f, 0xe7, 
  0x01, 0xa1, 0x14, 0x96, 0x1e, 0xb2, 0x4d, 0xd6, 0xb1, 0x7f, 0x1a, 0x07, 
  0x33, 0xcc, 0x25, 0xa7, 0x66, 0x49, 0x2b, 0x7f, 0x05, 0x35, 0xcf, 0xd5, 
  0xd1, 0xc4, 0x49, 0x9f, 0xf6, 0xf7, 0x1f, 0x22, 0x34, 0x81, 0xb3, 0x20, 
  0x5e, 0xb7, 0x3c, 0x22, 0x01, 0xbe, 0xf1, 0x27, 0x6c, 0xfa, 0x78, 0x81, 
  0x6d, 0x81, 0x58, 0x9d, 0x76, 0xf7, 0x5d, 0xba, 0x7e, 0xcb, 0xe9, 0x93, 
  0x7a, 0xf9, 0xff, 0xff, 0x04, 0x00, 0x00, 0x00, 0x60, 0x00, 0x00, 0x00, 
  0x28, 0xf2, 0xff, 0xff, 0x5a, 0x00, 0x00, 0x00, 0xcc, 0xff, 0xff, 0xff, 
  0x9e, 0xfa, 0xff, 0xff, 0x47, 0x07, 0x00, 0x00, 0xf8, 0x0a, 0x00, 0x00, 
  0x66, 0x07, 0x00, 0x00, 0xbc, 0x0b, 0x00, 0x00, 0x17, 0x08, 0x00, 0x00, 
  0xd0, 0x05, 0x00, 0x00, 0x61, 0x05, 0x00, 0x00, 0x5f, 0xfa, 0xff, 0xff, 
  0xb5, 0x01, 0x00, 0x00, 0xa3, 0xfb, 0xff, 0xff, 0x43, 0x03, 0x00, 0x00, 
  0x92, 0x05, 0x00, 0x00, 0x75, 0x0f, 0x00, 0x00, 0xb9, 0x04, 0x00, 0x00, 
  0xad, 0x09, 0x00, 0x00, 0x2f, 0x05, 0x00, 0x00, 0xf8, 0xf1, 0xff, 0xff, 
  0xf8, 0x0a, 0x00, 0x00, 0x53, 0xfa, 0xff, 0xff, 0xf9, 0xfc, 0xff, 0xff, 
  0xe6, 0xf9, 0xff, 0xff, 0x04, 0x00, 0x00, 0x00, 0xd8, 0x00, 0x00, 0x00, 
  0xd5, 0x7c, 0x9c, 0x65, 0x00, 0x25, 0x33, 0x37, 0x06, 0x21, 0x98, 0x1f, 
  0xe1, 0xfa, 0x53, 0x46, 0x76, 0x41, 0x01, 0x81, 0x0f, 0x71, 0x04, 0x6c, 
  0xe4, 0x5c, 0x84, 0x5f, 0xf8, 0xf7, 0x06, 0xfc, 0x31, 0x97, 0xc4, 0x06, 
  0xf5, 0x2f, 0x6c, 0x7f, 0x1c, 0xe0, 0xbc, 0xef, 0xb9, 0x00, 0x87, 0x05, 
  0x9a, 0x54, 0x84, 0x7f, 0x17, 0xcf, 0xe3, 0xfb, 0xc3, 0x7f, 0xec, 0xba, 
  0xc6, 0x81, 0x49, 0x7d, 0x7f, 0x1f, 0x3c, 0xd5, 0x98, 0x56, 0x81, 0x12, 
  0xa6, 0xfa, 0xa3, 0xb9, 0x42, 0x1e, 0x22, 0x29, 0xdf, 0x61, 0x1e, 0x1e, 
  0xad, 0xc7, 0x2d, 0xbb, 0x65, 0xa6, 0x5a, 0xae, 0x65, 0x3b, 0xa3, 0xf9, 
  0x01, 0x34, 0x03, 0xb1, 0xc4, 0x17, 0x60, 0xdd, 0xb9, 0x45, 0x4a, 0x18, 
  0x87, 0xf4, 0x4e, 0x11, 0x5d, 0x41, 0x81, 0xfa, 0xcf, 0x2a, 0xcb, 0x58, 
  0x84, 0x54, 0xf3, 0x4f, 0x48, 0x20, 0x29, 0xfd, 0x30, 0x28, 0x68, 0x6e, 
  0x60, 0x92, 0x4b, 0x42, 0x46, 0x23, 0x45, 0xc5, 0x7f, 0x90, 0xd2, 0x7c, 
  0xe9, 0x66, 0x81, 0x9b, 0x41, 0x7f, 0x75, 0x7f, 0x81, 0x2f, 0xa4, 0xa5, 
  0x81, 0xd2, 0x60, 0x02, 0x6b, 0xaa, 0x15, 0xf9, 0xdd, 0x18, 0xda, 0x52, 
  0x81, 0x7f, 0x08, 0xf5, 0x81, 0x20, 0x1b, 0x2e, 0x12, 0xc6, 0x83, 0xc4, 
  0xe1, 0xee, 0x7f, 0x12, 0x56, 0x81, 0x82, 0x0c, 0xa0, 0xd7, 0xde, 0x7f, 
  0xe4, 0x50, 0xf1, 0x8f, 0x15, 0x5e, 0x7f, 0x29, 0xbc, 0xdb, 0x81, 0x81, 
  0x4b, 0xe8, 0x42, 0x92, 0x52, 0x9f, 0x0b, 0xf5, 0xf8, 0x81, 0xc1, 0xec, 
  0xca, 0xfa, 0xff, 0xff, 0x04, 0x00, 0x00, 0x00, 0x60, 0x00, 0x00, 0x00, 
  0x3b, 0x28, 0x00, 0x00, 0x2f, 0xda, 0xff, 0xff, 0x62, 0x29, 0x00, 0x00, 
  0xd6, 0xff, 0xff, 0xff, 0x05, 0xfd, 0xff, 0xff, 0xad, 0xec, 0xff, 0xff, 
  0xb7, 0xe0, 0xff, 0xff, 0x19, 0xf0, 0xff, 0xff, 0x12, 0x08, 0x00, 0x00, 
  0x74, 0xf1, 0xff, 0xff, 0x84, 0x0a, 0x00, 0x00, 0x0c, 0x07, 0x00, 0x00, 
  0x29, 0x0b, 0x00, 0x00, 0xe3, 0x0d, 0x00, 0x00, 0x8b, 0xdf, 0xff, 0xff, 
  0xed, 0xef, 0xff, 0xff, 0x08, 0xd3, 0xff, 0xff, 0xc3, 0x0a, 0x00, 0x00, 
  0xcd, 0x00, 0x00, 0x00, 0x50, 0x14, 0x00, 0x00, 0x6d, 0x03, 0x00, 0x00, 
  0x50, 0xff, 0xff, 0xff, 0xbe, 0x2b, 0x00, 0x00, 0x59, 0xde, 0xff, 0xff, 
  0x36, 0xfb, 0xff, 0xff, 0x04, 0x00, 0x00, 0x00, 0x00, 0x03, 0x00, 0x00, 
  0x70, 0xa0, 0xc3, 0xd1, 0xb3, 0x35, 0x7f, 0xf1, 0x10, 0xa1, 0x9f, 0x5c, 
  0xc9, 0xc9, 0x44, 0xf6, 0xfe, 0x46, 0x42, 0x5e, 0x00, 0xe6, 0xed, 0x2a, 
  0x90, 0x7f, 0xfb, 0x1e, 0xdb, 0x1d, 0xc0, 0xda, 0xa1, 0x02, 0xe1, 0xee, 
  0xe0, 0x1d, 0xfb, 0xd7, 0xfd, 0xa2, 0x2f, 0xae, 0xcd, 0x6a, 0x1e, 0xfe, 
  0x91, 0x91, 0xd1, 0x58, 0xe0, 0xd8, 0xd0, 0xce, 0x7d, 0x81, 0x7c, 0x17, 
  0xde, 0xa8, 0x7c, 0xa7, 0x53, 0x12, 0x05, 0xda, 0x11, 0x15, 0xec, 0x76, 
  0xb1, 0x4b, 0x19, 0x3b, 0x39, 0x20, 0x3f, 0xea, 0xf0, 0x5d, 0x22, 0x6d, 
  0xf4, 0xe4, 0x81, 0x61, 0xa8, 0x95, 0x01, 0x5c, 0xf0, 0x31, 0x9f, 0x1d, 
  0xa4, 0x58, 0xa2, 0xe6, 0x7a, 0x3b, 0xbc, 0xe8, 0xc6, 0x2b, 0xaf, 0xef, 
  0xc5, 0xd9, 0xad, 0xf6, 0xe6, 0x7f, 0x52, 0xe4, 0xfd, 0x3a, 0x9e, 0xd1, 
  0x3f, 0x49, 0x9f, 0x7d, 0x93, 0x7f, 0x43, 0x03, 0x3d, 0x40, 0xe4, 0x73, 
  0xdd, 0xea, 0xe3, 0xdb, 0xeb, 0xdb, 0x24, 0x54, 0xcc, 0x2a, 0x23, 0xbe, 
  0xf9, 0xd2, 0x0d, 0x40, 0x24, 0x37, 0x7f, 0x08, 0x9d, 0x21, 0x0a, 0x5c, 
  0xf8, 0x62, 0xe7, 0x45, 0xdc, 0xec, 0x2f, 0x51, 0x10, 0x02, 0x25, 0x0a, 
  0xa3, 0xaa, 0xd6, 0xdd, 0x09, 0xb8, 0xea, 0xe3, 0xda, 0x03, 0xe0, 0xc8, 
  0xdc, 0xc4, 0x7f, 0xe0, 0x1f, 0xec, 0xbd, 0x42, 0x06, 0x62, 0xb0, 0xe4, 
  0x08, 0xc5, 0xbb, 0x5b, 0xa5, 0x7f, 0x01, 0x46, 0xbf, 0xd6, 0x05, 0xd8, 
  0xbf, 0xc7, 0xdd, 0x2d, 0x1a, 0xe3, 0x5d, 0x7e, 0xf5, 0x15, 0x0b, 0x15, 
  0x35, 0x0b, 0xd1, 0x57, 0xd0, 0x32, 0xec, 0x13, 0xee, 0x0e, 0xb7, 0xd2, 
  0xaf, 0xcc, 0xc5, 0x75, 0x49, 0x6e, 0x03, 0xee, 0xcf, 0xc1, 0x7f, 0x2e, 
  0x4a, 0xcf, 0xe5, 0x46, 0xcc, 0xdb, 0x47, 0xa9, 0x30, 0xd1, 0x34, 0xbc, 
  0xb4, 0x0a, 0x7f, 0xd6, 0x16, 0xa4, 0x34, 0x15, 0x48, 0xea, 0xec, 0xf1, 
  0x60, 0xef, 0x89, 0x77, 0xd3, 0x7f, 0x20, 0x17, 0x05, 0x4d, 0xda, 0x5f, 
  0x1b, 0x69, 0xc9, 0xe4, 0x03, 0x26, 0x23, 0x66, 0x01, 0x0b, 0xd5, 0xec, 
  0x35, 0xeb, 0x81, 0x63, 0x98, 0x57, 0x65, 0xcc, 0xa5, 0xea, 0xc8, 0x17, 
  0xad, 0x64, 0x17, 0x28, 0x10, 0x6d, 0x34, 0xfe, 0x0f, 0xbc, 0x31, 0xb8, 
  0x38, 0x79, 0x0f, 0x04, 0x7f, 0x60, 0xd8, 0x16, 0x22, 0xcc, 0xf6, 0xc8, 
  0x31, 0x33, 0xfd, 0x40, 0x1e, 0xee, 0xf1, 0xf2, 0x1d, 0xcc, 0xfa, 0x1d, 
  0xeb, 0x7f, 0xf3, 0x22, 0xfe, 0x06, 0x0a, 0xcc, 0xf5, 0x12, 0xe2, 0x12, 
  0xe8, 0xca, 0xf5, 0xee, 0xe9, 0x3c, 0x1b, 0x24, 0x1c, 0x2d, 0xd1, 0xc5, 
  0x81, 0x39, 0xb5, 0xb8, 0xde, 0xc2, 0xd3, 0x97, 0x37, 0x2b, 0x51, 0xcd, 
  0xd0, 0x38, 0x47, 0x34, 0x0b, 0x1e, 0x2c, 0x28, 0xe3, 0x2a, 0xdb, 0xe1, 
  0x5f, 0xc6, 0x81, 0x5e, 0x3f, 0x1a, 0x5c, 0x64, 0xbb, 0x3d, 0x16, 0x4b, 
  0xcf, 0x63, 0xeb, 0x03, 0x02, 0x1f, 0xb9, 0x27, 0xee, 0x01, 0x42, 0xeb, 
  0x76, 0xc4, 0x81, 0x62, 0x35, 0x6d, 0x28, 0x58, 0x29, 0xf9, 0xfe, 0xd0, 
  0xe0, 0xf1, 0x9f, 0xf9, 0x4e, 0x69, 0xbc, 0x1a, 0x06, 0xe0, 0x77, 0x4e, 
  0x8b, 0xe3, 0xf3, 0xdd, 0x13, 0x28, 0x8e, 0xcf, 0xd0, 0xc1, 0x38, 0x28, 
  0xff, 0xb1, 0xe6, 0x23, 0x07, 0xd5, 0x19, 0xc0, 0xbf, 0x7f, 0xe1, 0x39, 
  0x0f, 0xd8, 0xb5, 0x4c, 0xdc, 0xef, 0x52, 0xf8, 0x18, 0xd2, 0xe2, 0xed, 
  0xb9, 0xc4, 0x1c, 0xc4, 0x34, 0x39, 0x0b, 0x25, 0x23, 0xd2, 0x7f, 0x36, 
  0x24, 0x78, 0xcb, 0x04, 0x6a, 0xf1, 0x1a, 0x46, 0xfa, 0xd9, 0xf9, 0xe4, 
  0xf1, 0x04, 0x0f, 0xf3, 0x8a, 0xea, 0x58, 0xc5, 0x51, 0x18, 0x81, 0xef, 
  0x1c, 0x7f, 0xc0, 0xe1, 0x38, 0xaa, 0x12, 0x02, 0x95, 0xc2, 0x78, 0x9e, 
  0xbc, 0xe3, 0xe8, 0xbf, 0xee, 0xb1, 0x7b, 0xf2, 0x6e, 0x4a, 0xc2, 0x1d, 
  0x81, 0x1e, 0xe5, 0xf5, 0x52, 0xfd, 0xe3, 0x42, 0x16, 0xf9, 0x2b, 0x12, 
  0xce, 0x2f, 0xd6, 0xe7, 0xad, 0xc5, 0x35, 0x01, 0xdf, 0x3b, 0xc5, 0xf7, 
  0xfe, 0x17, 0xd5, 0x1d, 0xe4, 0x03, 0x14, 0x11, 0x39, 0xeb, 0xc3, 0x3d, 
  0xe7, 0x19, 0xe0, 0x30, 0xa4, 0x1b, 0x25, 0xe3, 0x08, 0xdb, 0x81, 0xe4, 
  0xa8, 0x7f, 0x15, 0x3d, 0x31, 0x2a, 0x02, 0xd0, 0xda, 0x06, 0xfd, 0xfb, 
  0xfc, 0xde, 0xdd, 0xd5, 0xcf, 0xbd, 0x2e, 0x20, 0xf4, 0x16, 0xce, 0xeb, 
  0xd9, 0xbc, 0xf2, 0x4c, 0x15, 0xe2, 0x2d, 0x3e, 0x5c, 0xcc, 0xf5, 0x3d, 
  0xbf, 0x50, 0x55, 0xd0, 0x7f, 0xf4, 0xd6, 0xc2, 0x03, 0xb9, 0x28, 0x48, 
  0xf4, 0xec, 0xef, 0xb4, 0x1c, 0xa5, 0x06, 0xcb, 0x14, 0xbf, 0x4e, 0x38, 
  0xd4, 0x0c, 0xf2, 0x37, 0x7f, 0xf4, 0xce, 0xd9, 0xd8, 0x42, 0x3c, 0x3a, 
  0xdb, 0x2d, 0x32, 0x7f, 0xaf, 0xc4, 0xb2, 0xd7, 0xd2, 0x30, 0xbd, 0x33, 
  0xc1, 0xcd, 0x20, 0xce, 0x29, 0x33, 0xca, 0x0f, 0x49, 0xb6, 0x36, 0xc3, 
  0xfa, 0xcd, 0xf2, 0xce, 0xd4, 0x14, 0xcc, 0xe7, 0xf1, 0x10, 0x7d, 0xb7, 
  0xe0, 0xaf, 0x7f, 0x2b, 0xfd, 0xe4, 0x37, 0x0d, 0x0d, 0x12, 0x2b, 0x43, 
  0xe0, 0x28, 0xbc, 0xbc, 0x18, 0xe2, 0x17, 0x2e, 0x1c, 0xfc, 0x76, 0x82, 
  0xa9, 0xb2, 0x5b, 0x45, 0x85, 0x32, 0xe8, 0x8b, 0x62, 0x23, 0xd6, 0x7f, 
  0x36, 0x12, 0xbc, 0x63, 0xcb, 0x7f, 0xff, 0x22, 0xb7, 0x5b, 0x08, 0x28, 
  0x12, 0x52, 0xe4, 0xfa, 0x37, 0xff, 0xd7, 0x36, 0x03, 0xcf, 0x0f, 0xe0, 
  0x2a, 0x09, 0x8f, 0x5f, 0xb2, 0x36, 0x7f, 0x4d, 0x3c, 0x2b, 0x34, 0x2e, 
  0x9d, 0x35, 0x4e, 0x17, 0x1d, 0x1d, 0xaf, 0x5e, 0xad, 0xde, 0x2e, 0x2c, 
  0x42, 0xfe, 0xff, 0xff, 0x04, 0x00, 0x00, 0x00, 0x80, 0x00, 0x00, 0x00, 
  0xb6, 0xfc, 0xff, 0xff, 0xd4, 0x0b, 0x00, 0x00, 0xef, 0x09, 0x00, 0x00, 
  0xc9, 0xfc, 0xff, 0xff, 0x42, 0x18, 0x00, 0x00, 0x01, 0xee, 0xff, 0xff, 
  0x7e, 0xea, 0xff, 0xff, 0x70, 0x19, 0x00, 0x00, 0x3d, 0xfd, 0xff, 0xff, 
  0xe5, 0xf4, 0xff, 0xff, 0xf6, 0x01, 0x00, 0x00, 0x36, 0xef, 0xff, 0xff, 
  0x8a, 0xfe, 0xff, 0xff, 0x8a, 0xe9, 0xff, 0xff, 0x78, 0xff, 0xff, 0xff, 
  0xfc, 0x0c, 0x00, 0x00, 0x93, 0xee, 0xff, 0xff, 0x84, 0xea, 0xff, 0xff, 
  0x54, 0x16, 0x00, 0x00, 0x3d, 0xf9, 0xff, 0xff, 0xd4, 0x06, 0x00, 0x00, 
  0x76, 0x09, 0x00, 0x00, 0xf8, 0x0f, 0x00, 0x00, 0xc0, 0x10, 0x00, 0x00, 
  0xbb, 0x06, 0x00, 0x00, 0x73, 0xf5, 0xff, 0xff, 0x36, 0xfd, 0xff, 0xff, 
  0x6d, 0x00, 0x00, 0x00, 0x7c, 0xfc, 0xff, 0xff, 0x75, 0x08, 0x00, 0x00, 
  0x9f, 0xef, 0xff, 0xff, 0xb9, 0xe4, 0xff, 0xff, 0xce, 0xfe, 0xff, 0xff, 
  0x04, 0x00, 0x00, 0x00, 0x60, 0x00, 0x00, 0x00, 0x38, 0x81, 0x29, 0x4c, 
  0xf6, 0x38, 0x65, 0xd7, 0x47, 0x19, 0x3a, 0x52, 0x5d, 0x36, 0x0c, 0x00, 
  0x0f, 0x67, 0x85, 0x5f, 0xd9, 0x9e, 0x01, 0x07, 0x06, 0x3c, 0xcd, 0x15, 
  0xf2, 0x9b, 0x5b, 0x3b, 0x1f, 0xd5, 0x7c, 0x0c, 0x00, 0xa8, 0xd7, 0x62, 
  0xe2, 0x96, 0x7f, 0x88, 0x9c, 0x96, 0x9f, 0x71, 0xa1, 0xf2, 0x72, 0x50, 
  0xf9, 0x4a, 0x0f, 0xc3, 0xd5, 0x44, 0x72, 0xdd, 0x7d, 0x42, 0xdb, 0x18, 
  0xe0, 0x19, 0xdd, 0x6b, 0x67, 0x0c, 0x16, 0xb8, 0x08, 0xba, 0xb1, 0x17, 
  0xb1, 0x61, 0x6f, 0x4a, 0xbf, 0x04, 0x54, 0xd9, 0x76, 0x76, 0x3c, 0x4d, 
  0x64, 0x81, 0x8d, 0xf8, 0xed, 0x0f, 0x12, 0xe7, 0x3a, 0xff, 0xff, 0xff, 
  0x04, 0x00, 0x00, 0x00, 0x0c, 0x00, 0x00, 0x00, 0x63, 0xf6, 0xff, 0xff, 
  0xe1, 0x0f, 0x00, 0x00, 0xef, 0xfb, 0xff, 0xff, 0x52, 0xff, 0xff, 0xff, 
  0x04, 0x00, 0x00, 0x00, 0x08, 0x00, 0x00, 0x00, 0x01, 0x00, 0x00, 0x00, 
  0x02, 0x00, 0x00, 0x00, 0x2c, 0xdc, 0xff, 0xff, 0x30, 0xdc, 0xff, 0xff, 
  0x0f, 0x00, 0x00, 0x00, 0x4d, 0x4c, 0x49, 0x52, 0x20, 0x43, 0x6f, 0x6e, 
  0x76, 0x65, 0x72, 0x74, 0x65, 0x64, 0x2e, 0x00, 0x01, 0x00, 0x00, 0x00, 
  0x14, 0x00, 0x00, 0x00, 0x00, 0x00, 0x0e, 0x00, 0x18, 0x00, 0x14, 0x00, 
  0x10, 0x00, 0x0c, 0x00, 0x08, 0x00, 0x04, 0x00, 0x0e, 0x00, 0x00, 0x00, 
  0x14, 0x00, 0x00, 0x00, 0x1c, 0x00, 0x00, 0x00, 0xb4, 0x02, 0x00, 0x00, 
  0xb8, 0x02, 0x00, 0x00, 0xbc, 0x02, 0x00, 0x00, 0x04, 0x00, 0x00, 0x00, 
  0x6d, 0x61, 0x69, 0x6e, 0x00, 0x00, 0x00, 0x00, 0x09, 0x00, 0x00, 0x00, 
  0x50, 0x02, 0x00, 0x00, 0xe8, 0x01, 0x00, 0x00, 0x98, 0x01, 0x00, 0x00, 
  0x44, 0x01, 0x00, 0x00, 0xfc, 0x00, 0x00, 0x00, 0xac, 0x00, 0x00, 0x00, 
  0x78, 0x00, 0x00, 0x00, 0x40, 0x00, 0x00, 0x00, 0x04, 0x00, 0x00, 0x00, 
  0x46, 0xfe, 0xff, 0xff, 0x1c, 0x00, 0x00, 0x00, 0x00, 0x00, 0x00, 0x09, 
  0x1c, 0x00, 0x00, 0x00, 0x20, 0x00, 0x00, 0x00, 0x05, 0x00, 0x00, 0x00, 
  0x00, 0x00, 0x06, 0x00, 0x08, 0x00, 0x04, 0x00, 0x06, 0x00, 0x00, 0x00, 
  0x00, 0x00, 0x80, 0x3f, 0x01, 0x00, 0x00, 0x00, 0x16, 0x00, 0x00, 0x00, 
  0x01, 0x00, 0x00, 0x00, 0x15, 0x00, 0x00, 0x00, 0x5e, 0xff, 0xff, 0xff, 
  0x14, 0x00, 0x00, 0x00, 0x00, 0x00, 0x00, 0x08, 0x10, 0x00, 0x00, 0x00, 
  0x14, 0x00, 0x00, 0x00, 0x04, 0x00, 0x00, 0x00, 0xfc, 0xdc, 0xff, 0xff, 
  0x01, 0x00, 0x00, 0x00, 0x15, 0x00, 0x00, 0x00, 0x03, 0x00, 0x00, 0x00, 
  0x14, 0x00, 0x00, 0x00, 0x03, 0x00, 0x00, 0x00, 0x02, 0x00, 0x00, 0x00, 
  0x92, 0xff, 0xff, 0xff, 0x14, 0x00, 0x00, 0x00, 0x00, 0x00, 0x00, 0x1b, 
  0x10, 0x00, 0x00, 0x00, 0x14, 0x00, 0x00, 0x00, 0x03, 0x00, 0x00, 0x00, 
  0x30, 0xdd, 0xff, 0xff, 0x01, 0x00, 0x00, 0x00, 0x14, 0x00, 0x00, 0x00, 
  0x02, 0x00, 0x00, 0x00, 0x13, 0x00, 0x00, 0x00, 0x01, 0x00, 0x00, 0x00, 
  0x7e, 0xfe, 0xff, 0xff, 0x10, 0x00, 0x00, 0x00, 0x00, 0x00, 0x00, 0x01, 
  0x18, 0x00, 0x00, 0x00, 0x1c, 0x00, 0x00, 0x00, 0x70, 0xfe, 0xff, 0xff, 
  0x00, 0x00, 0x00, 0x01, 0x01, 0x00, 0x00, 0x00, 0x01, 0x00, 0x00, 0x00, 
  0x01, 0x00, 0x00, 0x00, 0x13, 0x00, 0x00, 0x00, 0x03, 0x00, 0x00, 0x00, 
  0x12, 0x00, 0x00, 0x00, 0x05, 0x00, 0x00, 0x00, 0x04, 0x00, 0x00, 0x00, 
  0x00, 0x00, 0x0e, 0x00, 0x18, 0x00, 0x14, 0x00, 0x10, 0x00, 0x0c, 0x00, 
  0x0b, 0x00, 0x04, 0x00, 0x0e, 0x00, 0x00, 0x00, 0x14, 0x00, 0x00, 0x00, 
  0x00, 0x00, 0x00, 0x02, 0x20, 0x00, 0x00, 0x00, 0x24, 0x00, 0x00, 0x00, 
  0x01, 0x00, 0x00, 0x00, 0x1e, 0xff, 0xff, 0xff, 0x00, 0x00, 0x00, 0x01, 
  0x01, 0x00, 0x00, 0x00, 0x01, 0x00, 0x00, 0x00, 0x01, 0x00, 0x00, 0x00, 
  0x01, 0x00, 0x00, 0x00, 0x12, 0x00, 0x00, 0x00, 0x03, 0x00, 0x00, 0x00, 
  0x11, 0x00, 0x00, 0x00, 0x07, 0x00, 0x00, 0x00, 0x06, 0x00, 0x00, 0x00, 
  0x72, 0xff, 0xff, 0xff, 0x24, 0x00, 0x00, 0x00, 0x00, 0x00, 0x00, 0x05, 
  0x34, 0x00, 0x00, 0x00, 0x38, 0x00, 0x00, 0x00, 0x02, 0x00, 0x00, 0x00, 
  0x00, 0x00, 0x0e, 0x00, 0x18, 0x00, 0x17, 0x00, 0x10, 0x00, 0x0c, 0x00, 
  0x08, 0x00, 0x04, 0x00, 0x0e, 0x00, 0x00, 0x00, 0x02, 0x00, 0x00, 0x00, 
  0x02, 0x00, 0x00, 0x00, 0x02, 0x00, 0x00, 0x00, 0x02, 0x00, 0x00, 0x00, 
  0x00, 0x00, 0x00, 0x01, 0x01, 0x00, 0x00, 0x00, 0x11, 0x00, 0x00, 0x00, 
  0x01, 0x00, 0x00, 0x00, 0x10, 0x00, 0x00, 0x00, 0x5e, 0xff, 0xff, 0xff, 
  0x10, 0x00, 0x00, 0x00, 0x00, 0x00, 0x00, 0x01, 0x18, 0x00, 0x00, 0x00, 
  0x1c, 0x00, 0x00, 0x00, 0x50, 0xff, 0xff, 0xff, 0x00, 0x00, 0x00, 0x01, 
  0x01, 0x00, 0x00, 0x00, 0x01, 0x00, 0x00, 0x00, 0x01, 0x00, 0x00, 0x00, 
  0x10, 0x00, 0x00, 0x00, 0x03, 0x00, 0x00, 0x00, 0x0f, 0x00, 0x00, 0x00, 
  0x09, 0x00, 0x00, 0x00, 0x08, 0x00, 0x00, 0x00, 0x00, 0x00, 0x0e, 0x00, 
  0x1a, 0x00, 0x14, 0x00, 0x10, 0x00, 0x0c, 0x00, 0x0b, 0x00, 0x04, 0x00, 
  0x0e, 0x00, 0x00, 0x00, 0x24, 0x00, 0x00, 0x00, 0x00, 0x00, 0x00, 0x02, 
  0x30, 0x00, 0x00, 0x00, 0x34, 0x00, 0x00, 0x00, 0x01, 0x00, 0x00, 0x00, 
  0x00, 0x00, 0x0e, 0x00, 0x14, 0x00, 0x00, 0x00, 0x10, 0x00, 0x0c, 0x00, 
  0x08, 0x00, 0x07, 0x00, 0x0e, 0x00, 0x00, 0x00, 0x00, 0x00, 0x00, 0x01, 
  0x01, 0x00, 0x00, 0x00, 0x01, 0x00, 0x00, 0x00, 0x01, 0x00, 0x00, 0x00, 
  0x01, 0x00, 0x00, 0x00, 0x0f, 0x00, 0x00, 0x00, 0x03, 0x00, 0x00, 0x00, 
  0x0e, 0x00, 0x00, 0x00, 0x0b, 0x00, 0x00, 0x00, 0x0a, 0x00, 0x00, 0x00, 
  0x00, 0x00, 0x0e, 0x00, 0x14, 0x00, 0x00, 0x00, 0x10, 0x00, 0x0c, 0x00, 
  0x0b, 0x00, 0x04, 0x00, 0x0e, 0x00, 0x00, 0x00, 0x1c, 0x00, 0x00, 0x00, 
  0x00, 0x00, 0x00, 0x01, 0x24, 0x00, 0x00, 0x00, 0x28, 0x00, 0x00, 0x00, 
  0x0c, 0x00, 0x10, 0x00, 0x00, 0x00, 0x0c, 0x00, 0x08, 0x00, 0x07, 0x00, 
  0x0c, 0x00, 0x00, 0x00, 0x00, 0x00, 0x00, 0x01, 0x02, 0x00, 0x00, 0x00, 
  0x02, 0x00, 0x00, 0x00, 0x01, 0x00, 0x00, 0x00, 0x0e, 0x00, 0x00, 0x00, 
  0x03, 0x00, 0x00, 0x00, 0x00, 0x00, 0x00, 0x00, 0x0d, 0x00, 0x00, 0x00, 
  0x0c, 0x00, 0x00, 0x00, 0x01, 0x00, 0x00, 0x00, 0x16, 0x00, 0x00, 0x00, 
  0x01, 0x00, 0x00, 0x00, 0x00, 0x00, 0x00, 0x00, 0x17, 0x00, 0x00, 0x00, 
  0x48, 0x21, 0x00, 0x00, 0xac, 0x20, 0x00, 0x00, 0x04, 0x20, 0x00, 0x00, 
  0x70, 0x1f, 0x00, 0x00, 0xcc, 0x1c, 0x00, 0x00, 0xc8, 0x1a, 0x00, 0x00, 
  0xf4, 0x17, 0x00, 0x00, 0xa8, 0x15, 0x00, 0x00, 0x4c, 0x13, 0x00, 0x00, 
  0xa8, 0x11, 0x00, 0x00, 0x64, 0x0f, 0x00, 0x00, 0xc4, 0x0d, 0x00, 0x00, 
  0x14, 0x0c, 0x00, 0x00, 0x58, 0x0a, 0x00, 0x00, 0x04, 0x09, 0x00, 0x00, 
  0x20, 0x07, 0x00, 0x00, 0xc4, 0x05, 0x00, 0x00, 0x18, 0x05, 0x00, 0x00, 
  0x34, 0x03, 0x00, 0x00, 0xd8, 0x01, 0x00, 0x00, 0x3c, 0x01, 0x00, 0x00, 
  0x80, 0x00, 0x00, 0x00, 0x04, 0x00, 0x00, 0x00, 0x2a, 0xdf, 0xff, 0xff, 
  0x00, 0x00, 0x00, 0x01, 0x18, 0x00, 0x00, 0x00, 0x20, 0x00, 0x00, 0x00, 
  0x3c, 0x00, 0x00, 0x00, 0x17, 0x00, 0x00, 0x00, 0x00, 0x00, 0x00, 0x09, 
  0x50, 0x00, 0x00, 0x00, 0x02, 0x00, 0x00, 0x00, 0xff, 0xff, 0xff, 0xff, 
  0x03, 0x00, 0x00, 0x00, 0x0c, 0xdf, 0xff, 0xff, 0x08, 0x00, 0x00, 0x00, 
  0x10, 0x00, 0x00, 0x00, 0x01, 0x00, 0x00, 0x00, 0x80, 0xff, 0xff, 0xff, 
  0xff, 0xff, 0xff, 0xff, 0x01, 0x00, 0x00, 0x00, 0x00, 0x00, 0x80, 0x3b, 
  0x1b, 0x00, 0x00, 0x00, 0x53, 0x74, 0x61, 0x74, 0x65, 0x66, 0x75, 0x6c, 
  0x50, 0x61, 0x72, 0x74, 0x69, 0x74, 0x69, 0x6f, 0x6e, 0x65, 0x64, 0x43, 
  0x61, 0x6c, 0x6c, 0x5f, 0x31, 0x3a, 0x30, 0x00, 0x02, 0x00, 0x00, 0x00, 
  0x01, 0x00, 0x00, 0x00, 0x03, 0x00, 0x00, 0x00, 0xa2, 0xdf, 0xff, 0xff, 
  0x00, 0x00, 0x00, 0x01, 0x18, 0x00, 0x00, 0x00, 0x20, 0x00, 0x00, 0x00, 
  0x40, 0x00, 0x00, 0x00, 0x16, 0x00, 0x00, 0x00, 0x00, 0x00, 0x00, 0x09, 
  0x90, 0x00, 0x00, 0x00, 0x02, 0x00, 0x00, 0x00, 0xff, 0xff, 0xff, 0xff, 
  0x03, 0x00, 0x00, 0x00, 0x84, 0xdf, 0xff, 0xff, 0x08, 0x00, 0x00, 0x00, 
  0x14, 0x00, 0x00, 0x00, 0x01, 0x00, 0x00, 0x00, 0xd4, 0xff, 0xff, 0xff, 
  0xff, 0xff, 0xff, 0xff, 0x00, 0x00, 0x00, 0x00, 0x01, 0x00, 0x00, 0x00, 
  0x21, 0xfa, 0x9b, 0x3c, 0x56, 0x00, 0x00, 0x00, 0x68, 0x61, 0x67, 0x72, 
  0x69, 0x64, 0x5f, 0x72, 0x61, 0x77, 0x5f, 0x70, 0x69, 0x78, 0x65, 0x6c, 
  0x5f, 0x66, 0x69, 0x72, 0x6d, 0x77, 0x61, 0x72, 0x65, 0x5f, 0x31, 0x2f, 
  0x70, 0x72, 0x6f, 0x62, 0x73, 0x5f, 0x31, 0x2f, 0x4d, 0x61, 0x74, 0x4d, 
  0x75, 0x6c, 0x3b, 0x68, 0x61, 0x67, 0x72, 0x69, 0x64, 0x5f, 0x72, 0x61, 
  0x77, 0x5f, 0x70, 0x69, 0x78, 0x65, 0x6c, 0x5f, 0x66, 0x69, 0x72, 0x6d, 
  0x77, 0x61, 0x72, 0x65, 0x5f, 0x31, 0x2f, 0x70, 0x72, 0x6f, 0x62, 0x73, 
  0x5f, 0x31, 0x2f, 0x42, 0x69, 0x61, 0x73, 0x41, 0x64, 0x64, 0x00, 0x00, 
  0x02, 0x00, 0x00, 0x00, 0x01, 0x00, 0x00, 0x00, 0x03, 0x00, 0x00, 0x00, 
  0x5a, 0xe0, 0xff, 0xff, 0x00, 0x00, 0x00, 0x01, 0x18, 0x00, 0x00, 0x00, 
  0x20, 0x00, 0x00, 0x00, 0x3c, 0x00, 0x00, 0x00, 0x15, 0x00, 0x00, 0x00, 
  0x00, 0x00, 0x00, 0x09, 0x70, 0x00, 0x00, 0x00, 0x02, 0x00, 0x00, 0x00, 
  0xff, 0xff, 0xff, 0xff, 0x20, 0x00, 0x00, 0x00, 0x3c, 0xe0, 0xff, 0xff, 
  0x08, 0x00, 0x00, 0x00, 0x10, 0x00, 0x00, 0x00, 0x01, 0x00, 0x00, 0x00, 
  0x80, 0xff, 0xff, 0xff, 0xff, 0xff, 0xff, 0xff, 0x01, 0x00, 0x00, 0x00, 
  0xc8, 0xcb, 0x9c, 0x3b, 0x3b, 0x00, 0x00, 0x00, 0x68, 0x61, 0x67, 0x72, 
  0x69, 0x64, 0x5f, 0x72, 0x61, 0x77, 0x5f, 0x70, 0x69, 0x78, 0x65, 0x6c, 
  0x5f, 0x66, 0x69, 0x72, 0x6d, 0x77, 0x61, 0x72, 0x65, 0x5f, 0x31, 0x2f, 
  0x67, 0x6c, 0x6f, 0x62, 0x61, 0x6c, 0x5f, 0x61, 0x76, 0x65, 0x72, 0x61, 
  0x67, 0x65, 0x5f, 0x70, 0x6f, 0x6f, 0x6c, 0x69, 0x6e, 0x67, 0x32, 0x64, 
  0x5f, 0x31, 0x2f, 0x4d, 0x65, 0x61, 0x6e, 0x00, 0x02, 0x00, 0x00, 0x00, 
  0x01, 0x00, 0x00, 0x00, 0x20, 0x00, 0x00, 0x00, 0xf2, 0xe0, 0xff, 0xff, 
  0x00, 0x00, 0x00, 0x01, 0x18, 0x00, 0x00, 0x00, 0x28, 0x00, 0x00, 0x00, 
  0x48, 0x00, 0x00, 0x00, 0x14, 0x00, 0x00, 0x00, 0x00, 0x00, 0x00, 0x09, 
  0x28, 0x01, 0x00, 0x00, 0x04, 0x00, 0x00, 0x00, 0xff, 0xff, 0xff, 0xff, 
  0x10, 0x00, 0x00, 0x00, 0x10, 0x00, 0x00, 0x00, 0x20, 0x00, 0x00, 0x00, 
  0xdc, 0xe0, 0xff, 0xff, 0x08, 0x00, 0x00, 0x00, 0x14, 0x00, 0x00, 0x00, 
  0x01, 0x00, 0x00, 0x00, 0x80, 0xff, 0xff, 0xff, 0xff, 0xff, 0xff, 0xff, 
  0x00, 0x00, 0x00, 0x00, 0x01, 0x00, 0x00, 0x00, 0x79, 0x96, 0x07, 0x3d, 
  0xe4, 0x00, 0x00, 0x00, 0x68, 0x61, 0x67, 0x72, 0x69, 0x64, 0x5f, 0x72, 
  0x61, 0x77, 0x5f, 0x70, 0x69, 0x78, 0x65, 0x6c, 0x5f, 0x66, 0x69, 0x72, 
  0x6d, 0x77, 0x61, 0x72, 0x65, 0x5f, 0x31, 0x2f, 0x72, 0x65, 0x5f, 0x6c, 
  0x75, 0x5f, 0x34, 0x5f, 0x31, 0x2f, 0x52, 0x65, 0x6c, 0x75, 0x3b, 0x68, 
  0x61, 0x67, 0x72, 0x69, 0x64, 0x5f, 0x72, 0x61, 0x77, 0x5f, 0x70, 0x69, 
  0x78, 0x65, 0x6c, 0x5f, 0x66, 0x69, 0x72, 0x6d, 0x77, 0x61, 0x72, 0x65, 
  0x5f, 0x31, 0x2f, 0x62, 0x61, 0x74, 0x63, 0x68, 0x5f, 0x6e, 0x6f, 0x72, 
  0x6d, 0x61, 0x6c, 0x69, 0x7a, 0x61, 0x74, 0x69, 0x6f, 0x6e, 0x5f, 0x34, 
  0x5f, 0x31, 0x2f, 0x62, 0x61, 0x74, 0x63, 0x68, 0x6e, 0x6f, 0x72, 0x6d, 
  0x2f, 0x61, 0x64, 0x64, 0x5f, 0x31, 0x3b, 0x68, 0x61, 0x67, 0x72, 0x69, 
  0x64, 0x5f, 0x72, 0x61, 0x77, 0x5f, 0x70, 0x69, 0x78, 0x65, 0x6c, 0x5f, 
  0x66, 0x69, 0x72, 0x6d, 0x77, 0x61, 0x72, 0x65, 0x5f, 0x31, 0x2f, 0x63, 
  0x6f, 0x6e, 0x76, 0x32, 0x64, 0x5f, 0x32, 0x5f, 0x31, 0x2f, 0x63, 0x6f, 
  0x6e, 0x76, 0x6f, 0x6c, 0x75, 0x74, 0x69, 0x6f, 0x6e, 0x3b, 0x68, 0x61, 
  0x67, 0x72, 0x69, 0x64, 0x5f, 0x72, 0x61, 0x77, 0x5f, 0x70, 0x69, 0x78, 
  0x65, 0x6c, 0x5f, 0x66, 0x69, 0x72, 0x6d, 0x77, 0x61, 0x72, 0x65, 0x5f, 
  0x31, 0x2f, 0x62, 0x61, 0x74, 0x63, 0x68, 0x5f, 0x6e, 0x6f, 0x72, 0x6d, 
  0x61, 0x6c, 0x69, 0x7a, 0x61, 0x74, 0x69, 0x6f, 0x6e, 0x5f, 0x34, 0x5f, 
  0x31, 0x2f, 0x62, 0x61, 0x74, 0x63, 0x68, 0x6e, 0x6f, 0x72, 0x6d, 0x2f, 
  0x73, 0x75, 0x62, 0x31, 0x00, 0x00, 0x00, 0x00, 0x04, 0x00, 0x00, 0x00, 
  0x01, 0x00, 0x00, 0x00, 0x10, 0x00, 0x00, 0x00, 0x10, 0x00, 0x00, 0x00, 
  0x20, 0x00, 0x00, 0x00, 0x4a, 0xe2, 0xff, 0xff, 0x00, 0x00, 0x00, 0x01, 
  0x18, 0x00, 0x00, 0x00, 0x28, 0x00, 0x00, 0x00, 0x44, 0x00, 0x00, 0x00, 
  0x13, 0x00, 0x00, 0x00, 0x00, 0x00, 0x00, 0x09, 0xb0, 0x01, 0x00, 0x00, 
  0x04, 0x00, 0x00, 0x00, 0xff, 0xff, 0xff, 0xff, 0x10, 0x00, 0x00, 0x00, 
  0x10, 0x00, 0x00, 0x00, 0x18, 0x00, 0x00, 0x00, 0x34, 0xe2, 0xff, 0xff, 
  0x08, 0x00, 0x00, 0x00, 0x10, 0x00, 0x00, 0x00, 0x01, 0x00, 0x00, 0x00, 
  0x80, 0xff, 0xff, 0xff, 0xff, 0xff, 0xff, 0xff, 0x01, 0x00, 0x00, 0x00, 
  0x19, 0xe6, 0xe2, 0x3c, 0x72, 0x01, 0x00, 0x00, 0x68, 0x61, 0x67, 0x72, 
  0x69, 0x64, 0x5f, 0x72, 0x61, 0x77, 0x5f, 0x70, 0x69, 0x78, 0x65, 0x6c, 
  0x5f, 0x66, 0x69, 0x72, 0x6d, 0x77, 0x61, 0x72, 0x65, 0x5f, 0x31, 0x2f, 
  0x72, 0x65, 0x5f, 0x6c, 0x75, 0x5f, 0x33, 0x5f, 0x31, 0x2f, 0x52, 0x65, 
  0x6c, 0x75, 0x3b, 0x68, 0x61, 0x67, 0x72, 0x69, 0x64, 0x5f, 0x72, 0x61, 
  0x77, 0x5f, 0x70, 0x69, 0x78, 0x65, 0x6c, 0x5f, 0x66, 0x69, 0x72, 0x6d, 
  0x77, 0x61, 0x72, 0x65, 0x5f, 0x31, 0x2f, 0x62, 0x61, 0x74, 0x63, 0x68, 
  0x5f, 0x6e, 0x6f, 0x72, 0x6d, 0x61, 0x6c, 0x69, 0x7a, 0x61, 0x74, 0x69, 
  0x6f, 0x6e, 0x5f, 0x33, 0x5f, 0x31, 0x2f, 0x62, 0x61, 0x74, 0x63, 0x68, 
  0x6e, 0x6f, 0x72, 0x6d, 0x2f, 0x61, 0x64, 0x64, 0x5f, 0x31, 0x3b, 0x68, 
  0x61, 0x67, 0x72, 0x69, 0x64, 0x5f, 0x72, 0x61, 0x77, 0x5f, 0x70, 0x69, 
  0x78, 0x65, 0x6c, 0x5f, 0x66, 0x69, 0x72, 0x6d, 0x77, 0x61, 0x72, 0x65, 
  0x5f, 0x31, 0x2f, 0x62, 0x61, 0x74, 0x63, 0x68, 0x5f, 0x6e, 0x6f, 0x72, 
  0x6d, 0x61, 0x6c, 0x69, 0x7a, 0x61, 0x74, 0x69, 0x6f, 0x6e, 0x5f, 0x33, 
  0x5f, 0x31, 0x2f, 0x62, 0x61, 0x74, 0x63, 0x68, 0x6e, 0x6f, 0x72, 0x6d, 
  0x2f, 0x6d, 0x75, 0x6c, 0x5f, 0x31, 0x3b, 0x68, 0x61, 0x67, 0x72, 0x69, 
  0x64, 0x5f, 0x72, 0x61, 0x77, 0x5f, 0x70, 0x69, 0x78, 0x65, 0x6c, 0x5f, 
  0x66, 0x69, 0x72, 0x6d, 0x77, 0x61, 0x72, 0x65, 0x5f, 0x31, 0x2f, 0x64, 
  0x65, 0x70, 0x74, 0x68, 0x77, 0x69, 0x73, 0x65, 0x5f, 0x63, 0x6f, 0x6e, 
  0x76, 0x32, 0x64, 0x5f, 0x31, 0x5f, 0x32, 0x2f, 0x64, 0x65, 0x70, 0x74, 
  0x68, 0x77, 0x69, 0x73, 0x65, 0x3b, 0x68, 0x61, 0x67, 0x72, 0x69, 0x64, 
  0x5f, 0x72, 0x61, 0x77, 0x5f, 0x70, 0x69, 0x78, 0x65, 0x6c, 0x5f, 0x66, 
  0x69, 0x72, 0x6d, 0x77, 0x61, 0x72, 0x65, 0x5f, 0x31, 0x2f, 0x62, 0x61, 
  0x74, 0x63, 0x68, 0x5f, 0x6e, 0x6f, 0x72, 0x6d, 0x61, 0x6c, 0x69, 0x7a, 
  0x61, 0x74, 0x69, 0x6f, 0x6e, 0x5f, 0x33, 0x5f, 0x31, 0x2f, 0x62, 0x61, 
  0x74, 0x63, 0x68, 0x6e, 0x6f, 0x72, 0x6d, 0x2f, 0x6d, 0x75, 0x6c, 0x3b, 
  0x68, 0x61, 0x67, 0x72, 0x69, 0x64, 0x5f, 0x72, 0x61, 0x77, 0x5f, 0x70, 
  0x69, 0x78, 0x65, 0x6c, 0x5f, 0x66, 0x69, 0x72, 0x6d, 0x77, 0x61, 0x72, 
  0x65, 0x5f, 0x31, 0x2f, 0x62, 0x61, 0x74, 0x63, 0x68, 0x5f, 0x6e, 0x6f, 
  0x72, 0x6d, 0x61, 0x6c, 0x69, 0x7a, 0x61, 0x74, 0x69, 0x6f, 0x6e, 0x5f, 
  0x33, 0x5f, 0x31, 0x2f, 0x62, 0x61, 0x74, 0x63, 0x68, 0x6e, 0x6f, 0x72, 
  0x6d, 0x2f, 0x73, 0x75, 0x62, 0x31, 0x00, 0x00, 0x04, 0x00, 0x00, 0x00, 
  0x01, 0x00, 0x00, 0x00, 0x10, 0x00, 0x00, 0x00, 0x10, 0x00, 0x00, 0x00, 
  0x18, 0x00, 0x00, 0x00, 0x2a, 0xe4, 0xff, 0xff, 0x00, 0x00, 0x00, 0x01, 
  0x18, 0x00, 0x00, 0x00, 0x28, 0x00, 0x00, 0x00, 0x48, 0x00, 0x00, 0x00, 
  0x12, 0x00, 0x00, 0x00, 0x00, 0x00, 0x00, 0x09, 0x78, 0x00, 0x00, 0x00, 
  0x04, 0x00, 0x00, 0x00, 0xff, 0xff, 0xff, 0xff, 0x10, 0x00, 0x00, 0x00, 
  0x10, 0x00, 0x00, 0x00, 0x18, 0x00, 0x00, 0x00, 0x14, 0xe4, 0xff, 0xff, 
  0x08, 0x00, 0x00, 0x00, 0x14, 0x00, 0x00, 0x00, 0x01, 0x00, 0x00, 0x00, 
  0x80, 0xff, 0xff, 0xff, 0xff, 0xff, 0xff, 0xff, 0x00, 0x00, 0x00, 0x00, 
  0x01, 0x00, 0x00, 0x00, 0x0f, 0xd1, 0xf1, 0x3c, 0x35, 0x00, 0x00, 0x00, 
  0x68, 0x61, 0x67, 0x72, 0x69, 0x64, 0x5f, 0x72, 0x61, 0x77, 0x5f, 0x70, 
  0x69, 0x78, 0x65, 0x6c, 0x5f, 0x66, 0x69, 0x72, 0x6d, 0x77, 0x61, 0x72, 
  0x65, 0x5f, 0x31, 0x2f, 0x6d, 0x61, 0x78, 0x5f, 0x70, 0x6f, 0x6f, 0x6c, 
  0x69, 0x6e, 0x67, 0x32, 0x64, 0x5f, 0x31, 0x2f, 0x4d, 0x61, 0x78, 0x50, 
  0x6f, 0x6f, 0x6c, 0x32, 0x64, 0x00, 0x00, 0x00, 0x04, 0x00, 0x00, 0x00, 
  0x01, 0x00, 0x00, 0x00, 0x10, 0x00, 0x00, 0x00, 0x10, 0x00, 0x00, 0x00, 
  0x18, 0x00, 0x00, 0x00, 0xd2, 0xe4, 0xff, 0xff, 0x00, 0x00, 0x00, 0x01, 
  0x18, 0x00, 0x00, 0x00, 0x28, 0x00, 0x00, 0x00, 0x48, 0x00, 0x00, 0x00, 
  0x11, 0x00, 0x00, 0x00, 0x00, 0x00, 0x00, 0x09, 0x28, 0x01, 0x00, 0x00, 
  0x04, 0x00, 0x00, 0x00, 0xff, 0xff, 0xff, 0xff, 0x20, 0x00, 0x00, 0x00, 
  0x20, 0x00, 0x00, 0x00, 0x18, 0x00, 0x00, 0x00, 0xbc, 0xe4, 0xff, 0xff, 
  0x08, 0x00, 0x00, 0x00, 0x14, 0x00, 0x00, 0x00, 0x01, 0x00, 0x00, 0x00, 
  0x80, 0xff, 0xff, 0xff, 0xff, 0xff, 0xff, 0xff, 0x00, 0x00, 0x00, 0x00, 
  0x01, 0x00, 0x00, 0x00, 0x0f, 0xd1, 0xf1, 0x3c, 0xe4, 0x00, 0x00, 0x00, 
  0x68, 0x61, 0x67, 0x72, 0x69, 0x64, 0x5f, 0x72, 0x61, 0x77, 0x5f, 0x70, 
  0x69, 0x78, 0x65, 0x6c, 0x5f, 0x66, 0x69, 0x72, 0x6d, 0x77, 0x61, 0x72, 
  0x65, 0x5f, 0x31, 0x2f, 0x72, 0x65, 0x5f, 0x6c, 0x75, 0x5f, 0x32, 0x5f, 
  0x31, 0x2f, 0x52, 0x65, 0x6c, 0x75, 0x3b, 0x68, 0x61, 0x67, 0x72, 0x69, 
  0x64, 0x5f, 0x72, 0x61, 0x77, 0x5f, 0x70, 0x69, 0x78, 0x65, 0x6c, 0x5f, 
  0x66, 0x69, 0x72, 0x6d, 0x77, 0x61, 0x72, 0x65, 0x5f, 0x31, 0x2f, 0x62, 
  0x61, 0x74, 0x63, 0x68, 0x5f, 0x6e, 0x6f, 0x72, 0x6d, 0x61, 0x6c, 0x69, 
  0x7a, 0x61, 0x74, 0x69, 0x6f, 0x6e, 0x5f, 0x32, 0x5f, 0x31, 0x2f, 0x62, 
  0x61, 0x74, 0x63, 0x68, 0x6e, 0x6f, 0x72, 0x6d, 0x2f, 0x61, 0x64, 0x64, 
  0x5f, 0x31, 0x3b, 0x68, 0x61, 0x67, 0x72, 0x69, 0x64, 0x5f, 0x72, 0x61, 
  0x77, 0x5f, 0x70, 0x69, 0x78, 0x65, 0x6c, 0x5f, 0x66, 0x69, 0x72, 0x6d, 
  0x77, 0x61, 0x72, 0x65, 0x5f, 0x31, 0x2f, 0x63, 0x6f, 0x6e, 0x76, 0x32, 
  0x64, 0x5f, 0x31, 0x5f, 0x32, 0x2f, 0x63, 0x6f, 0x6e, 0x76, 0x6f, 0x6c, 
  0x75, 0x74, 0x69, 0x6f, 0x6e, 0x3b, 0x68, 0x61, 0x67, 0x72, 0x69, 0x64, 
  0x5f, 0x72, 0x61, 0x77, 0x5f, 0x70, 0x69, 0x78, 0x65, 0x6c, 0x5f, 0x66, 
  0x69, 0x72, 0x6d, 0x77, 0x61, 0x72, 0x65, 0x5f, 0x31, 0x2f, 0x62, 0x61, 
  0x74, 0x63, 0x68, 0x5f, 0x6e, 0x6f, 0x72, 0x6d, 0x61, 0x6c, 0x69, 0x7a, 
  0x61, 0x74, 0x69, 0x6f, 0x6e, 0x5f, 0x32, 0x5f, 0x31, 0x2f, 0x62, 0x61, 
  0x74, 0x63, 0x68, 0x6e, 0x6f, 0x72, 0x6d, 0x2f, 0x73, 0x75, 0x62, 0x31, 
  0x00, 0x00, 0x00, 0x00, 0x04, 0x00, 0x00, 0x00, 0x01, 0x00, 0x00, 0x00, 
  0x20, 0x00, 0x00, 0x00, 0x20, 0x00, 0x00, 0x00, 0x18, 0x00, 0x00, 0x00, 
  0x2a, 0xe6, 0xff, 0xff, 0x00, 0x00, 0x00, 0x01, 0x18, 0x00, 0x00, 0x00, 
  0x28, 0x00, 0x00, 0x00, 0x44, 0x00, 0x00, 0x00, 0x10, 0x00, 0x00, 0x00, 
  0x00, 0x00, 0x00, 0x09, 0xb0, 0x01, 0x00, 0x00, 0x04, 0x00, 0x00, 0x00, 
  0xff, 0xff, 0xff, 0xff, 0x20, 0x00, 0x00, 0x00, 0x20, 0x00, 0x00, 0x00, 
  0x0c, 0x00, 0x00, 0x00, 0x14, 0xe6, 0xff, 0xff, 0x08, 0x00, 0x00, 0x00, 
  0x10, 0x00, 0x00, 0x00, 0x01, 0x00, 0x00, 0x00, 0x80, 0xff, 0xff, 0xff, 
  0xff, 0xff, 0xff, 0xff, 0x01, 0x00, 0x00, 0x00, 0x89, 0xb4, 0xec, 0x3c, 
  0x70, 0x01, 0x00, 0x00, 0x68, 0x61, 0x67, 0x72, 0x69, 0x64, 0x5f, 0x72, 
  0x61, 0x77, 0x5f, 0x70, 0x69, 0x78, 0x65, 0x6c, 0x5f, 0x66, 0x69, 0x72, 
  0x6d, 0x77, 0x61, 0x72, 0x65, 0x5f, 0x31, 0x2f, 0x72, 0x65, 0x5f, 0x6c, 
  0x75, 0x5f, 0x31, 0x5f, 0x32, 0x2f, 0x52, 0x65, 0x6c, 0x75, 0x3b, 0x68, 
  0x61, 0x67, 0x72, 0x69, 0x64, 0x5f, 0x72, 0x61, 0x77, 0x5f, 0x70, 0x69, 
  0x78, 0x65, 0x6c, 0x5f, 0x66, 0x69, 0x72, 0x6d, 0x77, 0x61, 0x72, 0x65, 
  0x5f, 0x31, 0x2f, 0x62, 0x61, 0x74, 0x63, 0x68, 0x5f, 0x6e, 0x6f, 0x72, 
  0x6d, 0x61, 0x6c, 0x69, 0x7a, 0x61, 0x74, 0x69, 0x6f, 0x6e, 0x5f, 0x31, 
  0x5f, 0x32, 0x2f, 0x62, 0x61, 0x74, 0x63, 0x68, 0x6e, 0x6f, 0x72, 0x6d, 
  0x2f, 0x61, 0x64, 0x64, 0x5f, 0x31, 0x3b, 0x68, 0x61, 0x67, 0x72, 0x69, 
  0x64, 0x5f, 0x72, 0x61, 0x77, 0x5f, 0x70, 0x69, 0x78, 0x65, 0x6c, 0x5f, 
  0x66, 0x69, 0x72, 0x6d, 0x77, 0x61, 0x72, 0x65, 0x5f, 0x31, 0x2f, 0x62, 
  0x61, 0x74, 0x63, 0x68, 0x5f, 0x6e, 0x6f, 0x72, 0x6d, 0x61, 0x6c, 0x69, 
  0x7a, 0x61, 0x74, 0x69, 0x6f, 0x6e, 0x5f, 0x31, 0x5f, 0x32, 0x2f, 0x62, 
  0x61, 0x74, 0x63, 0x68, 0x6e, 0x6f, 0x72, 0x6d, 0x2f, 0x6d, 0x75, 0x6c, 
  0x5f, 0x31, 0x3b, 0x68, 0x61, 0x67, 0x72, 0x69, 0x64, 0x5f, 0x72, 0x61, 
  0x77, 0x5f, 0x70, 0x69, 0x78, 0x65, 0x6c, 0x5f, 0x66, 0x69, 0x72, 0x6d, 
  0x77, 0x61, 0x72, 0x65, 0x5f, 0x31, 0x2f, 0x64, 0x65, 0x70, 0x74, 0x68, 
  0x77, 0x69, 0x73, 0x65, 0x5f, 0x63, 0x6f, 0x6e, 0x76, 0x32, 0x64, 0x5f, 
  0x31, 0x2f, 0x64, 0x65, 0x70, 0x74, 0x68, 0x77, 0x69, 0x73, 0x65, 0x3b, 
  0x68, 0x61, 0x67, 0x72, 0x69, 0x64, 0x5f, 0x72, 0x61, 0x77, 0x5f, 0x70, 
  0x69, 0x78, 0x65, 0x6c, 0x5f, 0x66, 0x69, 0x72, 0x6d, 0x77, 0x61, 0x72, 
  0x65, 0x5f, 0x31, 0x2f, 0x62, 0x61, 0x74, 0x63, 0x68, 0x5f, 0x6e, 0x6f, 
  0x72, 0x6d, 0x61, 0x6c, 0x69, 0x7a, 0x61, 0x74, 0x69, 0x6f, 0x6e, 0x5f, 
  0x31, 0x5f, 0x32, 0x2f, 0x62, 0x61, 0x74, 0x63, 0x68, 0x6e, 0x6f, 0x72, 
  0x6d, 0x2f, 0x6d, 0x75, 0x6c, 0x3b, 0x68, 0x61, 0x67, 0x72, 0x69, 0x64, 
  0x5f, 0x72, 0x61, 0x77, 0x5f, 0x70, 0x69, 0x78, 0x65, 0x6c, 0x5f, 0x66, 
  0x69, 0x72, 0x6d, 0x77, 0x61, 0x72, 0x65, 0x5f, 0x31, 0x2f, 0x62, 0x61, 
  0x74, 0x63, 0x68, 0x5f, 0x6e, 0x6f, 0x72, 0x6d, 0x61, 0x6c, 0x69, 0x7a, 
  0x61, 0x74, 0x69, 0x6f, 0x6e, 0x5f, 0x31, 0x5f, 0x32, 0x2f, 0x62, 0x61, 
  0x74, 0x63, 0x68, 0x6e, 0x6f, 0x72, 0x6d, 0x2f, 0x73, 0x75, 0x62, 0x31, 
  0x00, 0x00, 0x00, 0x00, 0x04, 0x00, 0x00, 0x00, 0x01, 0x00, 0x00, 0x00, 
  0x20, 0x00, 0x00, 0x00, 0x20, 0x00, 0x00, 0x00, 0x0c, 0x00, 0x00, 0x00, 
  0x0a, 0xe8, 0xff, 0xff, 0x00, 0x00, 0x00, 0x01, 0x18, 0x00, 0x00, 0x00, 
  0x28, 0x00, 0x00, 0x00, 0x48, 0x00, 0x00, 0x00, 0x0f, 0x00, 0x00, 0x00, 
  0x00, 0x00, 0x00, 0x09, 0x20, 0x01, 0x00, 0x00, 0x04, 0x00, 0x00, 0x00, 
  0xff, 0xff, 0xff, 0xff, 0x20, 0x00, 0x00, 0x00, 0x20, 0x00, 0x00, 0x00, 
  0x0c, 0x00, 0x00, 0x00, 0xf4, 0xe7, 0xff, 0xff, 0x08, 0x00, 0x00, 0x00, 
  0x14, 0x00, 0x00, 0x00, 0x01, 0x00, 0x00, 0x00, 0x80, 0xff, 0xff, 0xff, 
  0xff, 0xff, 0xff, 0xff, 0x00, 0x00, 0x00, 0x00, 0x01, 0x00, 0x00, 0x00, 
  0x10, 0x84, 0x8e, 0x3c, 0xdc, 0x00, 0x00, 0x00, 0x68, 0x61, 0x67, 0x72, 
  0x69, 0x64, 0x5f, 0x72, 0x61, 0x77, 0x5f, 0x70, 0x69, 0x78, 0x65, 0x6c, 
  0x5f, 0x66, 0x69, 0x72, 0x6d, 0x77, 0x61, 0x72, 0x65, 0x5f, 0x31, 0x2f, 
  0x72, 0x65, 0x5f, 0x6c, 0x75, 0x5f, 0x31, 0x2f, 0x52, 0x65, 0x6c, 0x75, 
  0x3b, 0x68, 0x61, 0x67, 0x72, 0x69, 0x64, 0x5f, 0x72, 0x61, 0x77, 0x5f, 
  0x70, 0x69, 0x78, 0x65, 0x6c, 0x5f, 0x66, 0x69, 0x72, 0x6d, 0x77, 0x61, 
  0x72, 0x65, 0x5f, 0x31, 0x2f, 0x62, 0x61, 0x74, 0x63, 0x68, 0x5f, 0x6e, 
  0x6f, 0x72, 0x6d, 0x61, 0x6c, 0x69, 0x7a, 0x61, 0x74, 0x69, 0x6f, 0x6e, 
  0x5f, 0x31, 0x2f, 0x62, 0x61, 0x74, 0x63, 0x68, 0x6e, 0x6f, 0x72, 0x6d, 
  0x2f, 0x61, 0x64, 0x64, 0x5f, 0x31, 0x3b, 0x68, 0x61, 0x67, 0x72, 0x69, 
  0x64, 0x5f, 0x72, 0x61, 0x77, 0x5f, 0x70, 0x69, 0x78, 0x65, 0x6c, 0x5f, 
  0x66, 0x69, 0x72, 0x6d, 0x77, 0x61, 0x72, 0x65, 0x5f, 0x31, 0x2f, 0x63, 
  0x6f, 0x6e, 0x76, 0x32, 0x64, 0x5f, 0x31, 0x2f, 0x63, 0x6f, 0x6e, 0x76, 
  0x6f, 0x6c, 0x75, 0x74, 0x69, 0x6f, 0x6e, 0x3b, 0x68, 0x61, 0x67, 0x72, 
  0x69, 0x64, 0x5f, 0x72, 0x61, 0x77, 0x5f, 0x70, 0x69, 0x78, 0x65, 0x6c, 
  0x5f, 0x66, 0x69, 0x72, 0x6d, 0x77, 0x61, 0x72, 0x65, 0x5f, 0x31, 0x2f, 
  0x62, 0x61, 0x74, 0x63, 0x68, 0x5f, 0x6e, 0x6f, 0x72, 0x6d, 0x61, 0x6c, 
  0x69, 0x7a, 0x61, 0x74, 0x69, 0x6f, 0x6e, 0x5f, 0x31, 0x2f, 0x62, 0x61, 
  0x74, 0x63, 0x68, 0x6e, 0x6f, 0x72, 0x6d, 0x2f, 0x73, 0x75, 0x62, 0x32, 
  0x00, 0x00, 0x00, 0x00, 0x04, 0x00, 0x00, 0x00, 0x01, 0x00, 0x00, 0x00, 
  0x20, 0x00, 0x00, 0x00, 0x20, 0x00, 0x00, 0x00, 0x0c, 0x00, 0x00, 0x00, 
  0xf2, 0xe9, 0xff, 0xff, 0x00, 0x00, 0x00, 0x01, 0x14, 0x00, 0x00, 0x00, 
  0xb4, 0x00, 0x00, 0x00, 0x0e, 0x00, 0x00, 0x00, 0x00, 0x00, 0x00, 0x09, 
  0x8c, 0x01, 0x00, 0x00, 0x2c, 0xe9, 0xff, 0xff, 0x08, 0x00, 0x00, 0x00, 
  0x68, 0x00, 0x00, 0x00, 0x0c, 0x00, 0x00, 0x00, 0x00, 0x00, 0x00, 0x00, 
  0x00, 0x00, 0x00, 0x00, 0x00, 0x00, 0x00, 0x00, 0x00, 0x00, 0x00, 0x00, 
  0x00, 0x00, 0x00, 0x00, 0x00, 0x00, 0x00, 0x00, 0x00, 0x00, 0x00, 0x00, 
  0x00, 0x00, 0x00, 0x00, 0x00, 0x00, 0x00, 0x00, 0x00, 0x00, 0x00, 0x00, 
  0x00, 0x00, 0x00, 0x00, 0x00, 0x00, 0x00, 0x00, 0x00, 0x00, 0x00, 0x00, 
  0x00, 0x00, 0x00, 0x00, 0x00, 0x00, 0x00, 0x00, 0x00, 0x00, 0x00, 0x00, 
  0x00, 0x00, 0x00, 0x00, 0x00, 0x00, 0x00, 0x00, 0x00, 0x00, 0x00, 0x00, 
  0x00, 0x00, 0x00, 0x00, 0x00, 0x00, 0x00, 0x00, 0x00, 0x00, 0x00, 0x00, 
  0x00, 0x00, 0x00, 0x00, 0x00, 0x00, 0x00, 0x00, 0x0c, 0x00, 0x00, 0x00, 
  0xcd, 0xf1, 0x8f, 0x38, 0x7f, 0xa6, 0xaa, 0x38, 0xda, 0x28, 0x7e, 0x38, 
  0xd1, 0x7b, 0xb7, 0x38, 0x7d, 0xd9, 0x71, 0x38, 0xc5, 0x10, 0x1d, 0x38, 
  0xbb, 0x2c, 0xb2, 0x38, 0x38, 0x8b, 0x94, 0x38, 0xa0, 0x06, 0xa0, 0x38, 
  0xc8, 0xe4, 0xc9, 0x38, 0x56, 0x15, 0x74, 0x38, 0xb5, 0x2b, 0xa2, 0x38, 
  0xdc, 0x00, 0x00, 0x00, 0x68, 0x61, 0x67, 0x72, 0x69, 0x64, 0x5f, 0x72, 
  0x61, 0x77, 0x5f, 0x70, 0x69, 0x78, 0x65, 0x6c, 0x5f, 0x66, 0x69, 0x72, 
  0x6d, 0x77, 0x61, 0x72, 0x65, 0x5f, 0x31, 0x2f, 0x72, 0x65, 0x5f, 0x6c, 
  0x75, 0x5f, 0x31, 0x2f, 0x52, 0x65, 0x6c, 0x75, 0x3b, 0x68, 0x61, 0x67, 
  0x72, 0x69, 0x64, 0x5f, 0x72, 0x61, 0x77, 0x5f, 0x70, 0x69, 0x78, 0x65, 
  0x6c, 0x5f, 0x66, 0x69, 0x72, 0x6d, 0x77, 0x61, 0x72, 0x65, 0x5f, 0x31, 
  0x2f, 0x62, 0x61, 0x74, 0x63, 0x68, 0x5f, 0x6e, 0x6f, 0x72, 0x6d, 0x61, 
  0x6c, 0x69, 0x7a, 0x61, 0x74, 0x69, 0x6f, 0x6e, 0x5f, 0x31, 0x2f, 0x62, 
  0x61, 0x74, 0x63, 0x68, 0x6e, 0x6f, 0x72, 0x6d, 0x2f, 0x61, 0x64, 0x64, 
  0x5f, 0x31, 0x3b, 0x68, 0x61, 0x67, 0x72, 0x69, 0x64, 0x5f, 0x72, 0x61, 
  0x77, 0x5f, 0x70, 0x69, 0x78, 0x65, 0x6c, 0x5f, 0x66, 0x69, 0x72, 0x6d, 
  0x77, 0x61, 0x72, 0x65, 0x5f, 0x31, 0x2f, 0x63, 0x6f, 0x6e, 0x76, 0x32, 
  0x64, 0x5f, 0x31, 0x2f, 0x63, 0x6f, 0x6e, 0x76, 0x6f, 0x6c, 0x75, 0x74, 
  0x69, 0x6f, 0x6e, 0x3b, 0x68, 0x61, 0x67, 0x72, 0x69, 0x64, 0x5f, 0x72, 
  0x61, 0x77, 0x5f, 0x70, 0x69, 0x78, 0x65, 0x6c, 0x5f, 0x66, 0x69, 0x72, 
  0x6d, 0x77, 0x61, 0x72, 0x65, 0x5f, 0x31, 0x2f, 0x62, 0x61, 0x74, 0x63, 
  0x68, 0x5f, 0x6e, 0x6f, 0x72, 0x6d, 0x61, 0x6c, 0x69, 0x7a, 0x61, 0x74, 
  0x69, 0x6f, 0x6e, 0x5f, 0x31, 0x2f, 0x62, 0x61, 0x74, 0x63, 0x68, 0x6e, 
  0x6f, 0x72, 0x6d, 0x2f, 0x73, 0x75, 0x62, 0x31, 0x00, 0x00, 0x00, 0x00, 
  0x04, 0x00, 0x00, 0x00, 0x0c, 0x00, 0x00, 0x00, 0x03, 0x00, 0x00, 0x00, 
  0x03, 0x00, 0x00, 0x00, 0x01, 0x00, 0x00, 0x00, 0xaa, 0xeb, 0xff, 0xff, 
  0x00, 0x00, 0x00, 0x01, 0x14, 0x00, 0x00, 0x00, 0xb8, 0x00, 0x00, 0x00, 
  0x0d, 0x00, 0x00, 0x00, 0x00, 0x00, 0x00, 0x02, 0x8c, 0x01, 0x00, 0x00, 
  0xe4, 0xea, 0xff, 0xff, 0x08, 0x00, 0x00, 0x00, 0x6c, 0x00, 0x00, 0x00, 
  0x0c, 0x00, 0x00, 0x00, 0x00, 0x00, 0x00, 0x00, 0x00, 0x00, 0x00, 0x00, 
  0x00, 0x00, 0x00, 0x00, 0x00, 0x00, 0x00, 0x00, 0x00, 0x00, 0x00, 0x00, 
  0x00, 0x00, 0x00, 0x00, 0x00, 0x00, 0x00, 0x00, 0x00, 0x00, 0x00, 0x00, 
  0x00, 0x00, 0x00, 0x00, 0x00, 0x00, 0x00, 0x00, 0x00, 0x00, 0x00, 0x00, 
  0x00, 0x00, 0x00, 0x00, 0x00, 0x00, 0x00, 0x00, 0x00, 0x00, 0x00, 0x00, 
  0x00, 0x00, 0x00, 0x00, 0x00, 0x00, 0x00, 0x00, 0x00, 0x00, 0x00, 0x00, 
  0x00, 0x00, 0x00, 0x00, 0x00, 0x00, 0x00, 0x00, 0x00, 0x00, 0x00, 0x00, 
  0x00, 0x00, 0x00, 0x00, 0x00, 0x00, 0x00, 0x00, 0x00, 0x00, 0x00, 0x00, 
  0x00, 0x00, 0x00, 0x00, 0x00, 0x00, 0x00, 0x00, 0x0c, 0x00, 0x00, 0x00, 
  0xcd, 0xf1, 0x8f, 0x38, 0x7f, 0xa6, 0xaa, 0x38, 0xda, 0x28, 0x7e, 0x38, 
  0xd1, 0x7b, 0xb7, 0x38, 0x7d, 0xd9, 0x71, 0x38, 0xc5, 0x10, 0x1d, 0x38, 
  0xbb, 0x2c, 0xb2, 0x38, 0x38, 0x8b, 0x94, 0x38, 0xa0, 0x06, 0xa0, 0x38, 
  0xc8, 0xe4, 0xc9, 0x38, 0x56, 0x15, 0x74, 0x38, 0xb5, 0x2b, 0xa2, 0x38, 
  0xdb, 0x00, 0x00, 0x00, 0x68, 0x61, 0x67, 0x72, 0x69, 0x64, 0x5f, 0x72, 
  0x61, 0x77, 0x5f, 0x70, 0x69, 0x78, 0x65, 0x6c, 0x5f, 0x66, 0x69, 0x72, 
  0x6d, 0x77, 0x61, 0x72, 0x65, 0x5f, 0x31, 0x2f, 0x72, 0x65, 0x5f, 0x6c, 
  0x75, 0x5f, 0x31, 0x2f, 0x52, 0x65, 0x6c, 0x75, 0x3b, 0x68, 0x61, 0x67, 
  0x72, 0x69, 0x64, 0x5f, 0x72, 0x61, 0x77, 0x5f, 0x70, 0x69, 0x78, 0x65, 
  0x6c, 0x5f, 0x66, 0x69, 0x72, 0x6d, 0x77, 0x61, 0x72, 0x65, 0x5f, 0x31, 
  0x2f, 0x62, 0x61, 0x74, 0x63, 0x68, 0x5f, 0x6e, 0x6f, 0x72, 0x6d, 0x61, 
  0x6c, 0x69, 0x7a, 0x61, 0x74, 0x69, 0x6f, 0x6e, 0x5f, 0x31, 0x2f, 0x62, 
  0x61, 0x74, 0x63, 0x68, 0x6e, 0x6f, 0x72, 0x6d, 0x2f, 0x61, 0x64, 0x64, 
  0x5f, 0x31, 0x3b, 0x68, 0x61, 0x67, 0x72, 0x69, 0x64, 0x5f, 0x72, 0x61, 
  0x77, 0x5f, 0x70, 0x69, 0x78, 0x65, 0x6c, 0x5f, 0x66, 0x69, 0x72, 0x6d, 
  0x77, 0x61, 0x72, 0x65, 0x5f, 0x31, 0x2f, 0x63, 0x6f, 0x6e, 0x76, 0x32, 
  0x64, 0x5f, 0x31, 0x2f, 0x63, 0x6f, 0x6e, 0x76, 0x6f, 0x6c, 0x75, 0x74, 
  0x69, 0x6f, 0x6e, 0x3b, 0x68, 0x61, 0x67, 0x72, 0x69, 0x64, 0x5f, 0x72, 
  0x61, 0x77, 0x5f, 0x70, 0x69, 0x78, 0x65, 0x6c, 0x5f, 0x66, 0x69, 0x72, 
  0x6d, 0x77, 0x61, 0x72, 0x65, 0x5f, 0x31, 0x2f, 0x62, 0x61, 0x74, 0x63, 
  0x68, 0x5f, 0x6e, 0x6f, 0x72, 0x6d, 0x61, 0x6c, 0x69, 0x7a, 0x61, 0x74, 
  0x69, 0x6f, 0x6e, 0x5f, 0x31, 0x2f, 0x62, 0x61, 0x74, 0x63, 0x68, 0x6e, 
  0x6f, 0x72, 0x6d, 0x2f, 0x73, 0x75, 0x62, 0x00, 0x01, 0x00, 0x00, 0x00, 
  0x0c, 0x00, 0x00, 0x00, 0x56, 0xed, 0xff, 0xff, 0x00, 0x00, 0x00, 0x01, 
  0x14, 0x00, 0x00, 0x00, 0xb8, 0x00, 0x00, 0x00, 0x0c, 0x00, 0x00, 0x00, 
  0x00, 0x00, 0x00, 0x09, 0x70, 0x01, 0x00, 0x00, 0x2a, 0xf8, 0xff, 0xff, 
  0x03, 0x00, 0x00, 0x00, 0x08, 0x00, 0x00, 0x00, 0x68, 0x00, 0x00, 0x00, 
  0x0c, 0x00, 0x00, 0x00, 0x00, 0x00, 0x00, 0x00, 0x00, 0x00, 0x00, 0x00, 
  0x00, 0x00, 0x00, 0x00, 0x00, 0x00, 0x00, 0x00, 0x00, 0x00, 0x00, 0x00, 
  0x00, 0x00, 0x00, 0x00, 0x00, 0x00, 0x00, 0x00, 0x00, 0x00, 0x00, 0x00, 
  0x00, 0x00, 0x00, 0x00, 0x00, 0x00, 0x00, 0x00, 0x00, 0x00, 0x00, 0x00, 
  0x00, 0x00, 0x00, 0x00, 0x00, 0x00, 0x00, 0x00, 0x00, 0x00, 0x00, 0x00, 
  0x00, 0x00, 0x00, 0x00, 0x00, 0x00, 0x00, 0x00, 0x00, 0x00, 0x00, 0x00, 
  0x00, 0x00, 0x00, 0x00, 0x00, 0x00, 0x00, 0x00, 0x00, 0x00, 0x00, 0x00, 
  0x00, 0x00, 0x00, 0x00, 0x00, 0x00, 0x00, 0x00, 0x00, 0x00, 0x00, 0x00, 
  0x00, 0x00, 0x00, 0x00, 0x0c, 0x00, 0x00, 0x00, 0x72, 0x51, 0xf7, 0x3b, 
  0xd2, 0x79, 0x4b, 0x3c, 0x1a, 0x2c, 0x23, 0x3c, 0xe3, 0xff, 0x2d, 0x3c, 
  0x21, 0x14, 0x67, 0x3c, 0x1a, 0x4f, 0x13, 0x3c, 0xa9, 0x04, 0x66, 0x3c, 
  0x6a, 0x52, 0x5e, 0x3c, 0xb5, 0x49, 0xab, 0x3c, 0xe1, 0xff, 0x94, 0x3c, 
  0xa0, 0x40, 0x69, 0x3c, 0xb8, 0x50, 0x76, 0x3c, 0xbe, 0x00, 0x00, 0x00, 
  0x68, 0x61, 0x67, 0x72, 0x69, 0x64, 0x5f, 0x72, 0x61, 0x77, 0x5f, 0x70, 
  0x69, 0x78, 0x65, 0x6c, 0x5f, 0x66, 0x69, 0x72, 0x6d, 0x77, 0x61, 0x72, 
  0x65, 0x5f, 0x31, 0x2f, 0x62, 0x61, 0x74, 0x63, 0x68, 0x5f, 0x6e, 0x6f, 
  0x72, 0x6d, 0x61, 0x6c, 0x69, 0x7a, 0x61, 0x74, 0x69, 0x6f, 0x6e, 0x5f, 
  0x31, 0x5f, 0x32, 0x2f, 0x62, 0x61, 0x74, 0x63, 0x68, 0x6e, 0x6f, 0x72, 
  0x6d, 0x2f, 0x6d, 0x75, 0x6c, 0x5f, 0x31, 0x3b, 0x68, 0x61, 0x67, 0x72, 
  0x69, 0x64, 0x5f, 0x72, 0x61, 0x77, 0x5f, 0x70, 0x69, 0x78, 0x65, 0x6c, 
  0x5f, 0x66, 0x69, 0x72, 0x6d, 0x77, 0x61, 0x72, 0x65, 0x5f, 0x31, 0x2f, 
  0x64, 0x65, 0x70, 0x74, 0x68, 0x77, 0x69, 0x73, 0x65, 0x5f, 0x63, 0x6f, 
  0x6e, 0x76, 0x32, 0x64, 0x5f, 0x31, 0x2f, 0x64, 0x65, 0x70, 0x74, 0x68, 
  0x77, 0x69, 0x73, 0x65, 0x3b, 0x68, 0x61, 0x67, 0x72, 0x69, 0x64, 0x5f, 
  0x72, 0x61, 0x77, 0x5f, 0x70, 0x69, 0x78, 0x65, 0x6c, 0x5f, 0x66, 0x69, 
  0x72, 0x6d, 0x77, 0x61, 0x72, 0x65, 0x5f, 0x31, 0x2f, 0x62, 0x61, 0x74, 
  0x63, 0x68, 0x5f, 0x6e, 0x6f, 0x72, 0x6d, 0x61, 0x6c, 0x69, 0x7a, 0x61, 
  0x74, 0x69, 0x6f, 0x6e, 0x5f, 0x31, 0x5f, 0x32, 0x2f, 0x62, 0x61, 0x74, 
  0x63, 0x68, 0x6e, 0x6f, 0x72, 0x6d, 0x2f, 0x6d, 0x75, 0x6c, 0x00, 0x00, 
  0x04, 0x00, 0x00, 0x00, 0x01, 0x00, 0x00, 0x00, 0x03, 0x00, 0x00, 0x00, 
  0x03, 0x00, 0x00, 0x00, 0x0c, 0x00, 0x00, 0x00, 0xf2, 0xee, 0xff, 0xff, 
  0x00, 0x00, 0x00, 0x01, 0x14, 0x00, 0x00, 0x00, 0xb8, 0x00, 0x00, 0x00, 
  0x0b, 0x00, 0x00, 0x00, 0x00, 0x00, 0x00, 0x02, 0x20, 0x02, 0x00, 0x00, 
  0x2c, 0xee, 0xff, 0xff, 0x08, 0x00, 0x00, 0x00, 0x6c, 0x00, 0x00, 0x00, 
  0x0c, 0x00, 0x00, 0x00, 0x00, 0x00, 0x00, 0x00, 0x00, 0x00, 0x00, 0x00, 
  0x00, 0x00, 0x00, 0x00, 0x00, 0x00, 0x00, 0x00, 0x00, 0x00, 0x00, 0x00, 
  0x00, 0x00, 0x00, 0x00, 0x00, 0x00, 0x00, 0x00, 0x00, 0x00, 0x00, 0x00, 
  0x00, 0x00, 0x00, 0x00, 0x00, 0x00, 0x00, 0x00, 0x00, 0x00, 0x00, 0x00, 
  0x00, 0x00, 0x00, 0x00, 0x00, 0x00, 0x00, 0x00, 0x00, 0x00, 0x00, 0x00, 
  0x00, 0x00, 0x00, 0x00, 0x00, 0x00, 0x00, 0x00, 0x00, 0x00, 0x00, 0x00, 
  0x00, 0x00, 0x00, 0x00, 0x00, 0x00, 0x00, 0x00, 0x00, 0x00, 0x00, 0x00, 
  0x00, 0x00, 0x00, 0x00, 0x00, 0x00, 0x00, 0x00, 0x00, 0x00, 0x00, 0x00, 
  0x00, 0x00, 0x00, 0x00, 0x00, 0x00, 0x00, 0x00, 0x0c, 0x00, 0x00, 0x00, 
  0xc3, 0xae, 0x09, 0x39, 0x14, 0x8d, 0x62, 0x39, 0x47, 0xad, 0x35, 0x39, 
  0x65, 0xbb, 0x41, 0x39, 0x5f, 0xa4, 0x80, 0x39, 0xbd, 0x03, 0x24, 0x39, 
  0x3f, 0x0d, 0x80, 0x39, 0xce, 0x88, 0x77, 0x39, 0x7e, 0xb6, 0xbe, 0x39, 
  0x98, 0xe5, 0xa5, 0x39, 0x2d, 0xda, 0x81, 0x39, 0xd7, 0x1f, 0x89, 0x39, 
  0x6f, 0x01, 0x00, 0x00, 0x68, 0x61, 0x67, 0x72, 0x69, 0x64, 0x5f, 0x72, 
  0x61, 0x77, 0x5f, 0x70, 0x69, 0x78, 0x65, 0x6c, 0x5f, 0x66, 0x69, 0x72, 
  0x6d, 0x77, 0x61, 0x72, 0x65, 0x5f, 0x31, 0x2f, 0x72, 0x65, 0x5f, 0x6c, 
  0x75, 0x5f, 0x31, 0x5f, 0x32, 0x2f, 0x52, 0x65, 0x6c, 0x75, 0x3b, 0x68, 
  0x61, 0x67, 0x72, 0x69, 0x64, 0x5f, 0x72, 0x61, 0x77, 0x5f, 0x70, 0x69, 
  0x78, 0x65, 0x6c, 0x5f, 0x66, 0x69, 0x72, 0x6d, 0x77, 0x61, 0x72, 0x65, 
  0x5f, 0x31, 0x2f, 0x62, 0x61, 0x74, 0x63, 0x68, 0x5f, 0x6e, 0x6f, 0x72, 
  0x6d, 0x61, 0x6c, 0x69, 0x7a, 0x61, 0x74, 0x69, 0x6f, 0x6e, 0x5f, 0x31, 
  0x5f, 0x32, 0x2f, 0x62, 0x61, 0x74, 0x63, 0x68, 0x6e, 0x6f, 0x72, 0x6d, 
  0x2f, 0x61, 0x64, 0x64, 0x5f, 0x31, 0x3b, 0x68, 0x61, 0x67, 0x72, 0x69, 
  0x64, 0x5f, 0x72, 0x61, 0x77, 0x5f, 0x70, 0x69, 0x78, 0x65, 0x6c, 0x5f, 
  0x66, 0x69, 0x72, 0x6d, 0x77, 0x61, 0x72, 0x65, 0x5f, 0x31, 0x2f, 0x62, 
  0x61, 0x74, 0x63, 0x68, 0x5f, 0x6e, 0x6f, 0x72, 0x6d, 0x61, 0x6c, 0x69, 
  0x7a, 0x61, 0x74, 0x69, 0x6f, 0x6e, 0x5f, 0x31, 0x5f, 0x32, 0x2f, 0x62, 
  0x61, 0x74, 0x63, 0x68, 0x6e, 0x6f, 0x72, 0x6d, 0x2f, 0x6d, 0x75, 0x6c, 
  0x5f, 0x31, 0x3b, 0x68, 0x61, 0x67, 0x72, 0x69, 0x64, 0x5f, 0x72, 0x61, 
  0x77, 0x5f, 0x70, 0x69, 0x78, 0x65, 0x6c, 0x5f, 0x66, 0x69, 0x72, 0x6d, 
  0x77, 0x61, 0x72, 0x65, 0x5f, 0x31, 0x2f, 0x64, 0x65, 0x70, 0x74, 0x68, 
  0x77, 0x69, 0x73, 0x65, 0x5f, 0x63, 0x6f, 0x6e, 0x76, 0x32, 0x64, 0x5f, 
  0x31, 0x2f, 0x64, 0x65, 0x70, 0x74, 0x68, 0x77, 0x69, 0x73, 0x65, 0x3b, 
  0x68, 0x61, 0x67, 0x72, 0x69, 0x64, 0x5f, 0x72, 0x61, 0x77, 0x5f, 0x70, 
  0x69, 0x78, 0x65, 0x6c, 0x5f, 0x66, 0x69, 0x72, 0x6d, 0x77, 0x61, 0x72, 
  0x65, 0x5f, 0x31, 0x2f, 0x62, 0x61, 0x74, 0x63, 0x68, 0x5f, 0x6e, 0x6f, 
  0x72, 0x6d, 0x61, 0x6c, 0x69, 0x7a, 0x61, 0x74, 0x69, 0x6f, 0x6e, 0x5f, 
  0x31, 0x5f, 0x32, 0x2f, 0x62, 0x61, 0x74, 0x63, 0x68, 0x6e, 0x6f, 0x72, 
  0x6d, 0x2f, 0x6d, 0x75, 0x6c, 0x3b, 0x68, 0x61, 0x67, 0x72, 0x69, 0x64, 
  0x5f, 0x72, 0x61, 0x77, 0x5f, 0x70, 0x69, 0x78, 0x65, 0x6c, 0x5f, 0x66, 
  0x69, 0x72, 0x6d, 0x77, 0x61, 0x72, 0x65, 0x5f, 0x31, 0x2f, 0x62, 0x61, 
  0x74, 0x63, 0x68, 0x5f, 0x6e, 0x6f, 0x72, 0x6d, 0x61, 0x6c, 0x69, 0x7a, 
  0x61, 0x74, 0x69, 0x6f, 0x6e, 0x5f, 0x31, 0x5f, 0x32, 0x2f, 0x62, 0x61, 
  0x74, 0x63, 0x68, 0x6e, 0x6f, 0x72, 0x6d, 0x2f, 0x73, 0x75, 0x62, 0x00, 
  0x01, 0x00, 0x00, 0x00, 0x0c, 0x00, 0x00, 0x00, 0x32, 0xf1, 0xff, 0xff, 
  0x00, 0x00, 0x00, 0x01, 0x14, 0x00, 0x00, 0x00, 0x48, 0x01, 0x00, 0x00, 
  0x0a, 0x00, 0x00, 0x00, 0x00, 0x00, 0x00, 0x09, 0x74, 0x01, 0x00, 0x00, 
  0x6c, 0xf0, 0xff, 0xff, 0x08, 0x00, 0x00, 0x00, 0xcc, 0x00, 0x00, 0x00, 
  0x18, 0x00, 0x00, 0x00, 0x00, 0x00, 0x00, 0x00, 0x00, 0x00, 0x00, 0x00, 
  0x00, 0x00, 0x00, 0x00, 0x00, 0x00, 0x00, 0x00, 0x00, 0x00, 0x00, 0x00, 
  0x00, 0x00, 0x00, 0x00, 0x00, 0x00, 0x00, 0x00, 0x00, 0x00, 0x00, 0x00, 
  0x00, 0x00, 0x00, 0x00, 0x00, 0x00, 0x00, 0x00, 0x00, 0x00, 0x00, 0x00, 
  0x00, 0x00, 0x00, 0x00, 0x00, 0x00, 0x00, 0x00, 0x00, 0x00, 0x00, 0x00, 
  0x00, 0x00, 0x00, 0x00, 0x00, 0x00, 0x00, 0x00, 0x00, 0x00, 0x00, 0x00, 
  0x00, 0x00, 0x00, 0x00, 0x00, 0x00, 0x00, 0x00, 0x00, 0x00, 0x00, 0x00, 
  0x00, 0x00, 0x00, 0x00, 0x00, 0x00, 0x00, 0x00, 0x00, 0x00, 0x00, 0x00, 
  0x00, 0x00, 0x00, 0x00, 0x00, 0x00, 0x00, 0x00, 0x00, 0x00, 0x00, 0x00, 
  0x00, 0x00, 0x00, 0x00, 0x00, 0x00, 0x00, 0x00, 0x00, 0x00, 0x00, 0x00, 
  0x00, 0x00, 0x00, 0x00, 0x00, 0x00, 0x00, 0x00, 0x00, 0x00, 0x00, 0x00, 
  0x00, 0x00, 0x00, 0x00, 0x00, 0x00, 0x00, 0x00, 0x00, 0x00, 0x00, 0x00, 
  0x00, 0x00, 0x00, 0x00, 0x00, 0x00, 0x00, 0x00, 0x00, 0x00, 0x00, 0x00, 
  0x00, 0x00, 0x00, 0x00, 0x00, 0x00, 0x00, 0x00, 0x00, 0x00, 0x00, 0x00, 
  0x00, 0x00, 0x00, 0x00, 0x00, 0x00, 0x00, 0x00, 0x00, 0x00, 0x00, 0x00, 
  0x00, 0x00, 0x00, 0x00, 0x00, 0x00, 0x00, 0x00, 0x00, 0x00, 0x00, 0x00, 
  0x00, 0x00, 0x00, 0x00, 0x00, 0x00, 0x00, 0x00, 0x18, 0x00, 0x00, 0x00, 
  0x33, 0x15, 0xed, 0x3b, 0x46, 0x00, 0xed, 0x3b, 0xbb, 0xe4, 0x33, 0x3c, 
  0xd7, 0x4e, 0x93, 0x3b, 0xcc, 0xab, 0xdf, 0x3b, 0x0b, 0x16, 0x0b, 0x3c, 
  0x61, 0xfb, 0xf3, 0x3b, 0x21, 0xed, 0xbd, 0x3b, 0x2d, 0xad, 0x8f, 0x3b, 
  0xf4, 0xde, 0x9b, 0x3b, 0x90, 0x74, 0xdf, 0x3b, 0xca, 0xdc, 0x91, 0x3b, 
  0xee, 0x3d, 0x96, 0x3b, 0x4d, 0x8f, 0xfa, 0x3b, 0xf7, 0x47, 0xdc, 0x3b, 
  0xe1, 0x5a, 0x54, 0x3b, 0x93, 0x2a, 0x2d, 0x3c, 0x17, 0x4c, 0xb8, 0x3b, 
  0x9d, 0x81, 0xb2, 0x3b, 0xff, 0xac, 0xdc, 0x3b, 0x2f, 0x78, 0xab, 0x3b, 
  0x83, 0x2b, 0xc2, 0x3b, 0x21, 0x37, 0xe3, 0x3b, 0x26, 0x40, 0x73, 0x3b, 
  0x32, 0x00, 0x00, 0x00, 0x68, 0x61, 0x67, 0x72, 0x69, 0x64, 0x5f, 0x72, 
  0x61, 0x77, 0x5f, 0x70, 0x69, 0x78, 0x65, 0x6c, 0x5f, 0x66, 0x69, 0x72, 
  0x6d, 0x77, 0x61, 0x72, 0x65, 0x5f, 0x31, 0x2f, 0x63, 0x6f, 0x6e, 0x76, 
  0x32, 0x64, 0x5f, 0x31, 0x5f, 0x32, 0x2f, 0x63, 0x6f, 0x6e, 0x76, 0x6f, 
  0x6c, 0x75, 0x74, 0x69, 0x6f, 0x6e, 0x00, 0x00, 0x04, 0x00, 0x00, 0x00, 
  0x18, 0x00, 0x00, 0x00, 0x01, 0x00, 0x00, 0x00, 0x01, 0x00, 0x00, 0x00, 
  0x0c, 0x00, 0x00, 0x00, 0xd2, 0xf2, 0xff, 0xff, 0x00, 0x00, 0x00, 0x01, 
  0x14, 0x00, 0x00, 0x00, 0x44, 0x01, 0x00, 0x00, 0x09, 0x00, 0x00, 0x00, 
  0x00, 0x00, 0x00, 0x02, 0x20, 0x02, 0x00, 0x00, 0x0c, 0xf2, 0xff, 0xff, 
  0x08, 0x00, 0x00, 0x00, 0xc8, 0x00, 0x00, 0x00, 0x18, 0x00, 0x00, 0x00, 
  0x00, 0x00, 0x00, 0x00, 0x00, 0x00, 0x00, 0x00, 0x00, 0x00, 0x00, 0x00, 
  0x00, 0x00, 0x00, 0x00, 0x00, 0x00, 0x00, 0x00, 0x00, 0x00, 0x00, 0x00, 
  0x00, 0x00, 0x00, 0x00, 0x00, 0x00, 0x00, 0x00, 0x00, 0x00, 0x00, 0x00, 
  0x00, 0x00, 0x00, 0x00, 0x00, 0x00, 0x00, 0x00, 0x00, 0x00, 0x00, 0x00, 
  0x00, 0x00, 0x00, 0x00, 0x00, 0x00, 0x00, 0x00, 0x00, 0x00, 0x00, 0x00, 
  0x00, 0x00, 0x00, 0x00, 0x00, 0x00, 0x00, 0x00, 0x00, 0x00, 0x00, 0x00, 
  0x00, 0x00, 0x00, 0x00, 0x00, 0x00, 0x00, 0x00, 0x00, 0x00, 0x00, 0x00, 
  0x00, 0x00, 0x00, 0x00, 0x00, 0x00, 0x00, 0x00, 0x00, 0x00, 0x00, 0x00, 
  0x00, 0x00, 0x00, 0x00, 0x00, 0x00, 0x00, 0x00, 0x00, 0x00, 0x00, 0x00, 
  0x00, 0x00, 0x00, 0x00, 0x00, 0x00, 0x00, 0x00, 0x00, 0x00, 0x00, 0x00, 
  0x00, 0x00, 0x00, 0x00, 0x00, 0x00, 0x00, 0x00, 0x00, 0x00, 0x00, 0x00, 
  0x00, 0x00, 0x00, 0x00, 0x00, 0x00, 0x00, 0x00, 0x00, 0x00, 0x00, 0x00, 
  0x00, 0x00, 0x00, 0x00, 0x00, 0x00, 0x00, 0x00, 0x00, 0x00, 0x00, 0x00, 
  0x00, 0x00, 0x00, 0x00, 0x00, 0x00, 0x00, 0x00, 0x00, 0x00, 0x00, 0x00, 
  0x00, 0x00, 0x00, 0x00, 0x00, 0x00, 0x00, 0x00, 0x00, 0x00, 0x00, 0x00, 
  0x00, 0x00, 0x00, 0x00, 0x00, 0x00, 0x00, 0x00, 0x00, 0x00, 0x00, 0x00, 
  0x18, 0x00, 0x00, 0x00, 0xbd, 0x36, 0x5b, 0x39, 0x64, 0x23, 0x5b, 0x39, 
  0xb9, 0x55, 0xa6, 0x39, 0x90, 0x34, 0x08, 0x39, 0x1d, 0xd0, 0x4e, 0x39, 
  0x68, 0x9a, 0x80, 0x39, 0xcd, 0x97, 0x61, 0x39, 0x8b, 0x9c, 0x2f, 0x39, 
  0xf8, 0xd8, 0x04, 0x39, 0x75, 0x1f, 0x10, 0x39, 0x0a, 0x9d, 0x4e, 0x39, 
  0x68, 0xde, 0x06, 0x39, 0x0b, 0xeb, 0x0a, 0x39, 0xce, 0xac, 0x67, 0x39, 
  0xb0, 0xad, 0x4b, 0x39, 0x89, 0x59, 0xc4, 0x38, 0x5e, 0x1d, 0xa0, 0x39, 
  0x1d, 0x68, 0x2a, 0x39, 0x5f, 0x0d, 0x25, 0x39, 0x1b, 0x0b, 0x4c, 0x39, 
  0xb8, 0x8b, 0x1e, 0x39, 0x0b, 0x89, 0x33, 0x39, 0x0f, 0x17, 0x52, 0x39, 
  0xae, 0xea, 0xe0, 0x38, 0xe3, 0x00, 0x00, 0x00, 0x68, 0x61, 0x67, 0x72, 
  0x69, 0x64, 0x5f, 0x72, 0x61, 0x77, 0x5f, 0x70, 0x69, 0x78, 0x65, 0x6c, 
  0x5f, 0x66, 0x69, 0x72, 0x6d, 0x77, 0x61, 0x72, 0x65, 0x5f, 0x31, 0x2f, 
  0x72, 0x65, 0x5f, 0x6c, 0x75, 0x5f, 0x32, 0x5f, 0x31, 0x2f, 0x52, 0x65, 
  0x6c, 0x75, 0x3b, 0x68, 0x61, 0x67, 0x72, 0x69, 0x64, 0x5f, 0x72, 0x61, 
  0x77, 0x5f, 0x70, 0x69, 0x78, 0x65, 0x6c, 0x5f, 0x66, 0x69, 0x72, 0x6d, 
  0x77, 0x61, 0x72, 0x65, 0x5f, 0x31, 0x2f, 0x62, 0x61, 0x74, 0x63, 0x68, 
  0x5f, 0x6e, 0x6f, 0x72, 0x6d, 0x61, 0x6c, 0x69, 0x7a, 0x61, 0x74, 0x69, 
  0x6f, 0x6e, 0x5f, 0x32, 0x5f, 0x31, 0x2f, 0x62, 0x61, 0x74, 0x63, 0x68, 
  0x6e, 0x6f, 0x72, 0x6d, 0x2f, 0x61, 0x64, 0x64, 0x5f, 0x31, 0x3b, 0x68, 
  0x61, 0x67, 0x72, 0x69, 0x64, 0x5f, 0x72, 0x61, 0x77, 0x5f, 0x70, 0x69, 
  0x78, 0x65, 0x6c, 0x5f, 0x66, 0x69, 0x72, 0x6d, 0x77, 0x61, 0x72, 0x65, 
  0x5f, 0x31, 0x2f, 0x63, 0x6f, 0x6e, 0x76, 0x32, 0x64, 0x5f, 0x31, 0x5f, 
  0x32, 0x2f, 0x63, 0x6f, 0x6e, 0x76, 0x6f, 0x6c, 0x75, 0x74, 0x69, 0x6f, 
  0x6e, 0x3b, 0x68, 0x61, 0x67, 0x72, 0x69, 0x64, 0x5f, 0x72, 0x61, 0x77, 
  0x5f, 0x70, 0x69, 0x78, 0x65, 0x6c, 0x5f, 0x66, 0x69, 0x72, 0x6d, 0x77, 
  0x61, 0x72, 0x65, 0x5f, 0x31, 0x2f, 0x62, 0x61, 0x74, 0x63, 0x68, 0x5f, 
  0x6e, 0x6f, 0x72, 0x6d, 0x61, 0x6c, 0x69, 0x7a, 0x61, 0x74, 0x69, 0x6f, 
  0x6e, 0x5f, 0x32, 0x5f, 0x31, 0x2f, 0x62, 0x61, 0x74, 0x63, 0x68, 0x6e, 
  0x6f, 0x72, 0x6d, 0x2f, 0x73, 0x75, 0x62, 0x00, 0x01, 0x00, 0x00, 0x00, 
  0x18, 0x00, 0x00, 0x00, 0x00, 0x00, 0x16, 0x00, 0x1e, 0x00, 0x18, 0x00, 
  0x17, 0x00, 0x10, 0x00, 0x0c, 0x00, 0x08, 0x00, 0x00, 0x00, 0x00, 0x00, 
  0x00, 0x00, 0x07, 0x00, 0x16, 0x00, 0x00, 0x00, 0x00, 0x00, 0x00, 0x01, 
  0x28, 0x00, 0x00, 0x00, 0x60, 0x01, 0x00, 0x00, 0x08, 0x00, 0x00, 0x00, 
  0x00, 0x00, 0x00, 0x09, 0x1c, 0x02, 0x00, 0x00, 0x00, 0x00, 0x12, 0x00, 
  0x10, 0x00, 0x00, 0x00, 0x00, 0x00, 0x0c, 0x00, 0x08, 0x00, 0x00, 0x00, 
  0x00, 0x00, 0x04, 0x00, 0x12, 0x00, 0x00, 0x00, 0x03, 0x00, 0x00, 0x00, 
  0x08, 0x00, 0x00, 0x00, 0xcc, 0x00, 0x00, 0x00, 0x18, 0x00, 0x00, 0x00, 
  0x00, 0x00, 0x00, 0x00, 0x00, 0x00, 0x00, 0x00, 0x00, 0x00, 0x00, 0x00, 
  0x00, 0x00, 0x00, 0x00, 0x00, 0x00, 0x00, 0x00, 0x00, 0x00, 0x00, 0x00, 
  0x00, 0x00, 0x00, 0x00, 0x00, 0x00, 0x00, 0x00, 0x00, 0x00, 0x00, 0x00, 
  0x00, 0x00, 0x00, 0x00, 0x00, 0x00, 0x00, 0x00, 0x00, 0x00, 0x00, 0x00, 
  0x00, 0x00, 0x00, 0x00, 0x00, 0x00, 0x00, 0x00, 0x00, 0x00, 0x00, 0x00, 
  0x00, 0x00, 0x00, 0x00, 0x00, 0x00, 0x00, 0x00, 0x00, 0x00, 0x00, 0x00, 
  0x00, 0x00, 0x00, 0x00, 0x00, 0x00, 0x00, 0x00, 0x00, 0x00, 0x00, 0x00, 
  0x00, 0x00, 0x00, 0x00, 0x00, 0x00, 0x00, 0x00, 0x00, 0x00, 0x00, 0x00, 
  0x00, 0x00, 0x00, 0x00, 0x00, 0x00, 0x00, 0x00, 0x00, 0x00, 0x00, 0x00, 
  0x00, 0x00, 0x00, 0x00, 0x00, 0x00, 0x00, 0x00, 0x00, 0x00, 0x00, 0x00, 
  0x00, 0x00, 0x00, 0x00, 0x00, 0x00, 0x00, 0x00, 0x00, 0x00, 0x00, 0x00, 
  0x00, 0x00, 0x00, 0x00, 0x00, 0x00, 0x00, 0x00, 0x00, 0x00, 0x00, 0x00, 
  0x00, 0x00, 0x00, 0x00, 0x00, 0x00, 0x00, 0x00, 0x00, 0x00, 0x00, 0x00, 
  0x00, 0x00, 0x00, 0x00, 0x00, 0x00, 0x00, 0x00, 0x00, 0x00, 0x00, 0x00, 
  0x00, 0x00, 0x00, 0x00, 0x00, 0x00, 0x00, 0x00, 0x00, 0x00, 0x00, 0x00, 
  0x00, 0x00, 0x00, 0x00, 0x00, 0x00, 0x00, 0x00, 0x00, 0x00, 0x00, 0x00, 
  0x00, 0x00, 0x00, 0x00, 0x18, 0x00, 0x00, 0x00, 0x5d, 0x01, 0x6a, 0x3b, 
  0xfa, 0x24, 0x81, 0x3b, 0x53, 0x8f, 0x56, 0x3b, 0x06, 0xc5, 0x75, 0x3b, 
  0x9f, 0x14, 0xd6, 0x3b, 0x43, 0x8e, 0xb3, 0x3b, 0x42, 0xad, 0x8d, 0x3b, 
  0x55, 0x8c, 0x1c, 0x3c, 0xa5, 0xd3, 0x27, 0x3c, 0x47, 0x31, 0xec, 0x3b, 
  0x5f, 0xb3, 0x50, 0x3b, 0x39, 0xb5, 0xda, 0x3b, 0x57, 0xbc, 0xbe, 0x3b, 
  0x6e, 0xc0, 0x64, 0x3b, 0x3d, 0x19, 0x4c, 0x3b, 0xb6, 0xe3, 0x8c, 0x3b, 
  0xe3, 0x44, 0x83, 0x3b, 0xe3, 0xc9, 0x85, 0x3b, 0xc1, 0x62, 0xa2, 0x3b, 
  0x57, 0x0e, 0xdb, 0x3b, 0xad, 0xd6, 0xd6, 0x3b, 0xbd, 0x7b, 0xec, 0x3b, 
  0x56, 0x2d, 0x85, 0x3b, 0xd7, 0x88, 0x6f, 0x3b, 0xc0, 0x00, 0x00, 0x00, 
  0x68, 0x61, 0x67, 0x72, 0x69, 0x64, 0x5f, 0x72, 0x61, 0x77, 0x5f, 0x70, 
  0x69, 0x78, 0x65, 0x6c, 0x5f, 0x66, 0x69, 0x72, 0x6d, 0x77, 0x61, 0x72, 
  0x65, 0x5f, 0x31, 0x2f, 0x62, 0x61, 0x74, 0x63, 0x68, 0x5f, 0x6e, 0x6f, 
  0x72, 0x6d, 0x61, 0x6c, 0x69, 0x7a, 0x61, 0x74, 0x69, 0x6f, 0x6e, 0x5f, 
  0x33, 0x5f, 0x31, 0x2f, 0x62, 0x61, 0x74, 0x63, 0x68, 0x6e, 0x6f, 0x72, 
  0x6d, 0x2f, 0x6d, 0x75, 0x6c, 0x5f, 0x31, 0x3b, 0x68, 0x61, 0x67, 0x72, 
  0x69, 0x64, 0x5f, 0x72, 0x61, 0x77, 0x5f, 0x70, 0x69, 0x78, 0x65, 0x6c, 
  0x5f, 0x66, 0x69, 0x72, 0x6d, 0x77, 0x61, 0x72, 0x65, 0x5f, 0x31, 0x2f, 
  0x64, 0x65, 0x70, 0x74, 0x68, 0x77, 0x69, 0x73, 0x65, 0x5f, 0x63, 0x6f, 
  0x6e, 0x76, 0x32, 0x64, 0x5f, 0x31, 0x5f, 0x32, 0x2f, 0x64, 0x65, 0x70, 
  0x74, 0x68, 0x77, 0x69, 0x73, 0x65, 0x3b, 0x68, 0x61, 0x67, 0x72, 0x69, 
  0x64, 0x5f, 0x72, 0x61, 0x77, 0x5f, 0x70, 0x69, 0x78, 0x65, 0x6c, 0x5f, 
  0x66, 0x69, 0x72, 0x6d, 0x77, 0x61, 0x72, 0x65, 0x5f, 0x31, 0x2f, 0x62, 
  0x61, 0x74, 0x63, 0x68, 0x5f, 0x6e, 0x6f, 0x72, 0x6d, 0x61, 0x6c, 0x69, 
  0x7a, 0x61, 0x74, 0x69, 0x6f, 0x6e, 0x5f, 0x33, 0x5f, 0x31, 0x2f, 0x62, 
  0x61, 0x74, 0x63, 0x68, 0x6e, 0x6f, 0x72, 0x6d, 0x2f, 0x6d, 0x75, 0x6c, 
  0x00, 0x00, 0x00, 0x00, 0x04, 0x00, 0x00, 0x00, 0x01, 0x00, 0x00, 0x00, 
  0x03, 0x00, 0x00, 0x00, 0x03, 0x00, 0x00, 0x00, 0x18, 0x00, 0x00, 0x00, 
  0x72, 0xf7, 0xff, 0xff, 0x00, 0x00, 0x00, 0x01, 0x14, 0x00, 0x00, 0x00, 
  0x44, 0x01, 0x00, 0x00, 0x07, 0x00, 0x00, 0x00, 0x00, 0x00, 0x00, 0x02, 
  0xb0, 0x02, 0x00, 0x00, 0xac, 0xf6, 0xff, 0xff, 0x08, 0x00, 0x00, 0x00, 
  0xc8, 0x00, 0x00, 0x00, 0x18, 0x00, 0x00, 0x00, 0x00, 0x00, 0x00, 0x00, 
  0x00, 0x00, 0x00, 0x00, 0x00, 0x00, 0x00, 0x00, 0x00, 0x00, 0x00, 0x00, 
  0x00, 0x00, 0x00, 0x00, 0x00, 0x00, 0x00, 0x00, 0x00, 0x00, 0x00, 0x00, 
  0x00, 0x00, 0x00, 0x00, 0x00, 0x00, 0x00, 0x00, 0x00, 0x00, 0x00, 0x00, 
  0x00, 0x00, 0x00, 0x00, 0x00, 0x00, 0x00, 0x00, 0x00, 0x00, 0x00, 0x00, 
  0x00, 0x00, 0x00, 0x00, 0x00, 0x00, 0x00, 0x00, 0x00, 0x00, 0x00, 0x00, 
  0x00, 0x00, 0x00, 0x00, 0x00, 0x00, 0x00, 0x00, 0x00, 0x00, 0x00, 0x00, 
  0x00, 0x00, 0x00, 0x00, 0x00, 0x00, 0x00, 0x00, 0x00, 0x00, 0x00, 0x00, 
  0x00, 0x00, 0x00, 0x00, 0x00, 0x00, 0x00, 0x00, 0x00, 0x00, 0x00, 0x00, 
  0x00, 0x00, 0x00, 0x00, 0x00, 0x00, 0x00, 0x00, 0x00, 0x00, 0x00, 0x00, 
  0x00, 0x00, 0x00, 0x00, 0x00, 0x00, 0x00, 0x00, 0x00, 0x00, 0x00, 0x00, 
  0x00, 0x00, 0x00, 0x00, 0x00, 0x00, 0x00, 0x00, 0x00, 0x00, 0x00, 0x00, 
  0x00, 0x00, 0x00, 0x00, 0x00, 0x00, 0x00, 0x00, 0x00, 0x00, 0x00, 0x00, 
  0x00, 0x00, 0x00, 0x00, 0x00, 0x00, 0x00, 0x00, 0x00, 0x00, 0x00, 0x00, 
  0x00, 0x00, 0x00, 0x00, 0x00, 0x00, 0x00, 0x00, 0x00, 0x00, 0x00, 0x00, 
  0x00, 0x00, 0x00, 0x00, 0x00, 0x00, 0x00, 0x00, 0x00, 0x00, 0x00, 0x00, 
  0x00, 0x00, 0x00, 0x00, 0x00, 0x00, 0x00, 0x00, 0x18, 0x00, 0x00, 0x00, 
  0x61, 0x0a, 0xdd, 0x38, 0x8c, 0xfa, 0xf3, 0x38, 0x25, 0xac, 0xca, 0x38, 
  0x2f, 0x27, 0xe8, 0x38, 0x3d, 0x38, 0x4a, 0x39, 0x8f, 0x9b, 0x29, 0x39, 
  0xce, 0xd3, 0x05, 0x39, 0xf4, 0xdf, 0x93, 0x39, 0x4c, 0x87, 0x9e, 0x39, 
  0x46, 0x1b, 0x5f, 0x39, 0x4b, 0x23, 0xc5, 0x38, 0x35, 0x97, 0x4e, 0x39, 
  0x11, 0x2b, 0x34, 0x39, 0xf6, 0x13, 0xd8, 0x38, 0x6f, 0xca, 0xc0, 0x38, 
  0x6c, 0x15, 0x05, 0x39, 0x19, 0xfe, 0xf7, 0x38, 0xa1, 0xc0, 0xfc, 0x38, 
  0x94, 0x63, 0x19, 0x39, 0x63, 0xeb, 0x4e, 0x39, 0x8b, 0xef, 0x4a, 0x39, 
  0x9c, 0x61, 0x5f, 0x39, 0xe0, 0x98, 0xfb, 0x38, 0x6f, 0x43, 0xe2, 0x38, 
  0x71, 0x01, 0x00, 0x00, 0x68, 0x61, 0x67, 0x72, 0x69, 0x64, 0x5f, 0x72, 
  0x61, 0x77, 0x5f, 0x70, 0x69, 0x78, 0x65, 0x6c, 0x5f, 0x66, 0x69, 0x72, 
  0x6d, 0x77, 0x61, 0x72, 0x65, 0x5f, 0x31, 0x2f, 0x72, 0x65, 0x5f, 0x6c, 
  0x75, 0x5f, 0x33, 0x5f, 0x31, 0x2f, 0x52, 0x65, 0x6c, 0x75, 0x3b, 0x68, 
  0x61, 0x67, 0x72, 0x69, 0x64, 0x5f, 0x72, 0x61, 0x77, 0x5f, 0x70, 0x69, 
  0x78, 0x65, 0x6c, 0x5f, 0x66, 0x69, 0x72, 0x6d, 0x77, 0x61, 0x72, 0x65, 
  0x5f, 0x31, 0x2f, 0x62, 0x61, 0x74, 0x63, 0x68, 0x5f, 0x6e, 0x6f, 0x72, 
  0x6d, 0x61, 0x6c, 0x69, 0x7a, 0x61, 0x74, 0x69, 0x6f, 0x6e, 0x5f, 0x33, 
  0x5f, 0x31, 0x2f, 0x62, 0x61, 0x74, 0x63, 0x68, 0x6e, 0x6f, 0x72, 0x6d, 
  0x2f, 0x61, 0x64, 0x64, 0x5f, 0x31, 0x3b, 0x68, 0x61, 0x67, 0x72, 0x69, 
  0x64, 0x5f, 0x72, 0x61, 0x77, 0x5f, 0x70, 0x69, 0x78, 0x65, 0x6c, 0x5f, 
  0x66, 0x69, 0x72, 0x6d, 0x77, 0x61, 0x72, 0x65, 0x5f, 0x31, 0x2f, 0x62, 
  0x61, 0x74, 0x63, 0x68, 0x5f, 0x6e, 0x6f, 0x72, 0x6d, 0x61, 0x6c, 0x69, 
  0x7a, 0x61, 0x74, 0x69, 0x6f, 0x6e, 0x5f, 0x33, 0x5f, 0x31, 0x2f, 0x62, 
  0x61, 0x74, 0x63, 0x68, 0x6e, 0x6f, 0x72, 0x6d, 0x2f, 0x6d, 0x75, 0x6c, 
  0x5f, 0x31, 0x3b, 0x68, 0x61, 0x67, 0x72, 0x69, 0x64, 0x5f, 0x72, 0x61, 
  0x77, 0x5f, 0x70, 0x69, 0x78, 0x65, 0x6c, 0x5f, 0x66, 0x69, 0x72, 0x6d, 
  0x77, 0x61, 0x72, 0x65, 0x5f, 0x31, 0x2f, 0x64, 0x65, 0x70, 0x74, 0x68, 
  0x77, 0x69, 0x73, 0x65, 0x5f, 0x63, 0x6f, 0x6e, 0x76, 0x32, 0x64, 0x5f, 
  0x31, 0x5f, 0x32, 0x2f, 0x64, 0x65, 0x70, 0x74, 0x68, 0x77, 0x69, 0x73, 
  0x65, 0x3b, 0x68, 0x61, 0x67, 0x72, 0x69, 0x64, 0x5f, 0x72, 0x61, 0x77, 
  0x5f, 0x70, 0x69, 0x78, 0x65, 0x6c, 0x5f, 0x66, 0x69, 0x72, 0x6d, 0x77, 
  0x61, 0x72, 0x65, 0x5f, 0x31, 0x2f, 0x62, 0x61, 0x74, 0x63, 0x68, 0x5f, 
  0x6e, 0x6f, 0x72, 0x6d, 0x61, 0x6c, 0x69, 0x7a, 0x61, 0x74, 0x69, 0x6f, 
  0x6e, 0x5f, 0x33, 0x5f, 0x31, 0x2f, 0x62, 0x61, 0x74, 0x63, 0x68, 0x6e, 
  0x6f, 0x72, 0x6d, 0x2f, 0x6d, 0x75, 0x6c, 0x3b, 0x68, 0x61, 0x67, 0x72, 
  0x69, 0x64, 0x5f, 0x72, 0x61, 0x77, 0x5f, 0x70, 0x69, 0x78, 0x65, 0x6c, 
  0x5f, 0x66, 0x69, 0x72, 0x6d, 0x77, 0x61, 0x72, 0x65, 0x5f, 0x31, 0x2f, 
  0x62, 0x61, 0x74, 0x63, 0x68, 0x5f, 0x6e, 0x6f, 0x72, 0x6d, 0x61, 0x6c, 
  0x69, 0x7a, 0x61, 0x74, 0x69, 0x6f, 0x6e, 0x5f, 0x33, 0x5f, 0x31, 0x2f, 
  0x62, 0x61, 0x74, 0x63, 0x68, 0x6e, 0x6f, 0x72, 0x6d, 0x2f, 0x73, 0x75, 
  0x62, 0x00, 0x00, 0x00, 0x01, 0x00, 0x00, 0x00, 0x18, 0x00, 0x00, 0x00, 
  0x42, 0xfa, 0xff, 0xff, 0x00, 0x00, 0x00, 0x01, 0x14, 0x00, 0x00, 0x00, 
  0xa8, 0x01, 0x00, 0x00, 0x06, 0x00, 0x00, 0x00, 0x00, 0x00, 0x00, 0x09, 
  0xd4, 0x01, 0x00, 0x00, 0x7c, 0xf9, 0xff, 0xff, 0x08, 0x00, 0x00, 0x00, 
  0x0c, 0x01, 0x00, 0x00, 0x20, 0x00, 0x00, 0x00, 0x00, 0x00, 0x00, 0x00, 
  0x00, 0x00, 0x00, 0x00, 0x00, 0x00, 0x00, 0x00, 0x00, 0x00, 0x00, 0x00, 
  0x00, 0x00, 0x00, 0x00, 0x00, 0x00, 0x00, 0x00, 0x00, 0x00, 0x00, 0x00, 
  0x00, 0x00, 0x00, 0x00, 0x00, 0x00, 0x00, 0x00, 0x00, 0x00, 0x00, 0x00, 
  0x00, 0x00, 0x00, 0x00, 0x00, 0x00, 0x00, 0x00, 0x00, 0x00, 0x00, 0x00, 
  0x00, 0x00, 0x00, 0x00, 0x00, 0x00, 0x00, 0x00, 0x00, 0x00, 0x00, 0x00, 
  0x00, 0x00, 0x00, 0x00, 0x00, 0x00, 0x00, 0x00, 0x00, 0x00, 0x00, 0x00, 
  0x00, 0x00, 0x00, 0x00, 0x00, 0x00, 0x00, 0x00, 0x00, 0x00, 0x00, 0x00, 
  0x00, 0x00, 0x00, 0x00, 0x00, 0x00, 0x00, 0x00, 0x00, 0x00, 0x00, 0x00, 
  0x00, 0x00, 0x00, 0x00, 0x00, 0x00, 0x00, 0x00, 0x00, 0x00, 0x00, 0x00, 
  0x00, 0x00, 0x00, 0x00, 0x00, 0x00, 0x00, 0x00, 0x00, 0x00, 0x00, 0x00, 
  0x00, 0x00, 0x00, 0x00, 0x00, 0x00, 0x00, 0x00, 0x00, 0x00, 0x00, 0x00, 
  0x00, 0x00, 0x00, 0x00, 0x00, 0x00, 0x00, 0x00, 0x00, 0x00, 0x00, 0x00, 
  0x00, 0x00, 0x00, 0x00, 0x00, 0x00, 0x00, 0x00, 0x00, 0x00, 0x00, 0x00, 
  0x00, 0x00, 0x00, 0x00, 0x00, 0x00, 0x00, 0x00, 0x00, 0x00, 0x00, 0x00, 
  0x00, 0x00, 0x00, 0x00, 0x00, 0x00, 0x00, 0x00, 0x00, 0x00, 0x00, 0x00, 
  0x00, 0x00, 0x00, 0x00, 0x00, 0x00, 0x00, 0x00, 0x00, 0x00, 0x00, 0x00, 
  0x00, 0x00, 0x00, 0x00, 0x00, 0x00, 0x00, 0x00, 0x00, 0x00, 0x00, 0x00, 
  0x00, 0x00, 0x00, 0x00, 0x00, 0x00, 0x00, 0x00, 0x00, 0x00, 0x00, 0x00, 
  0x00, 0x00, 0x00, 0x00, 0x00, 0x00, 0x00, 0x00, 0x00, 0x00, 0x00, 0x00, 
  0x00, 0x00, 0x00, 0x00, 0x00, 0x00, 0x00, 0x00, 0x00, 0x00, 0x00, 0x00, 
  0x00, 0x00, 0x00, 0x00, 0x00, 0x00, 0x00, 0x00, 0x00, 0x00, 0x00, 0x00, 
  0x00, 0x00, 0x00, 0x00, 0x20, 0x00, 0x00, 0x00, 0xed, 0x02, 0xb9, 0x3b, 
  0x0f, 0xb1, 0xcf, 0x3b, 0x36, 0x47, 0x88, 0x3b, 0x11, 0x68, 0x9a, 0x3b, 
  0x6a, 0x32, 0xa4, 0x3b, 0xc7, 0xf8, 0xbd, 0x3b, 0x74, 0x66, 0xbd, 0x3b, 
  0x84, 0xd4, 0xc9, 0x3b, 0xb6, 0x6b, 0xac, 0x3b, 0xe8, 0x92, 0xbb, 0x3b, 
  0x2a, 0xf6, 0xf2, 0x3b, 0xba, 0xaf, 0xd0, 0x3b, 0x97, 0x86, 0xa9, 0x3b, 
  0x87, 0x24, 0xb4, 0x3b, 0xe8, 0x9a, 0x01, 0x3c, 0xb2, 0x70, 0xdf, 0x3b, 
  0x68, 0xc0, 0xb9, 0x3b, 0xdf, 0xdd, 0xb5, 0x3b, 0xd3, 0x17, 0x08, 0x3c, 
  0x28, 0x2e, 0x01, 0x3c, 0xd1, 0xb7, 0xae, 0x3b, 0xe0, 0xf0, 0x9c, 0x3b, 
  0x32, 0x0d, 0xed, 0x3b, 0xfe, 0x62, 0x0b, 0x3c, 0x09, 0x67, 0xcd, 0x3b, 
  0x1f, 0x97, 0xac, 0x3b, 0x62, 0xed, 0x0f, 0x3c, 0x34, 0x0c, 0xbd, 0x3b, 
  0x8d, 0x1b, 0xe1, 0x3b, 0xa8, 0x8a, 0xb2, 0x3b, 0xaf, 0xc7, 0xda, 0x3b, 
  0x5c, 0xd8, 0x86, 0x3b, 0x32, 0x00, 0x00, 0x00, 0x68, 0x61, 0x67, 0x72, 
  0x69, 0x64, 0x5f, 0x72, 0x61, 0x77, 0x5f, 0x70, 0x69, 0x78, 0x65, 0x6c, 
  0x5f, 0x66, 0x69, 0x72, 0x6d, 0x77, 0x61, 0x72, 0x65, 0x5f, 0x31, 0x2f, 
  0x63, 0x6f, 0x6e, 0x76, 0x32, 0x64, 0x5f, 0x32, 0x5f, 0x31, 0x2f, 0x63, 
  0x6f, 0x6e, 0x76, 0x6f, 0x6c, 0x75, 0x74, 0x69, 0x6f, 0x6e, 0x00, 0x00, 
  0x04, 0x00, 0x00, 0x00, 0x20, 0x00, 0x00, 0x00, 0x01, 0x00, 0x00, 0x00, 
  0x01, 0x00, 0x00, 0x00, 0x18, 0x00, 0x00, 0x00, 0x42, 0xfc, 0xff, 0xff, 
  0x00, 0x00, 0x00, 0x01, 0x14, 0x00, 0x00, 0x00, 0xa4, 0x01, 0x00, 0x00, 
  0x05, 0x00, 0x00, 0x00, 0x00, 0x00, 0x00, 0x02, 0x80, 0x02, 0x00, 0x00, 
  0x7c, 0xfb, 0xff, 0xff, 0x08, 0x00, 0x00, 0x00, 0x08, 0x01, 0x00, 0x00, 
  0x20, 0x00, 0x00, 0x00, 0x00, 0x00, 0x00, 0x00, 0x00, 0x00, 0x00, 0x00, 
  0x00, 0x00, 0x00, 0x00, 0x00, 0x00, 0x00, 0x00, 0x00, 0x00, 0x00, 0x00, 
  0x00, 0x00, 0x00, 0x00, 0x00, 0x00, 0x00, 0x00, 0x00, 0x00, 0x00, 0x00, 
  0x00, 0x00, 0x00, 0x00, 0x00, 0x00, 0x00, 0x00, 0x00, 0x00, 0x00, 0x00, 
  0x00, 0x00, 0x00, 0x00, 0x00, 0x00, 0x00, 0x00, 0x00, 0x00, 0x00, 0x00, 
  0x00, 0x00, 0x00, 0x00, 0x00, 0x00, 0x00, 0x00, 0x00, 0x00, 0x00, 0x00, 
  0x00, 0x00, 0x00, 0x00, 0x00, 0x00, 0x00, 0x00, 0x00, 0x00, 0x00, 0x00, 
  0x00, 0x00, 0x00, 0x00, 0x00, 0x00, 0x00, 0x00, 0x00, 0x00, 0x00, 0x00, 
  0x00, 0x00, 0x00, 0x00, 0x00, 0x00, 0x00, 0x00, 0x00, 0x00, 0x00, 0x00, 
  0x00, 0x00, 0x00, 0x00, 0x00, 0x00, 0x00, 0x00, 0x00, 0x00, 0x00, 0x00, 
  0x00, 0x00, 0x00, 0x00, 0x00, 0x00, 0x00, 0x00, 0x00, 0x00, 0x00, 0x00, 
  0x00, 0x00, 0x00, 0x00, 0x00, 0x00, 0x00, 0x00, 0x00, 0x00, 0x00, 0x00, 
  0x00, 0x00, 0x00, 0x00, 0x00, 0x00, 0x00, 0x00, 0x00, 0x00, 0x00, 0x00, 
  0x00, 0x00, 0x00, 0x00, 0x00, 0x00, 0x00, 0x00, 0x00, 0x00, 0x00, 0x00, 
  0x00, 0x00, 0x00, 0x00, 0x00, 0x00, 0x00, 0x00, 0x00, 0x00, 0x00, 0x00, 
  0x00, 0x00, 0x00, 0x00, 0x00, 0x00, 0x00, 0x00, 0x00, 0x00, 0x00, 0x00, 
  0x00, 0x00, 0x00, 0x00, 0x00, 0x00, 0x00, 0x00, 0x00, 0x00, 0x00, 0x00, 
  0x00, 0x00, 0x00, 0x00, 0x00, 0x00, 0x00, 0x00, 0x00, 0x00, 0x00, 0x00, 
  0x00, 0x00, 0x00, 0x00, 0x00, 0x00, 0x00, 0x00, 0x00, 0x00, 0x00, 0x00, 
  0x00, 0x00, 0x00, 0x00, 0x00, 0x00, 0x00, 0x00, 0x00, 0x00, 0x00, 0x00, 
  0x00, 0x00, 0x00, 0x00, 0x00, 0x00, 0x00, 0x00, 0x00, 0x00, 0x00, 0x00, 
  0x00, 0x00, 0x00, 0x00, 0x00, 0x00, 0x00, 0x00, 0x20, 0x00, 0x00, 0x00, 
  0xe0, 0xfa, 0x23, 0x39, 0xfd, 0x14, 0x38, 0x39, 0xb6, 0x92, 0xf1, 0x38, 
  0xa8, 0xda, 0x08, 0x39, 0x17, 0x88, 0x11, 0x39, 0x60, 0x60, 0x28, 0x39, 
  0xaf, 0xde, 0x27, 0x39, 0x05, 0xe3, 0x32, 0x39, 0x10, 0xd2, 0x18, 0x39, 
  0x49, 0x40, 0x26, 0x39, 0xb2, 0x57, 0x57, 0x39, 0xb4, 0xf6, 0x38, 0x39, 
  0x31, 0x41, 0x16, 0x39, 0x2a, 0xaa, 0x1f, 0x39, 0x7d, 0xbe, 0x65, 0x39, 
  0x52, 0x0a, 0x46, 0x39, 0xd1, 0xa2, 0x24, 0x39, 0x56, 0x31, 0x21, 0x39, 
  0xb6, 0x3e, 0x71, 0x39, 0xb7, 0xfd, 0x64, 0x39, 0x51, 0xdb, 0x1a, 0x39, 
  0xb5, 0x19, 0x0b, 0x39, 0xb7, 0x1a, 0x52, 0x39, 0x5a, 0x15, 0x77, 0x39, 
  0x95, 0x0d, 0x36, 0x39, 0x8a, 0xf8, 0x18, 0x39, 0xdc, 0x21, 0x7f, 0x39, 
  0xb1, 0x8e, 0x27, 0x39, 0xa7, 0x84, 0x47, 0x39, 0xe2, 0x3e, 0x1e, 0x39, 
  0xed, 0xe8, 0x41, 0x39, 0x6a, 0x08, 0xef, 0x38, 0xe3, 0x00, 0x00, 0x00, 
  0x68, 0x61, 0x67, 0x72, 0x69, 0x64, 0x5f, 0x72, 0x61, 0x77, 0x5f, 0x70, 
  0x69, 0x78, 0x65, 0x6c, 0x5f, 0x66, 0x69, 0x72, 0x6d, 0x77, 0x61, 0x72, 
  0x65, 0x5f, 0x31, 0x2f, 0x72, 0x65, 0x5f, 0x6c, 0x75, 0x5f, 0x34, 0x5f, 
  0x31, 0x2f, 0x52, 0x65, 0x6c, 0x75, 0x3b, 0x68, 0x61, 0x67, 0x72, 0x69, 
  0x64, 0x5f, 0x72, 0x61, 0x77, 0x5f, 0x70, 0x69, 0x78, 0x65, 0x6c, 0x5f, 
  0x66, 0x69, 0x72, 0x6d, 0x77, 0x61, 0x72, 0x65, 0x5f, 0x31, 0x2f, 0x62, 
  0x61, 0x74, 0x63, 0x68, 0x5f, 0x6e, 0x6f, 0x72, 0x6d, 0x61, 0x6c, 0x69, 
  0x7a, 0x61, 0x74, 0x69, 0x6f, 0x6e, 0x5f, 0x34, 0x5f, 0x31, 0x2f, 0x62, 
  0x61, 0x74, 0x63, 0x68, 0x6e, 0x6f, 0x72, 0x6d, 0x2f, 0x61, 0x64, 0x64, 
  0x5f, 0x31, 0x3b, 0x68, 0x61, 0x67, 0x72, 0x69, 0x64, 0x5f, 0x72, 0x61, 
  0x77, 0x5f, 0x70, 0x69, 0x78, 0x65, 0x6c, 0x5f, 0x66, 0x69, 0x72, 0x6d, 
  0x77, 0x61, 0x72, 0x65, 0x5f, 0x31, 0x2f, 0x63, 0x6f, 0x6e, 0x76, 0x32, 
  0x64, 0x5f, 0x32, 0x5f, 0x31, 0x2f, 0x63, 0x6f, 0x6e, 0x76, 0x6f, 0x6c, 
  0x75, 0x74, 0x69, 0x6f, 0x6e, 0x3b, 0x68, 0x61, 0x67, 0x72, 0x69, 0x64, 
  0x5f, 0x72, 0x61, 0x77, 0x5f, 0x70, 0x69, 0x78, 0x65, 0x6c, 0x5f, 0x66, 
  0x69, 0x72, 0x6d, 0x77, 0x61, 0x72, 0x65, 0x5f, 0x31, 0x2f, 0x62, 0x61, 
  0x74, 0x63, 0x68, 0x5f, 0x6e, 0x6f, 0x72, 0x6d, 0x61, 0x6c, 0x69, 0x7a, 
  0x61, 0x74, 0x69, 0x6f, 0x6e, 0x5f, 0x34, 0x5f, 0x31, 0x2f, 0x62, 0x61, 
  0x74, 0x63, 0x68, 0x6e, 0x6f, 0x72, 0x6d, 0x2f, 0x73, 0x75, 0x62, 0x00, 
  0x01, 0x00, 0x00, 0x00, 0x20, 0x00, 0x00, 0x00, 0xe2, 0xfe, 0xff, 0xff, 
  0x00, 0x00, 0x00, 0x01, 0x14, 0x00, 0x00, 0x00, 0x48, 0x00, 0x00, 0x00, 
  0x04, 0x00, 0x00, 0x00, 0x00, 0x00, 0x00, 0x09, 0x6c, 0x00, 0x00, 0x00, 
  0x1c, 0xfe, 0xff, 0xff, 0x08, 0x00, 0x00, 0x00, 0x20, 0x00, 0x00, 0x00, 
  0x03, 0x00, 0x00, 0x00, 0x00, 0x00, 0x00, 0x00, 0x00, 0x00, 0x00, 0x00, 
  0x00, 0x00, 0x00, 0x00, 0x00, 0x00, 0x00, 0x00, 0x00, 0x00, 0x00, 0x00, 
  0x00, 0x00, 0x00, 0x00, 0x03, 0x00, 0x00, 0x00, 0xa7, 0x9a, 0x8c, 0x3b, 
  0x2f, 0xe3, 0x88, 0x3b, 0x74, 0x2b, 0x97, 0x3b, 0x2a, 0x00, 0x00, 0x00, 
  0x68, 0x61, 0x67, 0x72, 0x69, 0x64, 0x5f, 0x72, 0x61, 0x77, 0x5f, 0x70, 
  0x69, 0x78, 0x65, 0x6c, 0x5f, 0x66, 0x69, 0x72, 0x6d, 0x77, 0x61, 0x72, 
  0x65, 0x5f, 0x31, 0x2f, 0x70, 0x72, 0x6f, 0x62, 0x73, 0x5f, 0x31, 0x2f, 
  0x4d, 0x61, 0x74, 0x4d, 0x75, 0x6c, 0x00, 0x00, 0x02, 0x00, 0x00, 0x00, 
  0x03, 0x00, 0x00, 0x00, 0x20, 0x00, 0x00, 0x00, 0x72, 0xff, 0xff, 0xff, 
  0x00, 0x00, 0x00, 0x01, 0x14, 0x00, 0x00, 0x00, 0x48, 0x00, 0x00, 0x00, 
  0x03, 0x00, 0x00, 0x00, 0x00, 0x00, 0x00, 0x02, 0x6c, 0x00, 0x00, 0x00, 
  0xac, 0xfe, 0xff, 0xff, 0x08, 0x00, 0x00, 0x00, 0x20, 0x00, 0x00, 0x00, 
  0x03, 0x00, 0x00, 0x00, 0x00, 0x00, 0x00, 0x00, 0x00, 0x00, 0x00, 0x00, 
  0x00, 0x00, 0x00, 0x00, 0x00, 0x00, 0x00, 0x00, 0x00, 0x00, 0x00, 0x00, 
  0x00, 0x00, 0x00, 0x00, 0x03, 0x00, 0x00, 0x00, 0x54, 0x3c, 0xac, 0x37, 
  0xcf, 0xae, 0xa7, 0x37, 0xa0, 0x2d, 0xb9, 0x37, 0x2b, 0x00, 0x00, 0x00, 
  0x68, 0x61, 0x67, 0x72, 0x69, 0x64, 0x5f, 0x72, 0x61, 0x77, 0x5f, 0x70, 
  0x69, 0x78, 0x65, 0x6c, 0x5f, 0x66, 0x69, 0x72, 0x6d, 0x77, 0x61, 0x72, 
  0x65, 0x5f, 0x31, 0x2f, 0x70, 0x72, 0x6f, 0x62, 0x73, 0x5f, 0x31, 0x2f, 
  0x42, 0x69, 0x61, 0x73, 0x41, 0x64, 0x64, 0x00, 0x01, 0x00, 0x00, 0x00, 
  0x03, 0x00, 0x00, 0x00, 0x00, 0x00, 0x16, 0x00, 0x1c, 0x00, 0x18, 0x00, 
  0x17, 0x00, 0x10, 0x00, 0x0c, 0x00, 0x08, 0x00, 0x00, 0x00, 0x00, 0x00, 
  0x00, 0x00, 0x07, 0x00, 0x16, 0x00, 0x00, 0x00, 0x00, 0x00, 0x00, 0x01, 
  0x18, 0x00, 0x00, 0x00, 0x18, 0x00, 0x00, 0x00, 0x02, 0x00, 0x00, 0x00, 
  0x00, 0x00, 0x00, 0x02, 0x60, 0x00, 0x00, 0x00, 0x04, 0x00, 0x04, 0x00, 
  0x04, 0x00, 0x00, 0x00, 0x4d, 0x00, 0x00, 0x00, 0x68, 0x61, 0x67, 0x72, 
  0x69, 0x64, 0x5f, 0x72, 0x61, 0x77, 0x5f, 0x70, 0x69, 0x78, 0x65, 0x6c, 
  0x5f, 0x66, 0x69, 0x72, 0x6d, 0x77, 0x61, 0x72, 0x65, 0x5f, 0x31, 0x2f, 
  0x67, 0x6c, 0x6f, 0x62, 0x61, 0x6c, 0x5f, 0x61, 0x76, 0x65, 0x72, 0x61, 
  0x67, 0x65, 0x5f, 0x70, 0x6f, 0x6f, 0x6c, 0x69, 0x6e, 0x67, 0x32, 0x64, 
  0x5f, 0x31, 0x2f, 0x4d, 0x65, 0x61, 0x6e, 0x2f, 0x72, 0x65, 0x64, 0x75, 
  0x63, 0x74, 0x69, 0x6f, 0x6e, 0x5f, 0x69, 0x6e, 0x64, 0x69, 0x63, 0x65, 
  0x73, 0x00, 0x00, 0x00, 0x01, 0x00, 0x00, 0x00, 0x02, 0x00, 0x00, 0x00, 
  0x00, 0x00, 0x16, 0x00, 0x20, 0x00, 0x1c, 0x00, 0x1b, 0x00, 0x14, 0x00, 
  0x10, 0x00, 0x0c, 0x00, 0x00, 0x00, 0x00, 0x00, 0x08, 0x00, 0x07, 0x00, 
  0x16, 0x00, 0x00, 0x00, 0x00, 0x00, 0x00, 0x01, 0x18, 0x00, 0x00, 0x00, 
  0x34, 0x00, 0x00, 0x00, 0x50, 0x00, 0x00, 0x00, 0x01, 0x00, 0x00, 0x00, 
  0x00, 0x00, 0x00, 0x09, 0x60, 0x00, 0x00, 0x00, 0x04, 0x00, 0x00, 0x00, 
  0xff, 0xff, 0xff, 0xff, 0x40, 0x00, 0x00, 0x00, 0x40, 0x00, 0x00, 0x00, 
  0x01, 0x00, 0x00, 0x00, 0x0c, 0x00, 0x0c, 0x00, 0x00, 0x00, 0x00, 0x00, 
  0x08, 0x00, 0x04, 0x00, 0x0c, 0x00, 0x00, 0x00, 0x08, 0x00, 0x00, 0x00, 
  0x10, 0x00, 0x00, 0x00, 0x01, 0x00, 0x00, 0x00, 0x80, 0xff, 0xff, 0xff, 
  0xff, 0xff, 0xff, 0xff, 0x01, 0x00, 0x00, 0x00, 0x00, 0x00, 0x80, 0x3f, 
  0x17, 0x00, 0x00, 0x00, 0x73, 0x65, 0x72, 0x76, 0x69, 0x6e, 0x67, 0x5f, 
  0x64, 0x65, 0x66, 0x61, 0x75, 0x6c, 0x74, 0x5f, 0x69, 0x6e, 0x70, 0x75, 
  0x74, 0x3a, 0x30, 0x00, 0x04, 0x00, 0x00, 0x00, 0x01, 0x00, 0x00, 0x00, 
  0x40, 0x00, 0x00, 0x00, 0x40, 0x00, 0x00, 0x00, 0x01, 0x00, 0x00, 0x00, 
  0x06, 0x00, 0x00, 0x00, 0x74, 0x00, 0x00, 0x00, 0x54, 0x00, 0x00, 0x00, 
  0x40, 0x00, 0x00, 0x00, 0x2c, 0x00, 0x00, 0x00, 0x18, 0x00, 0x00, 0x00, 
  0x04, 0x00, 0x00, 0x00, 0xb0, 0xff, 0xff, 0xff, 0x19, 0x00, 0x00, 0x00, 
  0x02, 0x00, 0x00, 0x00, 0x00, 0x00, 0x00, 0x19, 0xc0, 0xff, 0xff, 0xff, 
  0x09, 0x00, 0x00, 0x00, 0x04, 0x00, 0x00, 0x00, 0x00, 0x00, 0x00, 0x09, 
  0xd0, 0xff, 0xff, 0xff, 0x28, 0x00, 0x00, 0x00, 0x02, 0x00, 0x00, 0x00, 
  0x00, 0x00, 0x00, 0x28, 0xe0, 0xff, 0xff, 0xff, 0x11, 0x00, 0x00, 0x00, 
  0x02, 0x00, 0x00, 0x00, 0x00, 0x00, 0x00, 0x11, 0xf0, 0xff, 0xff, 0xff, 
  0x04, 0x00, 0x00, 0x00, 0x03, 0x00, 0x00, 0x00, 0x00, 0x00, 0x00, 0x04, 
  0x0c, 0x00, 0x10, 0x00, 0x0f, 0x00, 0x00, 0x00, 0x08, 0x00, 0x04, 0x00, 
  0x0c, 0x00, 0x00, 0x00, 0x03, 0x00, 0x00, 0x00, 0x03, 0x00, 0x00, 0x00, 
  0x00, 0x00, 0x00, 0x03, 
};
unsigned int gesture_model_len = 12304;

#endif  // GESTURE_MODEL_H
