unsigned char gesture_model[] = {
  0x1c, 0x00, 0x00, 0x00, 0x54, 0x46, 0x4c, 0x33, 0x14, 0x00, 0x20, 0x00,
  0x1c, 0x00, 0x18, 0x00, 0x14, 0x00, 0x10, 0x00, 0x0c, 0x00, 0x00, 0x00,
  0x08, 0x00, 0x04, 0x00, 0x14, 0x00, 0x00, 0x00, 0x1c, 0x00, 0x00, 0x00,
  0x90, 0x00, 0x00, 0x00, 0xe8, 0x00, 0x00, 0x00, 0x84, 0x0a, 0x00, 0x00,
  0x94, 0x0a, 0x00, 0x00, 0xcc, 0x2d, 0x00, 0x00, 0x03, 0x00, 0x00, 0x00,
  0x01, 0x00, 0x00, 0x00, 0x10, 0x00, 0x00, 0x00, 0x00, 0x00, 0x0a, 0x00,
  0x10, 0x00, 0x0c, 0x00, 0x08, 0x00, 0x04, 0x00, 0x0a, 0x00, 0x00, 0x00,
  0x0c, 0x00, 0x00, 0x00, 0x1c, 0x00, 0x00, 0x00, 0x3c, 0x00, 0x00, 0x00,
  0x0f, 0x00, 0x00, 0x00, 0x73, 0x65, 0x72, 0x76, 0x69, 0x6e, 0x67, 0x5f,
  0x64, 0x65, 0x66, 0x61, 0x75, 0x6c, 0x74, 0x00, 0x01, 0x00, 0x00, 0x00,
  0x04, 0x00, 0x00, 0x00, 0x98, 0xff, 0xff, 0xff, 0x16, 0x00, 0x00, 0x00,
  0x04, 0x00, 0x00, 0x00, 0x08, 0x00, 0x00, 0x00, 0x6f, 0x75, 0x74, 0x70,
  0x75, 0x74, 0x5f, 0x30, 0x00, 0x00, 0x00, 0x00, 0x01, 0x00, 0x00, 0x00,
  0x04, 0x00, 0x00, 0x00, 0x5e, 0xf5, 0xff, 0xff, 0x04, 0x00, 0x00, 0x00,
  0x05, 0x00, 0x00, 0x00, 0x69, 0x6e, 0x70, 0x75, 0x74, 0x00, 0x00, 0x00,
  0x02, 0x00, 0x00, 0x00, 0x34, 0x00, 0x00, 0x00, 0x04, 0x00, 0x00, 0x00,
  0xdc, 0xff, 0xff, 0xff, 0x19, 0x00, 0x00, 0x00, 0x04, 0x00, 0x00, 0x00,
  0x13, 0x00, 0x00, 0x00, 0x43, 0x4f, 0x4e, 0x56, 0x45, 0x52, 0x53, 0x49,
  0x4f, 0x4e, 0x5f, 0x4d, 0x45, 0x54, 0x41, 0x44, 0x41, 0x54, 0x41, 0x00,
  0x08, 0x00, 0x0c, 0x00, 0x08, 0x00, 0x04, 0x00, 0x08, 0x00, 0x00, 0x00,
  0x18, 0x00, 0x00, 0x00, 0x04, 0x00, 0x00, 0x00, 0x13, 0x00, 0x00, 0x00,
  0x6d, 0x69, 0x6e, 0x5f, 0x72, 0x75, 0x6e, 0x74, 0x69, 0x6d, 0x65, 0x5f,
  0x76, 0x65, 0x72, 0x73, 0x69, 0x6f, 0x6e, 0x00, 0x1a, 0x00, 0x00, 0x00,
  0x98, 0x09, 0x00, 0x00, 0x90, 0x09, 0x00, 0x00, 0x78, 0x09, 0x00, 0x00,
  0x5c, 0x09, 0x00, 0x00, 0xec, 0x08, 0x00, 0x00, 0x5c, 0x08, 0x00, 0x00,
  0x4c, 0x05, 0x00, 0x00, 0xdc, 0x04, 0x00, 0x00, 0xf4, 0x03, 0x00, 0x00,
  0x84, 0x03, 0x00, 0x00, 0x54, 0x02, 0x00, 0x00, 0x14, 0x02, 0x00, 0x00,
  0x98, 0x01, 0x00, 0x00, 0x58, 0x01, 0x00, 0x00, 0xdc, 0x00, 0x00, 0x00,
  0xd4, 0x00, 0x00, 0x00, 0xcc, 0x00, 0x00, 0x00, 0xc4, 0x00, 0x00, 0x00,
  0xbc, 0x00, 0x00, 0x00, 0xb4, 0x00, 0x00, 0x00, 0xac, 0x00, 0x00, 0x00,
  0xa4, 0x00, 0x00, 0x00, 0x9c, 0x00, 0x00, 0x00, 0x94, 0x00, 0x00, 0x00,
  0x74, 0x00, 0x00, 0x00, 0x04, 0x00, 0x00, 0x00, 0x3a, 0xf6, 0xff, 0xff,
  0x04, 0x00, 0x00, 0x00, 0x60, 0x00, 0x00, 0x00, 0x0c, 0x00, 0x00, 0x00,
  0x08, 0x00, 0x0e, 0x00, 0x08, 0x00, 0x04, 0x00, 0x08, 0x00, 0x00, 0x00,
  0x10, 0x00, 0x00, 0x00, 0x28, 0x00, 0x00, 0x00, 0x00, 0x00, 0x06, 0x00,
  0x08, 0x00, 0x04, 0x00, 0x06, 0x00, 0x00, 0x00, 0x04, 0x00, 0x00, 0x00,
  0x01, 0x00, 0x00, 0x00, 0xeb, 0x03, 0x00, 0x00, 0x0c, 0x00, 0x18, 0x00,
  0x14, 0x00, 0x10, 0x00, 0x0c, 0x00, 0x04, 0x00, 0x0c, 0x00, 0x00, 0x00,
  0xaf, 0x76, 0xc9, 0xb5, 0xda, 0xa4, 0x1e, 0x77, 0x02, 0x00, 0x00, 0x00,
  0x02, 0x00, 0x00, 0x00, 0x04, 0x00, 0x00, 0x00, 0x06, 0x00, 0x00, 0x00,
  0x32, 0x2e, 0x32, 0x31, 0x2e, 0x30, 0x00, 0x00, 0xa6, 0xf6, 0xff, 0xff,
  0x04, 0x00, 0x00, 0x00, 0x10, 0x00, 0x00, 0x00, 0x31, 0x2e, 0x31, 0x34,
  0x2e, 0x30, 0x00, 0x00, 0x00, 0x00, 0x00, 0x00, 0x00, 0x00, 0x00, 0x00,
  0x08, 0xd5, 0xff, 0xff, 0x0c, 0xd5, 0xff, 0xff, 0x10, 0xd5, 0xff, 0xff,
  0x14, 0xd5, 0xff, 0xff, 0x18, 0xd5, 0xff, 0xff, 0x1c, 0xd5, 0xff, 0xff,
  0x20, 0xd5, 0xff, 0xff, 0x24, 0xd5, 0xff, 0xff, 0x28, 0xd5, 0xff, 0xff,
  0xe6, 0xf6, 0xff, 0xff, 0x04, 0x00, 0x00, 0x00, 0x6c, 0x00, 0x00, 0x00,
  0x66, 0x72, 0x7f, 0x02, 0xf0, 0xf3, 0x47, 0xc1, 0x04, 0xef, 0xb7, 0xc3,
  0x14, 0x58, 0x7f, 0xf1, 0x2b, 0x43, 0x10, 0x2b, 0xe3, 0x36, 0x2d, 0x1f,
  0x5c, 0x7f, 0x44, 0x32, 0x25, 0xf8, 0x0a, 0xec, 0x12, 0x81, 0xc8, 0x98,
  0xbe, 0x81, 0xd5, 0xf2, 0x04, 0xf6, 0x26, 0x29, 0x27, 0xfa, 0x81, 0xae,
  0xed, 0xe2, 0x44, 0x0a, 0x49, 0x55, 0x73, 0x4d, 0x81, 0xf1, 0x1b, 0xff,
  0x07, 0x10, 0x11, 0xd5, 0xd2, 0x7f, 0xbf, 0x58, 0x28, 0xd5, 0x73, 0xfd,
  0xec, 0xf2, 0x81, 0x2e, 0x13, 0x75, 0xec, 0xe0, 0xac, 0x03, 0x49, 0xd3,
  0x05, 0x42, 0x62, 0x7f, 0x10, 0x38, 0x9b, 0xc7, 0xca, 0xd9, 0x81, 0xc7,
  0xfd, 0x11, 0xe4, 0xf9, 0xc1, 0xd1, 0x81, 0x97, 0x56, 0xc8, 0xd8, 0x24,
  0x5e, 0xf7, 0xff, 0xff, 0x04, 0x00, 0x00, 0x00, 0x30, 0x00, 0x00, 0x00,
  0x03, 0x15, 0x00, 0x00, 0x24, 0xf2, 0xff, 0xff, 0x6f, 0xe8, 0xff, 0xff,
  0xb4, 0xff, 0xff, 0xff, 0xdf, 0x0b, 0x00, 0x00, 0x79, 0x14, 0x00, 0x00,
  0x3a, 0xf7, 0xff, 0xff, 0xf0, 0xe2, 0xff, 0xff, 0x6f, 0x06, 0x00, 0x00,
  0xb6, 0x05, 0x00, 0x00, 0x2d, 0x42, 0x00, 0x00, 0xb2, 0x37, 0x00, 0x00,
  0x9a, 0xf7, 0xff, 0xff, 0x04, 0x00, 0x00, 0x00, 0x6c, 0x00, 0x00, 0x00,
  0x72, 0x2a, 0xf7, 0x01, 0x02, 0xfa, 0x0f, 0x2f, 0x81, 0x52, 0x81, 0x13,
  0x36, 0x36, 0xf1, 0x81, 0x01, 0xf7, 0xe3, 0x16, 0xec, 0x56, 0xc0, 0x41,
  0x35, 0x13, 0xe6, 0x8e, 0x14, 0xff, 0xfa, 0xbd, 0x15, 0x7f, 0x8e, 0x03,
  0x81, 0xd4, 0x81, 0xe4, 0xf3, 0xf4, 0xfb, 0x1a, 0x3b, 0x44, 0x29, 0x15,
  0x8b, 0x00, 0xc8, 0x43, 0x57, 0xe0, 0x27, 0x15, 0xde, 0x33, 0x22, 0x0c,
  0xf7, 0xb6, 0xa9, 0x37, 0x48, 0xe0, 0x08, 0x81, 0x0b, 0x12, 0x1c, 0x2c,
  0xb8, 0x03, 0xfe, 0x26, 0x7f, 0x99, 0x81, 0x8b, 0x46, 0x59, 0x0b, 0x2e,
  0x2c, 0xc0, 0xe6, 0x06, 0xff, 0x81, 0x9f, 0x3c, 0x9c, 0x36, 0xf9, 0x81,
  0x00, 0x81, 0xfc, 0x2a, 0x7e, 0xb9, 0xbf, 0x14, 0x4d, 0x1b, 0x04, 0x19,
  0x12, 0xf8, 0xff, 0xff, 0x04, 0x00, 0x00, 0x00, 0x30, 0x00, 0x00, 0x00,
  0x10, 0x08, 0x00, 0x00, 0x10, 0x08, 0x00, 0x00, 0x40, 0x17, 0x00, 0x00,
  0xeb, 0xff, 0xff, 0xff, 0xe1, 0xf3, 0xff, 0xff, 0xc2, 0x17, 0x00, 0x00,
  0x94, 0x10, 0x00, 0x00, 0x24, 0xfe, 0xff, 0xff, 0x7e, 0xff, 0xff, 0xff,
  0xa4, 0xdb, 0xff, 0xff, 0x12, 0x0e, 0x00, 0x00, 0x63, 0xfa, 0xff, 0xff,
  0x4e, 0xf8, 0xff, 0xff, 0x04, 0x00, 0x00, 0x00, 0x20, 0x01, 0x00, 0x00,
  0xed, 0xb8, 0x1a, 0xfd, 0xd7, 0x81, 0xda, 0x1b, 0x02, 0x0f, 0x1c, 0xf2,
  0xb0, 0x81, 0x49, 0xf5, 0x08, 0xb4, 0xf8, 0xb5, 0x16, 0x12, 0x6c, 0xda,
  0xa1, 0xdd, 0xbb, 0xc8, 0x54, 0xe8, 0x7f, 0x00, 0x58, 0x0a, 0xc3, 0x19,
  0xce, 0xae, 0xa1, 0x2f, 0xbc, 0x6a, 0xeb, 0x7f, 0x95, 0xdf, 0xb0, 0x5e,
  0xf0, 0xf7, 0xee, 0x15, 0x35, 0xd1, 0xd0, 0x9f, 0x1b, 0xe7, 0x7f, 0xa3,
  0x7f, 0x19, 0x18, 0xec, 0x9f, 0xf4, 0xf3, 0x06, 0xf9, 0x13, 0xee, 0x9b,
  0xe6, 0x28, 0x25, 0x06, 0x14, 0x7f, 0x41, 0xb8, 0xee, 0x00, 0xfd, 0x09,
  0xbc, 0xea, 0x8f, 0x1d, 0xcf, 0x22, 0xe9, 0x1d, 0x7f, 0xf8, 0x2d, 0xcd,
  0x81, 0xa5, 0x37, 0x17, 0x0b, 0xc6, 0x2a, 0xe4, 0x21, 0x14, 0x2f, 0xdd,
  0xca, 0xf4, 0x91, 0xfc, 0xfd, 0x81, 0xa9, 0xf7, 0x2b, 0x0f, 0xe2, 0x10,
  0xf7, 0x00, 0x2e, 0x0d, 0xc6, 0x4e, 0xf4, 0x05, 0xff, 0xbd, 0x2f, 0x81,
  0xe3, 0xfa, 0x01, 0x12, 0x19, 0x20, 0x1f, 0x0f, 0x2e, 0x4d, 0x7f, 0xd4,
  0xd1, 0x24, 0x4e, 0x81, 0x16, 0x15, 0xb3, 0x4d, 0xb1, 0xf7, 0x8b, 0x1f,
  0x78, 0x10, 0x0e, 0x36, 0x6d, 0x6c, 0x51, 0x9e, 0x37, 0x7f, 0x14, 0x99,
  0x24, 0xfa, 0x4d, 0x22, 0xf1, 0x7f, 0xf1, 0xae, 0x20, 0x0b, 0x2e, 0x0b,
  0xeb, 0xf6, 0x01, 0xcd, 0x22, 0x41, 0x45, 0x04, 0x6f, 0x7f, 0xd0, 0x9a,
  0xe0, 0xd7, 0x81, 0x90, 0x0a, 0xf5, 0x96, 0x6e, 0x3a, 0x89, 0x08, 0x19,
  0x1d, 0x2e, 0x81, 0xf9, 0xcf, 0xc2, 0xe0, 0x19, 0xe5, 0xec, 0xfd, 0xfc,
  0x1a, 0xae, 0xcb, 0xa5, 0xd8, 0x7f, 0x5d, 0xd9, 0xbc, 0x19, 0x2f, 0x18,
  0x41, 0xf1, 0x81, 0x05, 0x46, 0x10, 0xef, 0x39, 0x10, 0x79, 0x00, 0xd5,
  0xc1, 0xb4, 0x7f, 0xc5, 0xfb, 0xc9, 0xca, 0xcf, 0x25, 0x5b, 0x63, 0xe3,
  0x52, 0xf8, 0x11, 0xdc, 0x17, 0x9c, 0x2b, 0x43, 0xdc, 0xbf, 0x5d, 0x81,
  0xcc, 0x2e, 0xf5, 0x26, 0xf5, 0x35, 0xba, 0x46, 0x54, 0x66, 0x29, 0x7f,
  0x3f, 0x49, 0xb5, 0xb4, 0xc7, 0x47, 0xfd, 0x69, 0x81, 0x7b, 0xc5, 0x50,
  0x7a, 0xf9, 0xff, 0xff, 0x04, 0x00, 0x00, 0x00, 0x60, 0x00, 0x00, 0x00,
  0x43, 0x0b, 0x00, 0x00, 0xae, 0x09, 0x00, 0x00, 0x9d, 0x01, 0x00, 0x00,
  0xdf, 0x16, 0x00, 0x00, 0xeb, 0x0c, 0x00, 0x00, 0x28, 0x06, 0x00, 0x00,
  0x4c, 0xee, 0xff, 0xff, 0x1f, 0x17, 0x00, 0x00, 0x9d, 0x01, 0x00, 0x00,
  0x86, 0x21, 0x00, 0x00, 0x94, 0x04, 0x00, 0x00, 0x12, 0xf3, 0xff, 0xff,
  0xce, 0x05, 0x00, 0x00, 0xc1, 0xe1, 0xff, 0xff, 0x4b, 0xed, 0xff, 0xff,
  0x75, 0x0b, 0x00, 0x00, 0x03, 0x1b, 0x00, 0x00, 0x0a, 0x10, 0x00, 0x00,
  0xe7, 0xf5, 0xff, 0xff, 0xf4, 0x12, 0x00, 0x00, 0x3a, 0xfd, 0xff, 0xff,
  0x5d, 0x20, 0x00, 0x00, 0x9c, 0xfc, 0xff, 0xff, 0xc0, 0x01, 0x00, 0x00,
  0xe6, 0xf9, 0xff, 0xff, 0x04, 0x00, 0x00, 0x00, 0xd8, 0x00, 0x00, 0x00,
  0x81, 0x23, 0x84, 0x95, 0x6d, 0x86, 0x53, 0xce, 0xd9, 0x66, 0x2c, 0x7f,
  0x78, 0x7b, 0x88, 0xa9, 0xca, 0x0f, 0x81, 0x7f, 0x9f, 0x4f, 0x14, 0xc3,
  0xcb, 0x03, 0xb5, 0x81, 0x1e, 0x8f, 0x6f, 0x05, 0xe9, 0x4b, 0x0c, 0x63,
  0x4c, 0x5d, 0xbf, 0xc5, 0xe0, 0x22, 0x98, 0x38, 0xf3, 0xfb, 0x4a, 0x81,
  0x8d, 0x21, 0xa0, 0x83, 0x7f, 0x81, 0x43, 0xd8, 0xe4, 0x7f, 0x27, 0x6c,
  0x7a, 0x7f, 0x81, 0xa8, 0xd0, 0x09, 0xa1, 0x7d, 0xbe, 0x39, 0x16, 0xae,
  0x85, 0x23, 0x81, 0xf3, 0x6f, 0xb4, 0x47, 0xbb, 0xd9, 0x59, 0x13, 0x56,
  0x7f, 0x38, 0xc6, 0xab, 0xd0, 0x16, 0xd6, 0xfd, 0xbf, 0x75, 0x29, 0xd5,
  0xe6, 0x03, 0xd1, 0xd2, 0x2b, 0xc6, 0x7f, 0x93, 0xe6, 0xf2, 0x1a, 0x46,
  0x3b, 0x1b, 0xd1, 0xc6, 0xf5, 0x15, 0xe3, 0xec, 0x03, 0x17, 0x20, 0xe2,
  0x93, 0x1b, 0xa7, 0xea, 0x70, 0xa6, 0x40, 0x81, 0xda, 0x42, 0x16, 0x76,
  0x79, 0x2f, 0xc7, 0x81, 0xdf, 0x10, 0xda, 0x00, 0xbd, 0x7f, 0x2a, 0xbd,
  0x2b, 0x90, 0xa6, 0xdd, 0x3a, 0xbf, 0x56, 0xde, 0x8d, 0x1d, 0x86, 0x52,
  0x65, 0x26, 0xc3, 0xc0, 0xd4, 0x7f, 0xde, 0x95, 0x95, 0x2b, 0x7f, 0xae,
  0x4a, 0x97, 0xd7, 0xce, 0x09, 0xc8, 0x62, 0xfb, 0x81, 0xe6, 0x9b, 0x18,
  0x41, 0x20, 0xc8, 0xf3, 0x81, 0x4e, 0xd0, 0xb9, 0xbc, 0xe6, 0x57, 0xb5,
  0x36, 0x81, 0xaa, 0xd5, 0x20, 0xb0, 0x59, 0xfa, 0xad, 0x2d, 0x81, 0x3d,
  0x5b, 0x19, 0xc1, 0xb8, 0xd2, 0x6f, 0xd2, 0xa1, 0x81, 0x0d, 0x76, 0xb4,
  0xca, 0xfa, 0xff, 0xff, 0x04, 0x00, 0x00, 0x00, 0x60, 0x00, 0x00, 0x00,
  0xc5, 0x13, 0x00, 0x00, 0x51, 0x01, 0x00, 0x00, 0xa9, 0x42, 0x00, 0x00,
  0x1b, 0x2c, 0x00, 0x00, 0x74, 0xbe, 0xff, 0xff, 0x78, 0x4c, 0x00, 0x00,
  0xc1, 0xe6, 0xff, 0xff, 0x88, 0x16, 0x00, 0x00, 0xb2, 0x12, 0x00, 0x00,
  0x97, 0xde, 0xff, 0xff, 0x94, 0xff, 0xff, 0xff, 0x42, 0xb9, 0xff, 0xff,
  0x67, 0xd4, 0xff, 0xff, 0x41, 0xde, 0xff, 0xff, 0xcd, 0x21, 0x00, 0x00,
  0xd0, 0x36, 0x00, 0x00, 0x9d, 0x1c, 0x00, 0x00, 0xf5, 0xea, 0xff, 0xff,
  0x24, 0x18, 0x00, 0x00, 0x77, 0x00, 0x00, 0x00, 0x42, 0x2b, 0x00, 0x00,
  0x6f, 0xde, 0xff, 0xff, 0xc4, 0xd3, 0xff, 0xff, 0x6f, 0x25, 0x00, 0x00,
  0x36, 0xfb, 0xff, 0xff, 0x04, 0x00, 0x00, 0x00, 0x00, 0x03, 0x00, 0x00,
  0x4e, 0x61, 0x34, 0xdd, 0xf9, 0xca, 0x32, 0x27, 0xda, 0x07, 0x1c, 0xf6,
  0x43, 0xf7, 0x51, 0x66, 0xbe, 0x0f, 0x2d, 0x1f, 0x81, 0xe4, 0x28, 0xe4,
  0xea, 0xa5, 0x37, 0xf3, 0x0f, 0x7f, 0xc3, 0xe7, 0x43, 0xda, 0xf4, 0x0c,
  0x11, 0xe6, 0xa1, 0xe7, 0xc7, 0x23, 0xb6, 0x32, 0x2e, 0x09, 0xf4, 0xee,
  0x08, 0x4a, 0xcf, 0xf3, 0xc0, 0xa8, 0x42, 0x38, 0xb7, 0xc4, 0xb6, 0x15,
  0xaa, 0x56, 0xed, 0xa7, 0x38, 0xc6, 0x72, 0xd6, 0xa2, 0xfa, 0xe4, 0x7f,
  0xd2, 0x93, 0xf8, 0x12, 0x23, 0x7f, 0xd3, 0xf5, 0x41, 0xc7, 0x09, 0x34,
  0x09, 0xc5, 0x97, 0xf6, 0xe0, 0x15, 0xbf, 0x2e, 0x46, 0x12, 0x05, 0xc3,
  0x6e, 0x7e, 0x62, 0xe2, 0x00, 0xc8, 0x34, 0x3f, 0x9c, 0x15, 0x28, 0xd7,
  0x52, 0xf7, 0x7f, 0x4f, 0xa0, 0x13, 0x10, 0x29, 0xae, 0xdc, 0x3d, 0xd3,
  0xe2, 0x8f, 0xb7, 0x6d, 0x44, 0xf5, 0xf8, 0x3e, 0x4c, 0xbb, 0x7f, 0x57,
  0xf6, 0xfe, 0xe2, 0x98, 0x20, 0xe2, 0xfd, 0xb7, 0x22, 0x2d, 0xf1, 0xba,
  0x0a, 0x4e, 0xc4, 0xfd, 0xc6, 0xa3, 0x39, 0x2a, 0xff, 0xb7, 0xe5, 0x00,
  0xc2, 0x7f, 0xe5, 0xd0, 0xf6, 0xb7, 0x79, 0xc1, 0xa0, 0xeb, 0xf0, 0x58,
  0xf5, 0xa1, 0x8c, 0x7a, 0x45, 0xd2, 0x15, 0x28, 0x3b, 0xab, 0x7f, 0x71,
  0xdf, 0x03, 0xe2, 0xa2, 0xd9, 0xd1, 0x1c, 0xa0, 0x4b, 0x48, 0x0a, 0x04,
  0x1d, 0x48, 0xcf, 0x21, 0xf0, 0x95, 0x35, 0x17, 0xfc, 0xad, 0x06, 0x0c,
  0xb4, 0x7f, 0xf1, 0x8f, 0xe0, 0xa4, 0x6b, 0xa1, 0xd5, 0x10, 0xf3, 0x5e,
  0x43, 0x6c, 0x29, 0xdc, 0x06, 0xbb, 0x39, 0x3f, 0xd6, 0xfa, 0x0b, 0xe6,
  0x33, 0xf9, 0x5c, 0x57, 0xc7, 0x05, 0x28, 0x20, 0x81, 0xdd, 0x38, 0x00,
  0x7b, 0x68, 0x5b, 0xef, 0xed, 0x01, 0x11, 0x2f, 0xd5, 0x1f, 0x39, 0xdf,
  0x7c, 0xf3, 0x54, 0x58, 0x81, 0x29, 0xf9, 0x30, 0xbe, 0xf9, 0x33, 0xce,
  0x6e, 0x74, 0x59, 0xd0, 0xe6, 0xfc, 0x2f, 0x2a, 0xba, 0x14, 0x39, 0xd6,
  0x6a, 0xf5, 0x75, 0x28, 0xde, 0x34, 0x05, 0x3c, 0x81, 0xdf, 0x41, 0xf9,
  0xf5, 0x84, 0xaf, 0x6c, 0x7f, 0xf6, 0x01, 0x26, 0x54, 0xb3, 0x6f, 0x1d,
  0xeb, 0xf8, 0xfc, 0xac, 0x14, 0xe5, 0xed, 0xcb, 0x20, 0xfd, 0x13, 0xcd,
  0x4b, 0x3c, 0x32, 0xf3, 0xe2, 0x34, 0xed, 0x23, 0x15, 0x0c, 0x01, 0xdd,
  0x7f, 0xe0, 0x2f, 0x17, 0xb0, 0x46, 0xc4, 0x46, 0xd1, 0x05, 0x44, 0x11,
  0xd4, 0xa2, 0xf6, 0x18, 0x27, 0x7f, 0xd3, 0x08, 0x47, 0xd6, 0x03, 0x01,
  0x06, 0xe4, 0x9d, 0xe8, 0xe3, 0x18, 0xbf, 0x2a, 0x42, 0x03, 0xf6, 0xbc,
  0xcf, 0x96, 0xd6, 0x1a, 0x41, 0x7f, 0xd6, 0x01, 0x44, 0xc7, 0x00, 0x14,
  0x04, 0xcd, 0xb1, 0xfb, 0xf5, 0x12, 0xa6, 0x37, 0x4f, 0xf4, 0x0d, 0xc6,
  0x1a, 0x7b, 0x0f, 0xc8, 0xe6, 0x81, 0x4d, 0x18, 0x9d, 0xe1, 0xdc, 0x0a,
  0xd9, 0x17, 0x39, 0x50, 0x07, 0xed, 0x66, 0x09, 0x89, 0xdc, 0x0c, 0x39,
  0xcd, 0x81, 0xdc, 0x40, 0x32, 0x77, 0xf4, 0xfe, 0x28, 0xbf, 0x40, 0x71,
  0xf3, 0xaf, 0x99, 0xb1, 0xe9, 0x00, 0xd7, 0x05, 0x7d, 0x28, 0x07, 0xc5,
  0xdd, 0xa6, 0x04, 0x04, 0x17, 0x7f, 0xd1, 0xf4, 0x47, 0xd6, 0xfd, 0x10,
  0x0c, 0xe2, 0xa1, 0xf9, 0xd3, 0x1a, 0xb7, 0x29, 0x3c, 0x0a, 0xfc, 0xdc,
  0x17, 0x43, 0xac, 0x0f, 0x14, 0x94, 0x34, 0x13, 0xf1, 0xad, 0xfd, 0xec,
  0xb0, 0x7c, 0xdb, 0xc7, 0xfb, 0xac, 0x7f, 0xaf, 0xe4, 0xf0, 0x03, 0x46,
  0xd7, 0x81, 0xfb, 0x5b, 0x58, 0x42, 0xe2, 0x47, 0x0f, 0xce, 0x53, 0x2b,
  0x00, 0xbe, 0xc6, 0x8b, 0x2f, 0x03, 0xde, 0x0a, 0x4b, 0xfd, 0x03, 0x88,
  0xe9, 0x81, 0xb9, 0x7c, 0x7d, 0x13, 0xef, 0x33, 0x31, 0xb8, 0x72, 0x2e,
  0xf0, 0xd1, 0xd9, 0x98, 0x2a, 0xf3, 0xee, 0xf1, 0x55, 0xf7, 0x1d, 0xab,
  0x39, 0x0e, 0x6f, 0xf6, 0xe8, 0x40, 0xe7, 0xf6, 0x24, 0x16, 0xdb, 0xd5,
  0x7f, 0xd8, 0x2c, 0xf7, 0x8c, 0x40, 0xb1, 0x4d, 0xd9, 0x06, 0x3e, 0x1d,
  0xdc, 0xa2, 0x26, 0x10, 0x0f, 0x7f, 0xd6, 0x08, 0x46, 0xdd, 0x09, 0x20,
  0x09, 0xdd, 0x9e, 0xda, 0xb5, 0x15, 0xc3, 0x24, 0x31, 0x15, 0xf4, 0xd7,
  0x09, 0x14, 0x90, 0x29, 0x39, 0xa3, 0x2e, 0x20, 0xdc, 0x96, 0x3a, 0x04,
  0xa8, 0x7f, 0xda, 0x9d, 0xe5, 0xa8, 0x5a, 0x92, 0x3d, 0x07, 0x01, 0x58,
  0xf6, 0x99, 0x4c, 0xde, 0x13, 0x7f, 0xbf, 0xd6, 0x47, 0xd9, 0xe8, 0x17,
  0x1c, 0xdb, 0x9b, 0x0a, 0x91, 0x20, 0xb6, 0x3d, 0x2e, 0x07, 0x05, 0x03,
  0x68, 0x52, 0x7f, 0xdf, 0xd3, 0x0c, 0x19, 0x24, 0xa8, 0x22, 0x41, 0xf7,
  0x56, 0xe8, 0x46, 0x24, 0xa3, 0x30, 0x0d, 0x34, 0xbd, 0xfa, 0x30, 0xd9,
  0x33, 0x7f, 0x03, 0xcc, 0xfc, 0xa4, 0x3d, 0x1e, 0xaf, 0xf6, 0x09, 0xf1,
  0x1e, 0xfe, 0x55, 0x7a, 0x22, 0x0a, 0x3c, 0x1a, 0x8e, 0xd6, 0x21, 0xe6,
  0xe3, 0xa8, 0x1a, 0xf3, 0x15, 0x7f, 0xc3, 0xff, 0x2b, 0xd0, 0xee, 0x01,
  0x0a, 0xe5, 0x9a, 0xf2, 0xd8, 0x22, 0xb7, 0x37, 0x48, 0x12, 0x06, 0xeb,
  0x15, 0x49, 0xdb, 0xf0, 0xd5, 0x89, 0x43, 0x1c, 0xd9, 0xc0, 0xe1, 0x0b,
  0xbb, 0x77, 0x06, 0xce, 0xee, 0xb0, 0x70, 0xbe, 0x9e, 0xee, 0xec, 0x7f,
  0x01, 0xb1, 0x81, 0x5f, 0x5a, 0xc7, 0x13, 0x12, 0x38, 0xae, 0x5c, 0x37,
  0xdc, 0x1c, 0xe4, 0xc0, 0x2a, 0xcc, 0x2d, 0xa3, 0x22, 0x0f, 0xff, 0xe9,
  0x34, 0x15, 0x7f, 0xed, 0xd8, 0x3b, 0xe1, 0x01, 0x0f, 0x10, 0xfd, 0x09,
  0x66, 0xe2, 0x02, 0xf5, 0x82, 0x31, 0xd8, 0x30, 0xfa, 0x1d, 0x15, 0x08,
  0x42, 0xfe, 0xff, 0xff, 0x04, 0x00, 0x00, 0x00, 0x80, 0x00, 0x00, 0x00,
  0x44, 0xf6, 0xff, 0xff, 0x14, 0xfe, 0xff, 0xff, 0xe3, 0x12, 0x00, 0x00,
  0x39, 0x01, 0x00, 0x00, 0x13, 0xf2, 0xff, 0xff, 0xa8, 0x09, 0x00, 0x00,
  0x94, 0x12, 0x00, 0x00, 0xa5, 0x09, 0x00, 0x00, 0xd4, 0x12, 0x00, 0x00,
  0x84, 0xf8, 0xff, 0xff, 0x58, 0xec, 0xff, 0xff, 0xd5, 0xec, 0xff, 0xff,
  0xc6, 0x05, 0x00, 0x00, 0xc3, 0xee, 0xff, 0xff, 0x0c, 0x01, 0x00, 0x00,
  0xfa, 0x00, 0x00, 0x00, 0x33, 0x04, 0x00, 0x00, 0x60, 0x01, 0x00, 0x00,
  0xa5, 0xff, 0xff, 0xff, 0x50, 0x12, 0x00, 0x00, 0x5b, 0x02, 0x00, 0x00,
  0xc0, 0x02, 0x00, 0x00, 0xe9, 0xf0, 0xff, 0xff, 0x14, 0x00, 0x00, 0x00,
  0x28, 0x13, 0x00, 0x00, 0xbe, 0xfc, 0xff, 0xff, 0x52, 0xee, 0xff, 0xff,
  0xb7, 0xfa, 0xff, 0xff, 0x1b, 0xfe, 0xff, 0xff, 0x21, 0x13, 0x00, 0x00,
  0x2d, 0x0d, 0x00, 0x00, 0xad, 0xf3, 0xff, 0xff, 0xce, 0xfe, 0xff, 0xff,
  0x04, 0x00, 0x00, 0x00, 0x60, 0x00, 0x00, 0x00, 0x57, 0x9f, 0x73, 0xbb,
  0x2a, 0xee, 0x69, 0x20, 0x4e, 0x4b, 0x07, 0x35, 0x18, 0x0e, 0x92, 0xc4,
  0x44, 0xad, 0x87, 0x55, 0xbc, 0xf9, 0xf9, 0x81, 0x5a, 0x9f, 0x11, 0x69,
  0x9c, 0x5e, 0xfc, 0xed, 0xa6, 0x2e, 0x17, 0x59, 0x8e, 0x39, 0x15, 0x54,
  0x1e, 0x89, 0x84, 0x9b, 0x6b, 0xdb, 0x13, 0x66, 0xa9, 0x5f, 0x1e, 0x2f,
  0x73, 0x71, 0xe5, 0x0d, 0x50, 0x0f, 0x81, 0x95, 0x3d, 0x0c, 0x18, 0xdd,
  0x53, 0x50, 0xb3, 0x2f, 0x31, 0x9a, 0xa7, 0xaa, 0x81, 0x2b, 0x40, 0x56,
  0xb3, 0x5f, 0xf9, 0x32, 0xd5, 0xcf, 0x12, 0xac, 0xd3, 0xb7, 0x55, 0x03,
  0x84, 0x38, 0x45, 0x29, 0x4d, 0xaa, 0x8c, 0x46, 0x3a, 0xff, 0xff, 0xff,
  0x04, 0x00, 0x00, 0x00, 0x0c, 0x00, 0x00, 0x00, 0x62, 0x0a, 0x00, 0x00,
  0x5e, 0xfe, 0xff, 0xff, 0x89, 0xf8, 0xff, 0xff, 0x52, 0xff, 0xff, 0xff,
  0x04, 0x00, 0x00, 0x00, 0x08, 0x00, 0x00, 0x00, 0x01, 0x00, 0x00, 0x00,
  0x02, 0x00, 0x00, 0x00, 0xac, 0xdd, 0xff, 0xff, 0xb0, 0xdd, 0xff, 0xff,
  0x0f, 0x00, 0x00, 0x00, 0x4d, 0x4c, 0x49, 0x52, 0x20, 0x43, 0x6f, 0x6e,
  0x76, 0x65, 0x72, 0x74, 0x65, 0x64, 0x2e, 0x00, 0x01, 0x00, 0x00, 0x00,
  0x14, 0x00, 0x00, 0x00, 0x00, 0x00, 0x0e, 0x00, 0x18, 0x00, 0x14, 0x00,
  0x10, 0x00, 0x0c, 0x00, 0x08, 0x00, 0x04, 0x00, 0x0e, 0x00, 0x00, 0x00,
  0x14, 0x00, 0x00, 0x00, 0x1c, 0x00, 0x00, 0x00, 0xb4, 0x02, 0x00, 0x00,
  0xb8, 0x02, 0x00, 0x00, 0xbc, 0x02, 0x00, 0x00, 0x04, 0x00, 0x00, 0x00,
  0x6d, 0x61, 0x69, 0x6e, 0x00, 0x00, 0x00, 0x00, 0x09, 0x00, 0x00, 0x00,
  0x50, 0x02, 0x00, 0x00, 0xe8, 0x01, 0x00, 0x00, 0x98, 0x01, 0x00, 0x00,
  0x44, 0x01, 0x00, 0x00, 0xfc, 0x00, 0x00, 0x00, 0xac, 0x00, 0x00, 0x00,
  0x78, 0x00, 0x00, 0x00, 0x40, 0x00, 0x00, 0x00, 0x04, 0x00, 0x00, 0x00,
  0x46, 0xfe, 0xff, 0xff, 0x1c, 0x00, 0x00, 0x00, 0x00, 0x00, 0x00, 0x09,
  0x1c, 0x00, 0x00, 0x00, 0x20, 0x00, 0x00, 0x00, 0x05, 0x00, 0x00, 0x00,
  0x00, 0x00, 0x06, 0x00, 0x08, 0x00, 0x04, 0x00, 0x06, 0x00, 0x00, 0x00,
  0x00, 0x00, 0x80, 0x3f, 0x01, 0x00, 0x00, 0x00, 0x16, 0x00, 0x00, 0x00,
  0x01, 0x00, 0x00, 0x00, 0x15, 0x00, 0x00, 0x00, 0x5e, 0xff, 0xff, 0xff,
  0x14, 0x00, 0x00, 0x00, 0x00, 0x00, 0x00, 0x08, 0x10, 0x00, 0x00, 0x00,
  0x14, 0x00, 0x00, 0x00, 0x04, 0x00, 0x00, 0x00, 0x7c, 0xde, 0xff, 0xff,
  0x01, 0x00, 0x00, 0x00, 0x15, 0x00, 0x00, 0x00, 0x03, 0x00, 0x00, 0x00,
  0x14, 0x00, 0x00, 0x00, 0x03, 0x00, 0x00, 0x00, 0x02, 0x00, 0x00, 0x00,
  0x92, 0xff, 0xff, 0xff, 0x14, 0x00, 0x00, 0x00, 0x00, 0x00, 0x00, 0x1b,
  0x10, 0x00, 0x00, 0x00, 0x14, 0x00, 0x00, 0x00, 0x03, 0x00, 0x00, 0x00,
  0xb0, 0xde, 0xff, 0xff, 0x01, 0x00, 0x00, 0x00, 0x14, 0x00, 0x00, 0x00,
  0x02, 0x00, 0x00, 0x00, 0x13, 0x00, 0x00, 0x00, 0x01, 0x00, 0x00, 0x00,
  0x7e, 0xfe, 0xff, 0xff, 0x10, 0x00, 0x00, 0x00, 0x00, 0x00, 0x00, 0x01,
  0x18, 0x00, 0x00, 0x00, 0x1c, 0x00, 0x00, 0x00, 0x70, 0xfe, 0xff, 0xff,
  0x00, 0x00, 0x00, 0x01, 0x01, 0x00, 0x00, 0x00, 0x01, 0x00, 0x00, 0x00,
  0x01, 0x00, 0x00, 0x00, 0x13, 0x00, 0x00, 0x00, 0x03, 0x00, 0x00, 0x00,
  0x12, 0x00, 0x00, 0x00, 0x05, 0x00, 0x00, 0x00, 0x04, 0x00, 0x00, 0x00,
  0x00, 0x00, 0x0e, 0x00, 0x18, 0x00, 0x14, 0x00, 0x10, 0x00, 0x0c, 0x00,
  0x0b, 0x00, 0x04, 0x00, 0x0e, 0x00, 0x00, 0x00, 0x14, 0x00, 0x00, 0x00,
  0x00, 0x00, 0x00, 0x02, 0x20, 0x00, 0x00, 0x00, 0x24, 0x00, 0x00, 0x00,
  0x01, 0x00, 0x00, 0x00, 0x1e, 0xff, 0xff, 0xff, 0x00, 0x00, 0x00, 0x01,
  0x01, 0x00, 0x00, 0x00, 0x01, 0x00, 0x00, 0x00, 0x01, 0x00, 0x00, 0x00,
  0x01, 0x00, 0x00, 0x00, 0x12, 0x00, 0x00, 0x00, 0x03, 0x00, 0x00, 0x00,
  0x11, 0x00, 0x00, 0x00, 0x07, 0x00, 0x00, 0x00, 0x06, 0x00, 0x00, 0x00,
  0x72, 0xff, 0xff, 0xff, 0x24, 0x00, 0x00, 0x00, 0x00, 0x00, 0x00, 0x05,
  0x34, 0x00, 0x00, 0x00, 0x38, 0x00, 0x00, 0x00, 0x02, 0x00, 0x00, 0x00,
  0x00, 0x00, 0x0e, 0x00, 0x18, 0x00, 0x17, 0x00, 0x10, 0x00, 0x0c, 0x00,
  0x08, 0x00, 0x04, 0x00, 0x0e, 0x00, 0x00, 0x00, 0x02, 0x00, 0x00, 0x00,
  0x02, 0x00, 0x00, 0x00, 0x02, 0x00, 0x00, 0x00, 0x02, 0x00, 0x00, 0x00,
  0x00, 0x00, 0x00, 0x01, 0x01, 0x00, 0x00, 0x00, 0x11, 0x00, 0x00, 0x00,
  0x01, 0x00, 0x00, 0x00, 0x10, 0x00, 0x00, 0x00, 0x5e, 0xff, 0xff, 0xff,
  0x10, 0x00, 0x00, 0x00, 0x00, 0x00, 0x00, 0x01, 0x18, 0x00, 0x00, 0x00,
  0x1c, 0x00, 0x00, 0x00, 0x50, 0xff, 0xff, 0xff, 0x00, 0x00, 0x00, 0x01,
  0x01, 0x00, 0x00, 0x00, 0x01, 0x00, 0x00, 0x00, 0x01, 0x00, 0x00, 0x00,
  0x10, 0x00, 0x00, 0x00, 0x03, 0x00, 0x00, 0x00, 0x0f, 0x00, 0x00, 0x00,
  0x09, 0x00, 0x00, 0x00, 0x08, 0x00, 0x00, 0x00, 0x00, 0x00, 0x0e, 0x00,
  0x1a, 0x00, 0x14, 0x00, 0x10, 0x00, 0x0c, 0x00, 0x0b, 0x00, 0x04, 0x00,
  0x0e, 0x00, 0x00, 0x00, 0x24, 0x00, 0x00, 0x00, 0x00, 0x00, 0x00, 0x02,
  0x30, 0x00, 0x00, 0x00, 0x34, 0x00, 0x00, 0x00, 0x01, 0x00, 0x00, 0x00,
  0x00, 0x00, 0x0e, 0x00, 0x14, 0x00, 0x00, 0x00, 0x10, 0x00, 0x0c, 0x00,
  0x08, 0x00, 0x07, 0x00, 0x0e, 0x00, 0x00, 0x00, 0x00, 0x00, 0x00, 0x01,
  0x01, 0x00, 0x00, 0x00, 0x01, 0x00, 0x00, 0x00, 0x01, 0x00, 0x00, 0x00,
  0x01, 0x00, 0x00, 0x00, 0x0f, 0x00, 0x00, 0x00, 0x03, 0x00, 0x00, 0x00,
  0x0e, 0x00, 0x00, 0x00, 0x0b, 0x00, 0x00, 0x00, 0x0a, 0x00, 0x00, 0x00,
  0x00, 0x00, 0x0e, 0x00, 0x14, 0x00, 0x00, 0x00, 0x10, 0x00, 0x0c, 0x00,
  0x0b, 0x00, 0x04, 0x00, 0x0e, 0x00, 0x00, 0x00, 0x1c, 0x00, 0x00, 0x00,
  0x00, 0x00, 0x00, 0x01, 0x24, 0x00, 0x00, 0x00, 0x28, 0x00, 0x00, 0x00,
  0x0c, 0x00, 0x10, 0x00, 0x00, 0x00, 0x0c, 0x00, 0x08, 0x00, 0x07, 0x00,
  0x0c, 0x00, 0x00, 0x00, 0x00, 0x00, 0x00, 0x01, 0x02, 0x00, 0x00, 0x00,
  0x02, 0x00, 0x00, 0x00, 0x01, 0x00, 0x00, 0x00, 0x0e, 0x00, 0x00, 0x00,
  0x03, 0x00, 0x00, 0x00, 0x00, 0x00, 0x00, 0x00, 0x0d, 0x00, 0x00, 0x00,
  0x0c, 0x00, 0x00, 0x00, 0x01, 0x00, 0x00, 0x00, 0x16, 0x00, 0x00, 0x00,
  0x01, 0x00, 0x00, 0x00, 0x00, 0x00, 0x00, 0x00, 0x17, 0x00, 0x00, 0x00,
  0xc0, 0x1f, 0x00, 0x00, 0x2c, 0x1f, 0x00, 0x00, 0x84, 0x1e, 0x00, 0x00,
  0xf0, 0x1d, 0x00, 0x00, 0x64, 0x1b, 0x00, 0x00, 0x68, 0x19, 0x00, 0x00,
  0xb4, 0x16, 0x00, 0x00, 0x80, 0x14, 0x00, 0x00, 0x3c, 0x12, 0x00, 0x00,
  0xa0, 0x10, 0x00, 0x00, 0x84, 0x0e, 0x00, 0x00, 0xf4, 0x0c, 0x00, 0x00,
  0x5c, 0x0b, 0x00, 0x00, 0xb8, 0x09, 0x00, 0x00, 0x7c, 0x08, 0x00, 0x00,
  0xb8, 0x06, 0x00, 0x00, 0x74, 0x05, 0x00, 0x00, 0xd0, 0x04, 0x00, 0x00,
  0x0c, 0x03, 0x00, 0x00, 0xc8, 0x01, 0x00, 0x00, 0x2c, 0x01, 0x00, 0x00,
  0x80, 0x00, 0x00, 0x00, 0x04, 0x00, 0x00, 0x00, 0xb2, 0xe0, 0xff, 0xff,
  0x00, 0x00, 0x00, 0x01, 0x18, 0x00, 0x00, 0x00, 0x20, 0x00, 0x00, 0x00,
  0x3c, 0x00, 0x00, 0x00, 0x17, 0x00, 0x00, 0x00, 0x00, 0x00, 0x00, 0x09,
  0x50, 0x00, 0x00, 0x00, 0x02, 0x00, 0x00, 0x00, 0xff, 0xff, 0xff, 0xff,
  0x03, 0x00, 0x00, 0x00, 0x94, 0xe0, 0xff, 0xff, 0x08, 0x00, 0x00, 0x00,
  0x10, 0x00, 0x00, 0x00, 0x01, 0x00, 0x00, 0x00, 0x80, 0xff, 0xff, 0xff,
  0xff, 0xff, 0xff, 0xff, 0x01, 0x00, 0x00, 0x00, 0x00, 0x00, 0x80, 0x3b,
  0x1b, 0x00, 0x00, 0x00, 0x53, 0x74, 0x61, 0x74, 0x65, 0x66, 0x75, 0x6c,
  0x50, 0x61, 0x72, 0x74, 0x69, 0x74, 0x69, 0x6f, 0x6e, 0x65, 0x64, 0x43,
  0x61, 0x6c, 0x6c, 0x5f, 0x31, 0x3a, 0x30, 0x00, 0x02, 0x00, 0x00, 0x00,
  0x01, 0x00, 0x00, 0x00, 0x03, 0x00, 0x00, 0x00, 0x2a, 0xe1, 0xff, 0xff,
  0x00, 0x00, 0x00, 0x01, 0x18, 0x00, 0x00, 0x00, 0x20, 0x00, 0x00, 0x00,
  0x3c, 0x00, 0x00, 0x00, 0x16, 0x00, 0x00, 0x00, 0x00, 0x00, 0x00, 0x09,
  0x80, 0x00, 0x00, 0x00, 0x02, 0x00, 0x00, 0x00, 0xff, 0xff, 0xff, 0xff,
  0x03, 0x00, 0x00, 0x00, 0x0c, 0xe1, 0xff, 0xff, 0x08, 0x00, 0x00, 0x00,
  0x10, 0x00, 0x00, 0x00, 0x01, 0x00, 0x00, 0x00, 0x02, 0x00, 0x00, 0x00,
  0x00, 0x00, 0x00, 0x00, 0x01, 0x00, 0x00, 0x00, 0x46, 0xc9, 0x66, 0x3d,
  0x4a, 0x00, 0x00, 0x00, 0x68, 0x61, 0x67, 0x72, 0x69, 0x64, 0x5f, 0x74,
  0x69, 0x6e, 0x79, 0x5f, 0x67, 0x65, 0x73, 0x74, 0x75, 0x72, 0x65, 0x5f,
  0x31, 0x2f, 0x70, 0x72, 0x6f, 0x62, 0x73, 0x5f, 0x31, 0x2f, 0x4d, 0x61,
  0x74, 0x4d, 0x75, 0x6c, 0x3b, 0x68, 0x61, 0x67, 0x72, 0x69, 0x64, 0x5f,
  0x74, 0x69, 0x6e, 0x79, 0x5f, 0x67, 0x65, 0x73, 0x74, 0x75, 0x72, 0x65,
  0x5f, 0x31, 0x2f, 0x70, 0x72, 0x6f, 0x62, 0x73, 0x5f, 0x31, 0x2f, 0x42,
  0x69, 0x61, 0x73, 0x41, 0x64, 0x64, 0x00, 0x00, 0x02, 0x00, 0x00, 0x00,
  0x01, 0x00, 0x00, 0x00, 0x03, 0x00, 0x00, 0x00, 0xd2, 0xe1, 0xff, 0xff,
  0x00, 0x00, 0x00, 0x01, 0x18, 0x00, 0x00, 0x00, 0x20, 0x00, 0x00, 0x00,
  0x40, 0x00, 0x00, 0x00, 0x15, 0x00, 0x00, 0x00, 0x00, 0x00, 0x00, 0x09,
  0x70, 0x00, 0x00, 0x00, 0x02, 0x00, 0x00, 0x00, 0xff, 0xff, 0xff, 0xff,
  0x20, 0x00, 0x00, 0x00, 0xb4, 0xe1, 0xff, 0xff, 0x08, 0x00, 0x00, 0x00,
  0x14, 0x00, 0x00, 0x00, 0x01, 0x00, 0x00, 0x00, 0x80, 0xff, 0xff, 0xff,
  0xff, 0xff, 0xff, 0xff, 0x00, 0x00, 0x00, 0x00, 0x01, 0x00, 0x00, 0x00,
  0x22, 0x08, 0xe6, 0x3b, 0x35, 0x00, 0x00, 0x00, 0x68, 0x61, 0x67, 0x72,
  0x69, 0x64, 0x5f, 0x74, 0x69, 0x6e, 0x79, 0x5f, 0x67, 0x65, 0x73, 0x74,
  0x75, 0x72, 0x65, 0x5f, 0x31, 0x2f, 0x67, 0x6c, 0x6f, 0x62, 0x61, 0x6c,
  0x5f, 0x61, 0x76, 0x65, 0x72, 0x61, 0x67, 0x65, 0x5f, 0x70, 0x6f, 0x6f,
  0x6c, 0x69, 0x6e, 0x67, 0x32, 0x64, 0x5f, 0x31, 0x2f, 0x4d, 0x65, 0x61,
  0x6e, 0x00, 0x00, 0x00, 0x02, 0x00, 0x00, 0x00, 0x01, 0x00, 0x00, 0x00,
  0x20, 0x00, 0x00, 0x00, 0x6a, 0xe2, 0xff, 0xff, 0x00, 0x00, 0x00, 0x01,
  0x18, 0x00, 0x00, 0x00, 0x28, 0x00, 0x00, 0x00, 0x48, 0x00, 0x00, 0x00,
  0x14, 0x00, 0x00, 0x00, 0x00, 0x00, 0x00, 0x09, 0x10, 0x01, 0x00, 0x00,
  0x04, 0x00, 0x00, 0x00, 0xff, 0xff, 0xff, 0xff, 0x10, 0x00, 0x00, 0x00,
  0x10, 0x00, 0x00, 0x00, 0x20, 0x00, 0x00, 0x00, 0x54, 0xe2, 0xff, 0xff,
  0x08, 0x00, 0x00, 0x00, 0x14, 0x00, 0x00, 0x00, 0x01, 0x00, 0x00, 0x00,
  0x80, 0xff, 0xff, 0xff, 0xff, 0xff, 0xff, 0xff, 0x00, 0x00, 0x00, 0x00,
  0x01, 0x00, 0x00, 0x00, 0xde, 0xa7, 0x52, 0x3d, 0xcc, 0x00, 0x00, 0x00,
  0x68, 0x61, 0x67, 0x72, 0x69, 0x64, 0x5f, 0x74, 0x69, 0x6e, 0x79, 0x5f,
  0x67, 0x65, 0x73, 0x74, 0x75, 0x72, 0x65, 0x5f, 0x31, 0x2f, 0x72, 0x65,
  0x5f, 0x6c, 0x75, 0x5f, 0x34, 0x5f, 0x31, 0x2f, 0x52, 0x65, 0x6c, 0x75,
  0x3b, 0x68, 0x61, 0x67, 0x72, 0x69, 0x64, 0x5f, 0x74, 0x69, 0x6e, 0x79,
  0x5f, 0x67, 0x65, 0x73, 0x74, 0x75, 0x72, 0x65, 0x5f, 0x31, 0x2f, 0x62,
  0x61, 0x74, 0x63, 0x68, 0x5f, 0x6e, 0x6f, 0x72, 0x6d, 0x61, 0x6c, 0x69,
  0x7a, 0x61, 0x74, 0x69, 0x6f, 0x6e, 0x5f, 0x34, 0x5f, 0x31, 0x2f, 0x62,
  0x61, 0x74, 0x63, 0x68, 0x6e, 0x6f, 0x72, 0x6d, 0x2f, 0x61, 0x64, 0x64,
  0x5f, 0x31, 0x3b, 0x68, 0x61, 0x67, 0x72, 0x69, 0x64, 0x5f, 0x74, 0x69,
  0x6e, 0x79, 0x5f, 0x67, 0x65, 0x73, 0x74, 0x75, 0x72, 0x65, 0x5f, 0x31,
  0x2f, 0x63, 0x6f, 0x6e, 0x76, 0x32, 0x64, 0x5f, 0x32, 0x5f, 0x31, 0x2f,
  0x63, 0x6f, 0x6e, 0x76, 0x6f, 0x6c, 0x75, 0x74, 0x69, 0x6f, 0x6e, 0x3b,
  0x68, 0x61, 0x67, 0x72, 0x69, 0x64, 0x5f, 0x74, 0x69, 0x6e, 0x79, 0x5f,
  0x67, 0x65, 0x73, 0x74, 0x75, 0x72, 0x65, 0x5f, 0x31, 0x2f, 0x62, 0x61,
  0x74, 0x63, 0x68, 0x5f, 0x6e, 0x6f, 0x72, 0x6d, 0x61, 0x6c, 0x69, 0x7a,
  0x61, 0x74, 0x69, 0x6f, 0x6e, 0x5f, 0x34, 0x5f, 0x31, 0x2f, 0x62, 0x61,
  0x74, 0x63, 0x68, 0x6e, 0x6f, 0x72, 0x6d, 0x2f, 0x73, 0x75, 0x62, 0x31,
  0x00, 0x00, 0x00, 0x00, 0x04, 0x00, 0x00, 0x00, 0x01, 0x00, 0x00, 0x00,
  0x10, 0x00, 0x00, 0x00, 0x10, 0x00, 0x00, 0x00, 0x20, 0x00, 0x00, 0x00,
  0xaa, 0xe3, 0xff, 0xff, 0x00, 0x00, 0x00, 0x01, 0x18, 0x00, 0x00, 0x00,
  0x28, 0x00, 0x00, 0x00, 0x48, 0x00, 0x00, 0x00, 0x13, 0x00, 0x00, 0x00,
  0x00, 0x00, 0x00, 0x09, 0x90, 0x01, 0x00, 0x00, 0x04, 0x00, 0x00, 0x00,
  0xff, 0xff, 0xff, 0xff, 0x10, 0x00, 0x00, 0x00, 0x10, 0x00, 0x00, 0x00,
  0x18, 0x00, 0x00, 0x00, 0x94, 0xe3, 0xff, 0xff, 0x08, 0x00, 0x00, 0x00,
  0x14, 0x00, 0x00, 0x00, 0x01, 0x00, 0x00, 0x00, 0x80, 0xff, 0xff, 0xff,
  0xff, 0xff, 0xff, 0xff, 0x00, 0x00, 0x00, 0x00, 0x01, 0x00, 0x00, 0x00,
  0xcb, 0x48, 0xd9, 0x3c, 0x4e, 0x01, 0x00, 0x00, 0x68, 0x61, 0x67, 0x72,
  0x69, 0x64, 0x5f, 0x74, 0x69, 0x6e, 0x79, 0x5f, 0x67, 0x65, 0x73, 0x74,
  0x75, 0x72, 0x65, 0x5f, 0x31, 0x2f, 0x72, 0x65, 0x5f, 0x6c, 0x75, 0x5f,
  0x33, 0x5f, 0x31, 0x2f, 0x52, 0x65, 0x6c, 0x75, 0x3b, 0x68, 0x61, 0x67,
  0x72, 0x69, 0x64, 0x5f, 0x74, 0x69, 0x6e, 0x79, 0x5f, 0x67, 0x65, 0x73,
  0x74, 0x75, 0x72, 0x65, 0x5f, 0x31, 0x2f, 0x62, 0x61, 0x74, 0x63, 0x68,
  0x5f, 0x6e, 0x6f, 0x72, 0x6d, 0x61, 0x6c, 0x69, 0x7a, 0x61, 0x74, 0x69,
  0x6f, 0x6e, 0x5f, 0x33, 0x5f, 0x31, 0x2f, 0x62, 0x61, 0x74, 0x63, 0x68,
  0x6e, 0x6f, 0x72, 0x6d, 0x2f, 0x61, 0x64, 0x64, 0x5f, 0x31, 0x3b, 0x68,
  0x61, 0x67, 0x72, 0x69, 0x64, 0x5f, 0x74, 0x69, 0x6e, 0x79, 0x5f, 0x67,
  0x65, 0x73, 0x74, 0x75, 0x72, 0x65, 0x5f, 0x31, 0x2f, 0x62, 0x61, 0x74,
  0x63, 0x68, 0x5f, 0x6e, 0x6f, 0x72, 0x6d, 0x61, 0x6c, 0x69, 0x7a, 0x61,
  0x74, 0x69, 0x6f, 0x6e, 0x5f, 0x33, 0x5f, 0x31, 0x2f, 0x62, 0x61, 0x74,
  0x63, 0x68, 0x6e, 0x6f, 0x72, 0x6d, 0x2f, 0x6d, 0x75, 0x6c, 0x5f, 0x31,
  0x3b, 0x68, 0x61, 0x67, 0x72, 0x69, 0x64, 0x5f, 0x74, 0x69, 0x6e, 0x79,
  0x5f, 0x67, 0x65, 0x73, 0x74, 0x75, 0x72, 0x65, 0x5f, 0x31, 0x2f, 0x64,
  0x65, 0x70, 0x74, 0x68, 0x77, 0x69, 0x73, 0x65, 0x5f, 0x63, 0x6f, 0x6e,
  0x76, 0x32, 0x64, 0x5f, 0x31, 0x5f, 0x32, 0x2f, 0x64, 0x65, 0x70, 0x74,
  0x68, 0x77, 0x69, 0x73, 0x65, 0x3b, 0x68, 0x61, 0x67, 0x72, 0x69, 0x64,
  0x5f, 0x74, 0x69, 0x6e, 0x79, 0x5f, 0x67, 0x65, 0x73, 0x74, 0x75, 0x72,
  0x65, 0x5f, 0x31, 0x2f, 0x62, 0x61, 0x74, 0x63, 0x68, 0x5f, 0x6e, 0x6f,
  0x72, 0x6d, 0x61, 0x6c, 0x69, 0x7a, 0x61, 0x74, 0x69, 0x6f, 0x6e, 0x5f,
  0x33, 0x5f, 0x31, 0x2f, 0x62, 0x61, 0x74, 0x63, 0x68, 0x6e, 0x6f, 0x72,
  0x6d, 0x2f, 0x6d, 0x75, 0x6c, 0x3b, 0x68, 0x61, 0x67, 0x72, 0x69, 0x64,
  0x5f, 0x74, 0x69, 0x6e, 0x79, 0x5f, 0x67, 0x65, 0x73, 0x74, 0x75, 0x72,
  0x65, 0x5f, 0x31, 0x2f, 0x62, 0x61, 0x74, 0x63, 0x68, 0x5f, 0x6e, 0x6f,
  0x72, 0x6d, 0x61, 0x6c, 0x69, 0x7a, 0x61, 0x74, 0x69, 0x6f, 0x6e, 0x5f,
  0x33, 0x5f, 0x31, 0x2f, 0x62, 0x61, 0x74, 0x63, 0x68, 0x6e, 0x6f, 0x72,
  0x6d, 0x2f, 0x73, 0x75, 0x62, 0x31, 0x00, 0x00, 0x04, 0x00, 0x00, 0x00,
  0x01, 0x00, 0x00, 0x00, 0x10, 0x00, 0x00, 0x00, 0x10, 0x00, 0x00, 0x00,
  0x18, 0x00, 0x00, 0x00, 0x6a, 0xe5, 0xff, 0xff, 0x00, 0x00, 0x00, 0x01,
  0x18, 0x00, 0x00, 0x00, 0x28, 0x00, 0x00, 0x00, 0x48, 0x00, 0x00, 0x00,
  0x12, 0x00, 0x00, 0x00, 0x00, 0x00, 0x00, 0x09, 0x70, 0x00, 0x00, 0x00,
  0x04, 0x00, 0x00, 0x00, 0xff, 0xff, 0xff, 0xff, 0x10, 0x00, 0x00, 0x00,
  0x10, 0x00, 0x00, 0x00, 0x18, 0x00, 0x00, 0x00, 0x54, 0xe5, 0xff, 0xff,
  0x08, 0x00, 0x00, 0x00, 0x14, 0x00, 0x00, 0x00, 0x01, 0x00, 0x00, 0x00,
  0x80, 0xff, 0xff, 0xff, 0xff, 0xff, 0xff, 0xff, 0x00, 0x00, 0x00, 0x00,
  0x01, 0x00, 0x00, 0x00, 0xcd, 0xe4, 0xfd, 0x3c, 0x2f, 0x00, 0x00, 0x00,
  0x68, 0x61, 0x67, 0x72, 0x69, 0x64, 0x5f, 0x74, 0x69, 0x6e, 0x79, 0x5f,
  0x67, 0x65, 0x73, 0x74, 0x75, 0x72, 0x65, 0x5f, 0x31, 0x2f, 0x6d, 0x61,
  0x78, 0x5f, 0x70, 0x6f, 0x6f, 0x6c, 0x69, 0x6e, 0x67, 0x32, 0x64, 0x5f,
  0x31, 0x2f, 0x4d, 0x61, 0x78, 0x50, 0x6f, 0x6f, 0x6c, 0x32, 0x64, 0x00,
  0x04, 0x00, 0x00, 0x00, 0x01, 0x00, 0x00, 0x00, 0x10, 0x00, 0x00, 0x00,
  0x10, 0x00, 0x00, 0x00, 0x18, 0x00, 0x00, 0x00, 0x0a, 0xe6, 0xff, 0xff,
  0x00, 0x00, 0x00, 0x01, 0x18, 0x00, 0x00, 0x00, 0x28, 0x00, 0x00, 0x00,
  0x48, 0x00, 0x00, 0x00, 0x11, 0x00, 0x00, 0x00, 0x00, 0x00, 0x00, 0x09,
  0x10, 0x01, 0x00, 0x00, 0x04, 0x00, 0x00, 0x00, 0xff, 0xff, 0xff, 0xff,
  0x20, 0x00, 0x00, 0x00, 0x20, 0x00, 0x00, 0x00, 0x18, 0x00, 0x00, 0x00,
  0xf4, 0xe5, 0xff, 0xff, 0x08, 0x00, 0x00, 0x00, 0x14, 0x00, 0x00, 0x00,
  0x01, 0x00, 0x00, 0x00, 0x80, 0xff, 0xff, 0xff, 0xff, 0xff, 0xff, 0xff,
  0x00, 0x00, 0x00, 0x00, 0x01, 0x00, 0x00, 0x00, 0xcd, 0xe4, 0xfd, 0x3c,
  0xcc, 0x00, 0x00, 0x00, 0x68, 0x61, 0x67, 0x72, 0x69, 0x64, 0x5f, 0x74,
  0x69, 0x6e, 0x79, 0x5f, 0x67, 0x65, 0x73, 0x74, 0x75, 0x72, 0x65, 0x5f,
  0x31, 0x2f, 0x72, 0x65, 0x5f, 0x6c, 0x75, 0x5f, 0x32, 0x5f, 0x31, 0x2f,
  0x52, 0x65, 0x6c, 0x75, 0x3b, 0x68, 0x61, 0x67, 0x72, 0x69, 0x64, 0x5f,
  0x74, 0x69, 0x6e, 0x79, 0x5f, 0x67, 0x65, 0x73, 0x74, 0x75, 0x72, 0x65,
  0x5f, 0x31, 0x2f, 0x62, 0x61, 0x74, 0x63, 0x68, 0x5f, 0x6e, 0x6f, 0x72,
  0x6d, 0x61, 0x6c, 0x69, 0x7a, 0x61, 0x74, 0x69, 0x6f, 0x6e, 0x5f, 0x32,
  0x5f, 0x31, 0x2f, 0x62, 0x61, 0x74, 0x63, 0x68, 0x6e, 0x6f, 0x72, 0x6d,
  0x2f, 0x61, 0x64, 0x64, 0x5f, 0x31, 0x3b, 0x68, 0x61, 0x67, 0x72, 0x69,
  0x64, 0x5f, 0x74, 0x69, 0x6e, 0x79, 0x5f, 0x67, 0x65, 0x73, 0x74, 0x75,
  0x72, 0x65, 0x5f, 0x31, 0x2f, 0x63, 0x6f, 0x6e, 0x76, 0x32, 0x64, 0x5f,
  0x31, 0x5f, 0x32, 0x2f, 0x63, 0x6f, 0x6e, 0x76, 0x6f, 0x6c, 0x75, 0x74,
  0x69, 0x6f, 0x6e, 0x3b, 0x68, 0x61, 0x67, 0x72, 0x69, 0x64, 0x5f, 0x74,
  0x69, 0x6e, 0x79, 0x5f, 0x67, 0x65, 0x73, 0x74, 0x75, 0x72, 0x65, 0x5f,
  0x31, 0x2f, 0x62, 0x61, 0x74, 0x63, 0x68, 0x5f, 0x6e, 0x6f, 0x72, 0x6d,
  0x61, 0x6c, 0x69, 0x7a, 0x61, 0x74, 0x69, 0x6f, 0x6e, 0x5f, 0x32, 0x5f,
  0x31, 0x2f, 0x62, 0x61, 0x74, 0x63, 0x68, 0x6e, 0x6f, 0x72, 0x6d, 0x2f,
  0x73, 0x75, 0x62, 0x31, 0x00, 0x00, 0x00, 0x00, 0x04, 0x00, 0x00, 0x00,
  0x01, 0x00, 0x00, 0x00, 0x20, 0x00, 0x00, 0x00, 0x20, 0x00, 0x00, 0x00,
  0x18, 0x00, 0x00, 0x00, 0x4a, 0xe7, 0xff, 0xff, 0x00, 0x00, 0x00, 0x01,
  0x18, 0x00, 0x00, 0x00, 0x28, 0x00, 0x00, 0x00, 0x48, 0x00, 0x00, 0x00,
  0x10, 0x00, 0x00, 0x00, 0x00, 0x00, 0x00, 0x09, 0x90, 0x01, 0x00, 0x00,
  0x04, 0x00, 0x00, 0x00, 0xff, 0xff, 0xff, 0xff, 0x20, 0x00, 0x00, 0x00,
  0x20, 0x00, 0x00, 0x00, 0x0c, 0x00, 0x00, 0x00, 0x34, 0xe7, 0xff, 0xff,
  0x08, 0x00, 0x00, 0x00, 0x14, 0x00, 0x00, 0x00, 0x01, 0x00, 0x00, 0x00,
  0x80, 0xff, 0xff, 0xff, 0xff, 0xff, 0xff, 0xff, 0x00, 0x00, 0x00, 0x00,
  0x01, 0x00, 0x00, 0x00, 0x92, 0x77, 0xd5, 0x3c, 0x4c, 0x01, 0x00, 0x00,
  0x68, 0x61, 0x67, 0x72, 0x69, 0x64, 0x5f, 0x74, 0x69, 0x6e, 0x79, 0x5f,
  0x67, 0x65, 0x73, 0x74, 0x75, 0x72, 0x65, 0x5f, 0x31, 0x2f, 0x72, 0x65,
  0x5f, 0x6c, 0x75, 0x5f, 0x31, 0x5f, 0x32, 0x2f, 0x52, 0x65, 0x6c, 0x75,
  0x3b, 0x68, 0x61, 0x67, 0x72, 0x69, 0x64, 0x5f, 0x74, 0x69, 0x6e, 0x79,
  0x5f, 0x67, 0x65, 0x73, 0x74, 0x75, 0x72, 0x65, 0x5f, 0x31, 0x2f, 0x62,
  0x61, 0x74, 0x63, 0x68, 0x5f, 0x6e, 0x6f, 0x72, 0x6d, 0x61, 0x6c, 0x69,
  0x7a, 0x61, 0x74, 0x69, 0x6f, 0x6e, 0x5f, 0x31, 0x5f, 0x32, 0x2f, 0x62,
  0x61, 0x74, 0x63, 0x68, 0x6e, 0x6f, 0x72, 0x6d, 0x2f, 0x61, 0x64, 0x64,
  0x5f, 0x31, 0x3b, 0x68, 0x61, 0x67, 0x72, 0x69, 0x64, 0x5f, 0x74, 0x69,
  0x6e, 0x79, 0x5f, 0x67, 0x65, 0x73, 0x74, 0x75, 0x72, 0x65, 0x5f, 0x31,
  0x2f, 0x62, 0x61, 0x74, 0x63, 0x68, 0x5f, 0x6e, 0x6f, 0x72, 0x6d, 0x61,
  0x6c, 0x69, 0x7a, 0x61, 0x74, 0x69, 0x6f, 0x6e, 0x5f, 0x31, 0x5f, 0x32,
  0x2f, 0x62, 0x61, 0x74, 0x63, 0x68, 0x6e, 0x6f, 0x72, 0x6d, 0x2f, 0x6d,
  0x75, 0x6c, 0x5f, 0x31, 0x3b, 0x68, 0x61, 0x67, 0x72, 0x69, 0x64, 0x5f,
  0x74, 0x69, 0x6e, 0x79, 0x5f, 0x67, 0x65, 0x73, 0x74, 0x75, 0x72, 0x65,
  0x5f, 0x31, 0x2f, 0x64, 0x65, 0x70, 0x74, 0x68, 0x77, 0x69, 0x73, 0x65,
  0x5f, 0x63, 0x6f, 0x6e, 0x76, 0x32, 0x64, 0x5f, 0x31, 0x2f, 0x64, 0x65,
  0x70, 0x74, 0x68, 0x77, 0x69, 0x73, 0x65, 0x3b, 0x68, 0x61, 0x67, 0x72,
  0x69, 0x64, 0x5f, 0x74, 0x69, 0x6e, 0x79, 0x5f, 0x67, 0x65, 0x73, 0x74,
  0x75, 0x72, 0x65, 0x5f, 0x31, 0x2f, 0x62, 0x61, 0x74, 0x63, 0x68, 0x5f,
  0x6e, 0x6f, 0x72, 0x6d, 0x61, 0x6c, 0x69, 0x7a, 0x61, 0x74, 0x69, 0x6f,
  0x6e, 0x5f, 0x31, 0x5f, 0x32, 0x2f, 0x62, 0x61, 0x74, 0x63, 0x68, 0x6e,
  0x6f, 0x72, 0x6d, 0x2f, 0x6d, 0x75, 0x6c, 0x3b, 0x68, 0x61, 0x67, 0x72,
  0x69, 0x64, 0x5f, 0x74, 0x69, 0x6e, 0x79, 0x5f, 0x67, 0x65, 0x73, 0x74,
  0x75, 0x72, 0x65, 0x5f, 0x31, 0x2f, 0x62, 0x61, 0x74, 0x63, 0x68, 0x5f,
  0x6e, 0x6f, 0x72, 0x6d, 0x61, 0x6c, 0x69, 0x7a, 0x61, 0x74, 0x69, 0x6f,
  0x6e, 0x5f, 0x31, 0x5f, 0x32, 0x2f, 0x62, 0x61, 0x74, 0x63, 0x68, 0x6e,
  0x6f, 0x72, 0x6d, 0x2f, 0x73, 0x75, 0x62, 0x31, 0x00, 0x00, 0x00, 0x00,
  0x04, 0x00, 0x00, 0x00, 0x01, 0x00, 0x00, 0x00, 0x20, 0x00, 0x00, 0x00,
  0x20, 0x00, 0x00, 0x00, 0x0c, 0x00, 0x00, 0x00, 0x0a, 0xe9, 0xff, 0xff,
  0x00, 0x00, 0x00, 0x01, 0x18, 0x00, 0x00, 0x00, 0x28, 0x00, 0x00, 0x00,
  0x48, 0x00, 0x00, 0x00, 0x0f, 0x00, 0x00, 0x00, 0x00, 0x00, 0x00, 0x09,
  0x08, 0x01, 0x00, 0x00, 0x04, 0x00, 0x00, 0x00, 0xff, 0xff, 0xff, 0xff,
  0x20, 0x00, 0x00, 0x00, 0x20, 0x00, 0x00, 0x00, 0x0c, 0x00, 0x00, 0x00,
  0xf4, 0xe8, 0xff, 0xff, 0x08, 0x00, 0x00, 0x00, 0x14, 0x00, 0x00, 0x00,
  0x01, 0x00, 0x00, 0x00, 0x80, 0xff, 0xff, 0xff, 0xff, 0xff, 0xff, 0xff,
  0x00, 0x00, 0x00, 0x00, 0x01, 0x00, 0x00, 0x00, 0x48, 0x77, 0xc0, 0x3c,
  0xc4, 0x00, 0x00, 0x00, 0x68, 0x61, 0x67, 0x72, 0x69, 0x64, 0x5f, 0x74,
  0x69, 0x6e, 0x79, 0x5f, 0x67, 0x65, 0x73, 0x74, 0x75, 0x72, 0x65, 0x5f,
  0x31, 0x2f, 0x72, 0x65, 0x5f, 0x6c, 0x75, 0x5f, 0x31, 0x2f, 0x52, 0x65,
  0x6c, 0x75, 0x3b, 0x68, 0x61, 0x67, 0x72, 0x69, 0x64, 0x5f, 0x74, 0x69,
  0x6e, 0x79, 0x5f, 0x67, 0x65, 0x73, 0x74, 0x75, 0x72, 0x65, 0x5f, 0x31,
  0x2f, 0x62, 0x61, 0x74, 0x63, 0x68, 0x5f, 0x6e, 0x6f, 0x72, 0x6d, 0x61,
  0x6c, 0x69, 0x7a, 0x61, 0x74, 0x69, 0x6f, 0x6e, 0x5f, 0x31, 0x2f, 0x62,
  0x61, 0x74, 0x63, 0x68, 0x6e, 0x6f, 0x72, 0x6d, 0x2f, 0x61, 0x64, 0x64,
  0x5f, 0x31, 0x3b, 0x68, 0x61, 0x67, 0x72, 0x69, 0x64, 0x5f, 0x74, 0x69,
  0x6e, 0x79, 0x5f, 0x67, 0x65, 0x73, 0x74, 0x75, 0x72, 0x65, 0x5f, 0x31,
  0x2f, 0x63, 0x6f, 0x6e, 0x76, 0x32, 0x64, 0x5f, 0x31, 0x2f, 0x63, 0x6f,
  0x6e, 0x76, 0x6f, 0x6c, 0x75, 0x74, 0x69, 0x6f, 0x6e, 0x3b, 0x68, 0x61,
  0x67, 0x72, 0x69, 0x64, 0x5f, 0x74, 0x69, 0x6e, 0x79, 0x5f, 0x67, 0x65,
  0x73, 0x74, 0x75, 0x72, 0x65, 0x5f, 0x31, 0x2f, 0x62, 0x61, 0x74, 0x63,
  0x68, 0x5f, 0x6e, 0x6f, 0x72, 0x6d, 0x61, 0x6c, 0x69, 0x7a, 0x61, 0x74,
  0x69, 0x6f, 0x6e, 0x5f, 0x31, 0x2f, 0x62, 0x61, 0x74, 0x63, 0x68, 0x6e,
  0x6f, 0x72, 0x6d, 0x2f, 0x73, 0x75, 0x62, 0x32, 0x00, 0x00, 0x00, 0x00,
  0x04, 0x00, 0x00, 0x00, 0x01, 0x00, 0x00, 0x00, 0x20, 0x00, 0x00, 0x00,
  0x20, 0x00, 0x00, 0x00, 0x0c, 0x00, 0x00, 0x00, 0xd2, 0xea, 0xff, 0xff,
  0x00, 0x00, 0x00, 0x01, 0x14, 0x00, 0x00, 0x00, 0xb4, 0x00, 0x00, 0x00,
  0x0e, 0x00, 0x00, 0x00, 0x00, 0x00, 0x00, 0x09, 0x74, 0x01, 0x00, 0x00,
  0x14, 0xea, 0xff, 0xff, 0x08, 0x00, 0x00, 0x00, 0x68, 0x00, 0x00, 0x00,
  0x0c, 0x00, 0x00, 0x00, 0x00, 0x00, 0x00, 0x00, 0x00, 0x00, 0x00, 0x00,
  0x00, 0x00, 0x00, 0x00, 0x00, 0x00, 0x00, 0x00, 0x00, 0x00, 0x00, 0x00,
  0x00, 0x00, 0x00, 0x00, 0x00, 0x00, 0x00, 0x00, 0x00, 0x00, 0x00, 0x00,
  0x00, 0x00, 0x00, 0x00, 0x00, 0x00, 0x00, 0x00, 0x00, 0x00, 0x00, 0x00,
  0x00, 0x00, 0x00, 0x00, 0x00, 0x00, 0x00, 0x00, 0x00, 0x00, 0x00, 0x00,
  0x00, 0x00, 0x00, 0x00, 0x00, 0x00, 0x00, 0x00, 0x00, 0x00, 0x00, 0x00,
  0x00, 0x00, 0x00, 0x00, 0x00, 0x00, 0x00, 0x00, 0x00, 0x00, 0x00, 0x00,
  0x00, 0x00, 0x00, 0x00, 0x00, 0x00, 0x00, 0x00, 0x00, 0x00, 0x00, 0x00,
  0x00, 0x00, 0x00, 0x00, 0x0c, 0x00, 0x00, 0x00, 0x1e, 0x23, 0x05, 0x38,
  0x4c, 0x14, 0x86, 0x38, 0x6a, 0x00, 0x26, 0x38, 0x5f, 0x3a, 0x68, 0x38,
  0x29, 0x32, 0x8e, 0x38, 0xcc, 0xf9, 0x76, 0x38, 0x7e, 0xd2, 0xc6, 0x38,
  0x10, 0x98, 0x4b, 0x38, 0x4d, 0x35, 0xc1, 0x38, 0x63, 0x50, 0xfd, 0x37,
  0x3a, 0xb3, 0x27, 0x38, 0x8b, 0xb1, 0x2b, 0x38, 0xc4, 0x00, 0x00, 0x00,
  0x68, 0x61, 0x67, 0x72, 0x69, 0x64, 0x5f, 0x74, 0x69, 0x6e, 0x79, 0x5f,
  0x67, 0x65, 0x73, 0x74, 0x75, 0x72, 0x65, 0x5f, 0x31, 0x2f, 0x72, 0x65,
  0x5f, 0x6c, 0x75, 0x5f, 0x31, 0x2f, 0x52, 0x65, 0x6c, 0x75, 0x3b, 0x68,
  0x61, 0x67, 0x72, 0x69, 0x64, 0x5f, 0x74, 0x69, 0x6e, 0x79, 0x5f, 0x67,
  0x65, 0x73, 0x74, 0x75, 0x72, 0x65, 0x5f, 0x31, 0x2f, 0x62, 0x61, 0x74,
  0x63, 0x68, 0x5f, 0x6e, 0x6f, 0x72, 0x6d, 0x61, 0x6c, 0x69, 0x7a, 0x61,
  0x74, 0x69, 0x6f, 0x6e, 0x5f, 0x31, 0x2f, 0x62, 0x61, 0x74, 0x63, 0x68,
  0x6e, 0x6f, 0x72, 0x6d, 0x2f, 0x61, 0x64, 0x64, 0x5f, 0x31, 0x3b, 0x68,
  0x61, 0x67, 0x72, 0x69, 0x64, 0x5f, 0x74, 0x69, 0x6e, 0x79, 0x5f, 0x67,
  0x65, 0x73, 0x74, 0x75, 0x72, 0x65, 0x5f, 0x31, 0x2f, 0x63, 0x6f, 0x6e,
  0x76, 0x32, 0x64, 0x5f, 0x31, 0x2f, 0x63, 0x6f, 0x6e, 0x76, 0x6f, 0x6c,
  0x75, 0x74, 0x69, 0x6f, 0x6e, 0x3b, 0x68, 0x61, 0x67, 0x72, 0x69, 0x64,
  0x5f, 0x74, 0x69, 0x6e, 0x79, 0x5f, 0x67, 0x65, 0x73, 0x74, 0x75, 0x72,
  0x65, 0x5f, 0x31, 0x2f, 0x62, 0x61, 0x74, 0x63, 0x68, 0x5f, 0x6e, 0x6f,
  0x72, 0x6d, 0x61, 0x6c, 0x69, 0x7a, 0x61, 0x74, 0x69, 0x6f, 0x6e, 0x5f,
  0x31, 0x2f, 0x62, 0x61, 0x74, 0x63, 0x68, 0x6e, 0x6f, 0x72, 0x6d, 0x2f,
  0x73, 0x75, 0x62, 0x31, 0x00, 0x00, 0x00, 0x00, 0x04, 0x00, 0x00, 0x00,
  0x0c, 0x00, 0x00, 0x00, 0x03, 0x00, 0x00, 0x00, 0x03, 0x00, 0x00, 0x00,
  0x01, 0x00, 0x00, 0x00, 0x72, 0xec, 0xff, 0xff, 0x00, 0x00, 0x00, 0x01,
  0x14, 0x00, 0x00, 0x00, 0xb8, 0x00, 0x00, 0x00, 0x0d, 0x00, 0x00, 0x00,
  0x00, 0x00, 0x00, 0x02, 0x74, 0x01, 0x00, 0x00, 0xb4, 0xeb, 0xff, 0xff,
  0x08, 0x00, 0x00, 0x00, 0x6c, 0x00, 0x00, 0x00, 0x0c, 0x00, 0x00, 0x00,
  0x00, 0x00, 0x00, 0x00, 0x00, 0x00, 0x00, 0x00, 0x00, 0x00, 0x00, 0x00,
  0x00, 0x00, 0x00, 0x00, 0x00, 0x00, 0x00, 0x00, 0x00, 0x00, 0x00, 0x00,
  0x00, 0x00, 0x00, 0x00, 0x00, 0x00, 0x00, 0x00, 0x00, 0x00, 0x00, 0x00,
  0x00, 0x00, 0x00, 0x00, 0x00, 0x00, 0x00, 0x00, 0x00, 0x00, 0x00, 0x00,
  0x00, 0x00, 0x00, 0x00, 0x00, 0x00, 0x00, 0x00, 0x00, 0x00, 0x00, 0x00,
  0x00, 0x00, 0x00, 0x00, 0x00, 0x00, 0x00, 0x00, 0x00, 0x00, 0x00, 0x00,
  0x00, 0x00, 0x00, 0x00, 0x00, 0x00, 0x00, 0x00, 0x00, 0x00, 0x00, 0x00,
  0x00, 0x00, 0x00, 0x00, 0x00, 0x00, 0x00, 0x00, 0x00, 0x00, 0x00, 0x00,
  0x00, 0x00, 0x00, 0x00, 0x0c, 0x00, 0x00, 0x00, 0x1e, 0x23, 0x05, 0x38,
  0x4c, 0x14, 0x86, 0x38, 0x6a, 0x00, 0x26, 0x38, 0x5f, 0x3a, 0x68, 0x38,
  0x29, 0x32, 0x8e, 0x38, 0xcc, 0xf9, 0x76, 0x38, 0x7e, 0xd2, 0xc6, 0x38,
  0x10, 0x98, 0x4b, 0x38, 0x4d, 0x35, 0xc1, 0x38, 0x63, 0x50, 0xfd, 0x37,
  0x3a, 0xb3, 0x27, 0x38, 0x8b, 0xb1, 0x2b, 0x38, 0xc3, 0x00, 0x00, 0x00,
  0x68, 0x61, 0x67, 0x72, 0x69, 0x64, 0x5f, 0x74, 0x69, 0x6e, 0x79, 0x5f,
  0x67, 0x65, 0x73, 0x74, 0x75, 0x72, 0x65, 0x5f, 0x31, 0x2f, 0x72, 0x65,
  0x5f, 0x6c, 0x75, 0x5f, 0x31, 0x2f, 0x52, 0x65, 0x6c, 0x75, 0x3b, 0x68,
  0x61, 0x67, 0x72, 0x69, 0x64, 0x5f, 0x74, 0x69, 0x6e, 0x79, 0x5f, 0x67,
  0x65, 0x73, 0x74, 0x75, 0x72, 0x65, 0x5f, 0x31, 0x2f, 0x62, 0x61, 0x74,
  0x63, 0x68, 0x5f, 0x6e, 0x6f, 0x72, 0x6d, 0x61, 0x6c, 0x69, 0x7a, 0x61,
  0x74, 0x69, 0x6f, 0x6e, 0x5f, 0x31, 0x2f, 0x62, 0x61, 0x74, 0x63, 0x68,
  0x6e, 0x6f, 0x72, 0x6d, 0x2f, 0x61, 0x64, 0x64, 0x5f, 0x31, 0x3b, 0x68,
  0x61, 0x67, 0x72, 0x69, 0x64, 0x5f, 0x74, 0x69, 0x6e, 0x79, 0x5f, 0x67,
  0x65, 0x73, 0x74, 0x75, 0x72, 0x65, 0x5f, 0x31, 0x2f, 0x63, 0x6f, 0x6e,
  0x76, 0x32, 0x64, 0x5f, 0x31, 0x2f, 0x63, 0x6f, 0x6e, 0x76, 0x6f, 0x6c,
  0x75, 0x74, 0x69, 0x6f, 0x6e, 0x3b, 0x68, 0x61, 0x67, 0x72, 0x69, 0x64,
  0x5f, 0x74, 0x69, 0x6e, 0x79, 0x5f, 0x67, 0x65, 0x73, 0x74, 0x75, 0x72,
  0x65, 0x5f, 0x31, 0x2f, 0x62, 0x61, 0x74, 0x63, 0x68, 0x5f, 0x6e, 0x6f,
  0x72, 0x6d, 0x61, 0x6c, 0x69, 0x7a, 0x61, 0x74, 0x69, 0x6f, 0x6e, 0x5f,
  0x31, 0x2f, 0x62, 0x61, 0x74, 0x63, 0x68, 0x6e, 0x6f, 0x72, 0x6d, 0x2f,
  0x73, 0x75, 0x62, 0x00, 0x01, 0x00, 0x00, 0x00, 0x0c, 0x00, 0x00, 0x00,
  0x06, 0xee, 0xff, 0xff, 0x00, 0x00, 0x00, 0x01, 0x14, 0x00, 0x00, 0x00,
  0xb8, 0x00, 0x00, 0x00, 0x0c, 0x00, 0x00, 0x00, 0x00, 0x00, 0x00, 0x09,
  0x60, 0x01, 0x00, 0x00, 0x82, 0xf8, 0xff, 0xff, 0x03, 0x00, 0x00, 0x00,
  0x08, 0x00, 0x00, 0x00, 0x68, 0x00, 0x00, 0x00, 0x0c, 0x00, 0x00, 0x00,
  0x00, 0x00, 0x00, 0x00, 0x00, 0x00, 0x00, 0x00, 0x00, 0x00, 0x00, 0x00,
  0x00, 0x00, 0x00, 0x00, 0x00, 0x00, 0x00, 0x00, 0x00, 0x00, 0x00, 0x00,
  0x00, 0x00, 0x00, 0x00, 0x00, 0x00, 0x00, 0x00, 0x00, 0x00, 0x00, 0x00,
  0x00, 0x00, 0x00, 0x00, 0x00, 0x00, 0x00, 0x00, 0x00, 0x00, 0x00, 0x00,
  0x00, 0x00, 0x00, 0x00, 0x00, 0x00, 0x00, 0x00, 0x00, 0x00, 0x00, 0x00,
  0x00, 0x00, 0x00, 0x00, 0x00, 0x00, 0x00, 0x00, 0x00, 0x00, 0x00, 0x00,
  0x00, 0x00, 0x00, 0x00, 0x00, 0x00, 0x00, 0x00, 0x00, 0x00, 0x00, 0x00,
  0x00, 0x00, 0x00, 0x00, 0x00, 0x00, 0x00, 0x00, 0x00, 0x00, 0x00, 0x00,
  0x0c, 0x00, 0x00, 0x00, 0x89, 0x14, 0x08, 0x3c, 0x0a, 0x69, 0xad, 0x3b,
  0x62, 0x30, 0xd9, 0x3b, 0x7e, 0xa2, 0xa0, 0x3c, 0x0e, 0xe0, 0x2b, 0x3c,
  0x3f, 0x52, 0x3c, 0x3c, 0x73, 0x0b, 0x00, 0x3c, 0x54, 0x89, 0x0d, 0x3c,
  0x4e, 0x7b, 0x47, 0x3c, 0x75, 0x2f, 0x94, 0x3b, 0x50, 0x32, 0x96, 0x3c,
  0xb5, 0xe4, 0xbf, 0x3c, 0xac, 0x00, 0x00, 0x00, 0x68, 0x61, 0x67, 0x72,
  0x69, 0x64, 0x5f, 0x74, 0x69, 0x6e, 0x79, 0x5f, 0x67, 0x65, 0x73, 0x74,
  0x75, 0x72, 0x65, 0x5f, 0x31, 0x2f, 0x62, 0x61, 0x74, 0x63, 0x68, 0x5f,
  0x6e, 0x6f, 0x72, 0x6d, 0x61, 0x6c, 0x69, 0x7a, 0x61, 0x74, 0x69, 0x6f,
  0x6e, 0x5f, 0x31, 0x5f, 0x32, 0x2f, 0x62, 0x61, 0x74, 0x63, 0x68, 0x6e,
  0x6f, 0x72, 0x6d, 0x2f, 0x6d, 0x75, 0x6c, 0x5f, 0x31, 0x3b, 0x68, 0x61,
  0x67, 0x72, 0x69, 0x64, 0x5f, 0x74, 0x69, 0x6e, 0x79, 0x5f, 0x67, 0x65,
  0x73, 0x74, 0x75, 0x72, 0x65, 0x5f, 0x31, 0x2f, 0x64, 0x65, 0x70, 0x74,
  0x68, 0x77, 0x69, 0x73, 0x65, 0x5f, 0x63, 0x6f, 0x6e, 0x76, 0x32, 0x64,
  0x5f, 0x31, 0x2f, 0x64, 0x65, 0x70, 0x74, 0x68, 0x77, 0x69, 0x73, 0x65,
  0x3b, 0x68, 0x61, 0x67, 0x72, 0x69, 0x64, 0x5f, 0x74, 0x69, 0x6e, 0x79,
  0x5f, 0x67, 0x65, 0x73, 0x74, 0x75, 0x72, 0x65, 0x5f, 0x31, 0x2f, 0x62,
  0x61, 0x74, 0x63, 0x68, 0x5f, 0x6e, 0x6f, 0x72, 0x6d, 0x61, 0x6c, 0x69,
  0x7a, 0x61, 0x74, 0x69, 0x6f, 0x6e, 0x5f, 0x31, 0x5f, 0x32, 0x2f, 0x62,
  0x61, 0x74, 0x63, 0x68, 0x6e, 0x6f, 0x72, 0x6d, 0x2f, 0x6d, 0x75, 0x6c,
  0x00, 0x00, 0x00, 0x00, 0x04, 0x00, 0x00, 0x00, 0x01, 0x00, 0x00, 0x00,
  0x03, 0x00, 0x00, 0x00, 0x03, 0x00, 0x00, 0x00, 0x0c, 0x00, 0x00, 0x00,
  0x92, 0xef, 0xff, 0xff, 0x00, 0x00, 0x00, 0x01, 0x14, 0x00, 0x00, 0x00,
  0xb4, 0x00, 0x00, 0x00, 0x0b, 0x00, 0x00, 0x00, 0x00, 0x00, 0x00, 0x02,
  0xf8, 0x01, 0x00, 0x00, 0xd4, 0xee, 0xff, 0xff, 0x08, 0x00, 0x00, 0x00,
  0x68, 0x00, 0x00, 0x00, 0x0c, 0x00, 0x00, 0x00, 0x00, 0x00, 0x00, 0x00,
  0x00, 0x00, 0x00, 0x00, 0x00, 0x00, 0x00, 0x00, 0x00, 0x00, 0x00, 0x00,
  0x00, 0x00, 0x00, 0x00, 0x00, 0x00, 0x00, 0x00, 0x00, 0x00, 0x00, 0x00,
  0x00, 0x00, 0x00, 0x00, 0x00, 0x00, 0x00, 0x00, 0x00, 0x00, 0x00, 0x00,
  0x00, 0x00, 0x00, 0x00, 0x00, 0x00, 0x00, 0x00, 0x00, 0x00, 0x00, 0x00,
  0x00, 0x00, 0x00, 0x00, 0x00, 0x00, 0x00, 0x00, 0x00, 0x00, 0x00, 0x00,
  0x00, 0x00, 0x00, 0x00, 0x00, 0x00, 0x00, 0x00, 0x00, 0x00, 0x00, 0x00,
  0x00, 0x00, 0x00, 0x00, 0x00, 0x00, 0x00, 0x00, 0x00, 0x00, 0x00, 0x00,
  0x00, 0x00, 0x00, 0x00, 0x00, 0x00, 0x00, 0x00, 0x0c, 0x00, 0x00, 0x00,
  0x9d, 0x9d, 0x4c, 0x39, 0x94, 0x5f, 0x02, 0x39, 0x7c, 0x49, 0x23, 0x39,
  0x6e, 0x89, 0xf1, 0x39, 0x20, 0x38, 0x81, 0x39, 0x6e, 0x95, 0x8d, 0x39,
  0x7f, 0x88, 0x40, 0x39, 0xe3, 0xd1, 0x54, 0x39, 0x6d, 0xf9, 0x95, 0x39,
  0x47, 0xd1, 0xde, 0x38, 0x6f, 0xd7, 0xe1, 0x39, 0xf1, 0x44, 0x10, 0x3a,
  0x4b, 0x01, 0x00, 0x00, 0x68, 0x61, 0x67, 0x72, 0x69, 0x64, 0x5f, 0x74,
  0x69, 0x6e, 0x79, 0x5f, 0x67, 0x65, 0x73, 0x74, 0x75, 0x72, 0x65, 0x5f,
  0x31, 0x2f, 0x72, 0x65, 0x5f, 0x6c, 0x75, 0x5f, 0x31, 0x5f, 0x32, 0x2f,
  0x52, 0x65, 0x6c, 0x75, 0x3b, 0x68, 0x61, 0x67, 0x72, 0x69, 0x64, 0x5f,
  0x74, 0x69, 0x6e, 0x79, 0x5f, 0x67, 0x65, 0x73, 0x74, 0x75, 0x72, 0x65,
  0x5f, 0x31, 0x2f, 0x62, 0x61, 0x74, 0x63, 0x68, 0x5f, 0x6e, 0x6f, 0x72,
  0x6d, 0x61, 0x6c, 0x69, 0x7a, 0x61, 0x74, 0x69, 0x6f, 0x6e, 0x5f, 0x31,
  0x5f, 0x32, 0x2f, 0x62, 0x61, 0x74, 0x63, 0x68, 0x6e, 0x6f, 0x72, 0x6d,
  0x2f, 0x61, 0x64, 0x64, 0x5f, 0x31, 0x3b, 0x68, 0x61, 0x67, 0x72, 0x69,
  0x64, 0x5f, 0x74, 0x69, 0x6e, 0x79, 0x5f, 0x67, 0x65, 0x73, 0x74, 0x75,
  0x72, 0x65, 0x5f, 0x31, 0x2f, 0x62, 0x61, 0x74, 0x63, 0x68, 0x5f, 0x6e,
  0x6f, 0x72, 0x6d, 0x61, 0x6c, 0x69, 0x7a, 0x61, 0x74, 0x69, 0x6f, 0x6e,
  0x5f, 0x31, 0x5f, 0x32, 0x2f, 0x62, 0x61, 0x74, 0x63, 0x68, 0x6e, 0x6f,
  0x72, 0x6d, 0x2f, 0x6d, 0x75, 0x6c, 0x5f, 0x31, 0x3b, 0x68, 0x61, 0x67,
  0x72, 0x69, 0x64, 0x5f, 0x74, 0x69, 0x6e, 0x79, 0x5f, 0x67, 0x65, 0x73,
  0x74, 0x75, 0x72, 0x65, 0x5f, 0x31, 0x2f, 0x64, 0x65, 0x70, 0x74, 0x68,
  0x77, 0x69, 0x73, 0x65, 0x5f, 0x63, 0x6f, 0x6e, 0x76, 0x32, 0x64, 0x5f,
  0x31, 0x2f, 0x64, 0x65, 0x70, 0x74, 0x68, 0x77, 0x69, 0x73, 0x65, 0x3b,
  0x68, 0x61, 0x67, 0x72, 0x69, 0x64, 0x5f, 0x74, 0x69, 0x6e, 0x79, 0x5f,
  0x67, 0x65, 0x73, 0x74, 0x75, 0x72, 0x65, 0x5f, 0x31, 0x2f, 0x62, 0x61,
  0x74, 0x63, 0x68, 0x5f, 0x6e, 0x6f, 0x72, 0x6d, 0x61, 0x6c, 0x69, 0x7a,
  0x61, 0x74, 0x69, 0x6f, 0x6e, 0x5f, 0x31, 0x5f, 0x32, 0x2f, 0x62, 0x61,
  0x74, 0x63, 0x68, 0x6e, 0x6f, 0x72, 0x6d, 0x2f, 0x6d, 0x75, 0x6c, 0x3b,
  0x68, 0x61, 0x67, 0x72, 0x69, 0x64, 0x5f, 0x74, 0x69, 0x6e, 0x79, 0x5f,
  0x67, 0x65, 0x73, 0x74, 0x75, 0x72, 0x65, 0x5f, 0x31, 0x2f, 0x62, 0x61,
  0x74, 0x63, 0x68, 0x5f, 0x6e, 0x6f, 0x72, 0x6d, 0x61, 0x6c, 0x69, 0x7a,
  0x61, 0x74, 0x69, 0x6f, 0x6e, 0x5f, 0x31, 0x5f, 0x32, 0x2f, 0x62, 0x61,
  0x74, 0x63, 0x68, 0x6e, 0x6f, 0x72, 0x6d, 0x2f, 0x73, 0x75, 0x62, 0x00,
  0x01, 0x00, 0x00, 0x00, 0x0c, 0x00, 0x00, 0x00, 0xaa, 0xf1, 0xff, 0xff,
  0x00, 0x00, 0x00, 0x01, 0x14, 0x00, 0x00, 0x00, 0x44, 0x01, 0x00, 0x00,
  0x0a, 0x00, 0x00, 0x00, 0x00, 0x00, 0x00, 0x09, 0x6c, 0x01, 0x00, 0x00,
  0xec, 0xf0, 0xff, 0xff, 0x08, 0x00, 0x00, 0x00, 0xc8, 0x00, 0x00, 0x00,
  0x18, 0x00, 0x00, 0x00, 0x00, 0x00, 0x00, 0x00, 0x00, 0x00, 0x00, 0x00,
  0x00, 0x00, 0x00, 0x00, 0x00, 0x00, 0x00, 0x00, 0x00, 0x00, 0x00, 0x00,
  0x00, 0x00, 0x00, 0x00, 0x00, 0x00, 0x00, 0x00, 0x00, 0x00, 0x00, 0x00,
  0x00, 0x00, 0x00, 0x00, 0x00, 0x00, 0x00, 0x00, 0x00, 0x00, 0x00, 0x00,
  0x00, 0x00, 0x00, 0x00, 0x00, 0x00, 0x00, 0x00, 0x00, 0x00, 0x00, 0x00,
  0x00, 0x00, 0x00, 0x00, 0x00, 0x00, 0x00, 0x00, 0x00, 0x00, 0x00, 0x00,
  0x00, 0x00, 0x00, 0x00, 0x00, 0x00, 0x00, 0x00, 0x00, 0x00, 0x00, 0x00,
  0x00, 0x00, 0x00, 0x00, 0x00, 0x00, 0x00, 0x00, 0x00, 0x00, 0x00, 0x00,
  0x00, 0x00, 0x00, 0x00, 0x00, 0x00, 0x00, 0x00, 0x00, 0x00, 0x00, 0x00,
  0x00, 0x00, 0x00, 0x00, 0x00, 0x00, 0x00, 0x00, 0x00, 0x00, 0x00, 0x00,
  0x00, 0x00, 0x00, 0x00, 0x00, 0x00, 0x00, 0x00, 0x00, 0x00, 0x00, 0x00,
  0x00, 0x00, 0x00, 0x00, 0x00, 0x00, 0x00, 0x00, 0x00, 0x00, 0x00, 0x00,
  0x00, 0x00, 0x00, 0x00, 0x00, 0x00, 0x00, 0x00, 0x00, 0x00, 0x00, 0x00,
  0x00, 0x00, 0x00, 0x00, 0x00, 0x00, 0x00, 0x00, 0x00, 0x00, 0x00, 0x00,
  0x00, 0x00, 0x00, 0x00, 0x00, 0x00, 0x00, 0x00, 0x00, 0x00, 0x00, 0x00,
  0x00, 0x00, 0x00, 0x00, 0x00, 0x00, 0x00, 0x00, 0x00, 0x00, 0x00, 0x00,
  0x00, 0x00, 0x00, 0x00, 0x18, 0x00, 0x00, 0x00, 0xf0, 0x0a, 0xa6, 0x3c,
  0x1c, 0x8c, 0xf0, 0x3b, 0xe0, 0xf5, 0x08, 0x3c, 0x85, 0x57, 0x9d, 0x3b,
  0xa1, 0x3d, 0xe6, 0x3b, 0xdc, 0xd5, 0x20, 0x3c, 0xce, 0xc9, 0x40, 0x3c,
  0x78, 0x5f, 0xc5, 0x3b, 0xf7, 0x95, 0x3e, 0x3c, 0x99, 0x8f, 0xc0, 0x3b,
  0xf8, 0x71, 0xc9, 0x3b, 0xf0, 0x76, 0xcd, 0x3b, 0xad, 0x3e, 0xa7, 0x3b,
  0x10, 0xc1, 0xb6, 0x3b, 0x77, 0x2f, 0x48, 0x3c, 0xf0, 0x76, 0x86, 0x3b,
  0x39, 0xa1, 0x0c, 0x3c, 0x16, 0xb0, 0x85, 0x3c, 0x4f, 0xf4, 0x20, 0x3c,
  0x2a, 0xf8, 0x5c, 0x3b, 0xd9, 0x89, 0x3b, 0x3c, 0x17, 0xa3, 0x08, 0x3b,
  0xac, 0x2a, 0x81, 0x3b, 0x32, 0x70, 0x8a, 0x3b, 0x2c, 0x00, 0x00, 0x00,
  0x68, 0x61, 0x67, 0x72, 0x69, 0x64, 0x5f, 0x74, 0x69, 0x6e, 0x79, 0x5f,
  0x67, 0x65, 0x73, 0x74, 0x75, 0x72, 0x65, 0x5f, 0x31, 0x2f, 0x63, 0x6f,
  0x6e, 0x76, 0x32, 0x64, 0x5f, 0x31, 0x5f, 0x32, 0x2f, 0x63, 0x6f, 0x6e,
  0x76, 0x6f, 0x6c, 0x75, 0x74, 0x69, 0x6f, 0x6e, 0x00, 0x00, 0x00, 0x00,
  0x04, 0x00, 0x00, 0x00, 0x18, 0x00, 0x00, 0x00, 0x01, 0x00, 0x00, 0x00,
  0x01, 0x00, 0x00, 0x00, 0x0c, 0x00, 0x00, 0x00, 0x42, 0xf3, 0xff, 0xff,
  0x00, 0x00, 0x00, 0x01, 0x14, 0x00, 0x00, 0x00, 0x44, 0x01, 0x00, 0x00,
  0x09, 0x00, 0x00, 0x00, 0x00, 0x00, 0x00, 0x02, 0x08, 0x02, 0x00, 0x00,
  0x84, 0xf2, 0xff, 0xff, 0x08, 0x00, 0x00, 0x00, 0xc8, 0x00, 0x00, 0x00,
  0x18, 0x00, 0x00, 0x00, 0x00, 0x00, 0x00, 0x00, 0x00, 0x00, 0x00, 0x00,
  0x00, 0x00, 0x00, 0x00, 0x00, 0x00, 0x00, 0x00, 0x00, 0x00, 0x00, 0x00,
  0x00, 0x00, 0x00, 0x00, 0x00, 0x00, 0x00, 0x00, 0x00, 0x00, 0x00, 0x00,
  0x00, 0x00, 0x00, 0x00, 0x00, 0x00, 0x00, 0x00, 0x00, 0x00, 0x00, 0x00,
  0x00, 0x00, 0x00, 0x00, 0x00, 0x00, 0x00, 0x00, 0x00, 0x00, 0x00, 0x00,
  0x00, 0x00, 0x00, 0x00, 0x00, 0x00, 0x00, 0x00, 0x00, 0x00, 0x00, 0x00,
  0x00, 0x00, 0x00, 0x00, 0x00, 0x00, 0x00, 0x00, 0x00, 0x00, 0x00, 0x00,
  0x00, 0x00, 0x00, 0x00, 0x00, 0x00, 0x00, 0x00, 0x00, 0x00, 0x00, 0x00,
  0x00, 0x00, 0x00, 0x00, 0x00, 0x00, 0x00, 0x00, 0x00, 0x00, 0x00, 0x00,
  0x00, 0x00, 0x00, 0x00, 0x00, 0x00, 0x00, 0x00, 0x00, 0x00, 0x00, 0x00,
  0x00, 0x00, 0x00, 0x00, 0x00, 0x00, 0x00, 0x00, 0x00, 0x00, 0x00, 0x00,
  0x00, 0x00, 0x00, 0x00, 0x00, 0x00, 0x00, 0x00, 0x00, 0x00, 0x00, 0x00,
  0x00, 0x00, 0x00, 0x00, 0x00, 0x00, 0x00, 0x00, 0x00, 0x00, 0x00, 0x00,
  0x00, 0x00, 0x00, 0x00, 0x00, 0x00, 0x00, 0x00, 0x00, 0x00, 0x00, 0x00,
  0x00, 0x00, 0x00, 0x00, 0x00, 0x00, 0x00, 0x00, 0x00, 0x00, 0x00, 0x00,
  0x00, 0x00, 0x00, 0x00, 0x00, 0x00, 0x00, 0x00, 0x00, 0x00, 0x00, 0x00,
  0x00, 0x00, 0x00, 0x00, 0x18, 0x00, 0x00, 0x00, 0xa7, 0x74, 0x0a, 0x3a,
  0xee, 0x94, 0x48, 0x39, 0x18, 0x69, 0x64, 0x39, 0x4f, 0x33, 0x03, 0x39,
  0xd1, 0xfc, 0x3f, 0x39, 0x0f, 0x1d, 0x86, 0x39, 0xf4, 0xc1, 0xa0, 0x39,
  0x9f, 0x94, 0x24, 0x39, 0xcb, 0xeb, 0x9e, 0x39, 0x6b, 0x91, 0x20, 0x39,
  0xea, 0xf9, 0x27, 0x39, 0xed, 0x53, 0x2b, 0x39, 0x43, 0x75, 0x0b, 0x39,
  0xfe, 0x63, 0x18, 0x39, 0xfe, 0xec, 0xa6, 0x39, 0x87, 0x3f, 0xe0, 0x38,
  0xa7, 0x87, 0x6a, 0x39, 0xe7, 0xf3, 0xde, 0x39, 0x73, 0x36, 0x86, 0x39,
  0xb0, 0x41, 0xb8, 0x38, 0x4a, 0x61, 0x9c, 0x39, 0x08, 0xdf, 0x63, 0x38,
  0xab, 0x69, 0xd7, 0x38, 0x05, 0xe0, 0xe6, 0x38, 0xcb, 0x00, 0x00, 0x00,
  0x68, 0x61, 0x67, 0x72, 0x69, 0x64, 0x5f, 0x74, 0x69, 0x6e, 0x79, 0x5f,
  0x67, 0x65, 0x73, 0x74, 0x75, 0x72, 0x65, 0x5f, 0x31, 0x2f, 0x72, 0x65,
  0x5f, 0x6c, 0x75, 0x5f, 0x32, 0x5f, 0x31, 0x2f, 0x52, 0x65, 0x6c, 0x75,
  0x3b, 0x68, 0x61, 0x67, 0x72, 0x69, 0x64, 0x5f, 0x74, 0x69, 0x6e, 0x79,
  0x5f, 0x67, 0x65, 0x73, 0x74, 0x75, 0x72, 0x65, 0x5f, 0x31, 0x2f, 0x62,
  0x61, 0x74, 0x63, 0x68, 0x5f, 0x6e, 0x6f, 0x72, 0x6d, 0x61, 0x6c, 0x69,
  0x7a, 0x61, 0x74, 0x69, 0x6f, 0x6e, 0x5f, 0x32, 0x5f, 0x31, 0x2f, 0x62,
  0x61, 0x74, 0x63, 0x68, 0x6e, 0x6f, 0x72, 0x6d, 0x2f, 0x61, 0x64, 0x64,
  0x5f, 0x31, 0x3b, 0x68, 0x61, 0x67, 0x72, 0x69, 0x64, 0x5f, 0x74, 0x69,
  0x6e, 0x79, 0x5f, 0x67, 0x65, 0x73, 0x74, 0x75, 0x72, 0x65, 0x5f, 0x31,
  0x2f, 0x63, 0x6f, 0x6e, 0x76, 0x32, 0x64, 0x5f, 0x31, 0x5f, 0x32, 0x2f,
  0x63, 0x6f, 0x6e, 0x76, 0x6f, 0x6c, 0x75, 0x74, 0x69, 0x6f, 0x6e, 0x3b,
  0x68, 0x61, 0x67, 0x72, 0x69, 0x64, 0x5f, 0x74, 0x69, 0x6e, 0x79, 0x5f,
  0x67, 0x65, 0x73, 0x74, 0x75, 0x72, 0x65, 0x5f, 0x31, 0x2f, 0x62, 0x61,
  0x74, 0x63, 0x68, 0x5f, 0x6e, 0x6f, 0x72, 0x6d, 0x61, 0x6c, 0x69, 0x7a,
  0x61, 0x74, 0x69, 0x6f, 0x6e, 0x5f, 0x32, 0x5f, 0x31, 0x2f, 0x62, 0x61,
  0x74, 0x63, 0x68, 0x6e, 0x6f, 0x72, 0x6d, 0x2f, 0x73, 0x75, 0x62, 0x00,
  0x01, 0x00, 0x00, 0x00, 0x18, 0x00, 0x00, 0x00, 0x00, 0x00, 0x16, 0x00,
  0x1e, 0x00, 0x18, 0x00, 0x17, 0x00, 0x10, 0x00, 0x0c, 0x00, 0x08, 0x00,
  0x00, 0x00, 0x00, 0x00, 0x00, 0x00, 0x07, 0x00, 0x16, 0x00, 0x00, 0x00,
  0x00, 0x00, 0x00, 0x01, 0x28, 0x00, 0x00, 0x00, 0x5c, 0x01, 0x00, 0x00,
  0x08, 0x00, 0x00, 0x00, 0x00, 0x00, 0x00, 0x09, 0x04, 0x02, 0x00, 0x00,
  0x00, 0x00, 0x12, 0x00, 0x10, 0x00, 0x00, 0x00, 0x00, 0x00, 0x0c, 0x00,
  0x08, 0x00, 0x00, 0x00, 0x00, 0x00, 0x04, 0x00, 0x12, 0x00, 0x00, 0x00,
  0x03, 0x00, 0x00, 0x00, 0x08, 0x00, 0x00, 0x00, 0xc8, 0x00, 0x00, 0x00,
  0x18, 0x00, 0x00, 0x00, 0x00, 0x00, 0x00, 0x00, 0x00, 0x00, 0x00, 0x00,
  0x00, 0x00, 0x00, 0x00, 0x00, 0x00, 0x00, 0x00, 0x00, 0x00, 0x00, 0x00,
  0x00, 0x00, 0x00, 0x00, 0x00, 0x00, 0x00, 0x00, 0x00, 0x00, 0x00, 0x00,
  0x00, 0x00, 0x00, 0x00, 0x00, 0x00, 0x00, 0x00, 0x00, 0x00, 0x00, 0x00,
  0x00, 0x00, 0x00, 0x00, 0x00, 0x00, 0x00, 0x00, 0x00, 0x00, 0x00, 0x00,
  0x00, 0x00, 0x00, 0x00, 0x00, 0x00, 0x00, 0x00, 0x00, 0x00, 0x00, 0x00,
  0x00, 0x00, 0x00, 0x00, 0x00, 0x00, 0x00, 0x00, 0x00, 0x00, 0x00, 0x00,
  0x00, 0x00, 0x00, 0x00, 0x00, 0x00, 0x00, 0x00, 0x00, 0x00, 0x00, 0x00,
  0x00, 0x00, 0x00, 0x00, 0x00, 0x00, 0x00, 0x00, 0x00, 0x00, 0x00, 0x00,
  0x00, 0x00, 0x00, 0x00, 0x00, 0x00, 0x00, 0x00, 0x00, 0x00, 0x00, 0x00,
  0x00, 0x00, 0x00, 0x00, 0x00, 0x00, 0x00, 0x00, 0x00, 0x00, 0x00, 0x00,
  0x00, 0x00, 0x00, 0x00, 0x00, 0x00, 0x00, 0x00, 0x00, 0x00, 0x00, 0x00,
  0x00, 0x00, 0x00, 0x00, 0x00, 0x00, 0x00, 0x00, 0x00, 0x00, 0x00, 0x00,
  0x00, 0x00, 0x00, 0x00, 0x00, 0x00, 0x00, 0x00, 0x00, 0x00, 0x00, 0x00,
  0x00, 0x00, 0x00, 0x00, 0x00, 0x00, 0x00, 0x00, 0x00, 0x00, 0x00, 0x00,
  0x00, 0x00, 0x00, 0x00, 0x00, 0x00, 0x00, 0x00, 0x00, 0x00, 0x00, 0x00,
  0x00, 0x00, 0x00, 0x00, 0x18, 0x00, 0x00, 0x00, 0xc6, 0xbb, 0x6d, 0x3b,
  0x92, 0xce, 0x1e, 0x3c, 0x30, 0x9a, 0x39, 0x3b, 0x97, 0x4d, 0xda, 0x3b,
  0xad, 0xac, 0x28, 0x3b, 0xa9, 0x9e, 0x4f, 0x3b, 0x7d, 0x27, 0xd0, 0x3b,
  0x3b, 0xbc, 0x39, 0x3b, 0xf6, 0xf8, 0xd2, 0x3b, 0x41, 0x44, 0x79, 0x3b,
  0x6f, 0x12, 0x16, 0x3c, 0x3e, 0xf1, 0xed, 0x3a, 0xe6, 0xa6, 0x03, 0x3c,
  0x8b, 0x4e, 0x42, 0x3b, 0xaf, 0xe1, 0x9d, 0x3b, 0x79, 0x93, 0x98, 0x3b,
  0xd2, 0x88, 0x73, 0x3b, 0x7c, 0xe8, 0x8a, 0x3b, 0x17, 0x72, 0xf0, 0x3b,
  0xf5, 0x1b, 0xc6, 0x3b, 0x27, 0x05, 0x47, 0x3b, 0xc9, 0xb6, 0xb6, 0x3b,
  0xff, 0x76, 0x0a, 0x3b, 0x09, 0x19, 0x85, 0x3b, 0xae, 0x00, 0x00, 0x00,
  0x68, 0x61, 0x67, 0x72, 0x69, 0x64, 0x5f, 0x74, 0x69, 0x6e, 0x79, 0x5f,
  0x67, 0x65, 0x73, 0x74, 0x75, 0x72, 0x65, 0x5f, 0x31, 0x2f, 0x62, 0x61,
  0x74, 0x63, 0x68, 0x5f, 0x6e, 0x6f, 0x72, 0x6d, 0x61, 0x6c, 0x69, 0x7a,
  0x61, 0x74, 0x69, 0x6f, 0x6e, 0x5f, 0x33, 0x5f, 0x31, 0x2f, 0x62, 0x61,
  0x74, 0x63, 0x68, 0x6e, 0x6f, 0x72, 0x6d, 0x2f, 0x6d, 0x75, 0x6c, 0x5f,
  0x31, 0x3b, 0x68, 0x61, 0x67, 0x72, 0x69, 0x64, 0x5f, 0x74, 0x69, 0x6e,
  0x79, 0x5f, 0x67, 0x65, 0x73, 0x74, 0x75, 0x72, 0x65, 0x5f, 0x31, 0x2f,
  0x64, 0x65, 0x70, 0x74, 0x68, 0x77, 0x69, 0x73, 0x65, 0x5f, 0x63, 0x6f,
  0x6e, 0x76, 0x32, 0x64, 0x5f, 0x31, 0x5f, 0x32, 0x2f, 0x64, 0x65, 0x70,
  0x74, 0x68, 0x77, 0x69, 0x73, 0x65, 0x3b, 0x68, 0x61, 0x67, 0x72, 0x69,
  0x64, 0x5f, 0x74, 0x69, 0x6e, 0x79, 0x5f, 0x67, 0x65, 0x73, 0x74, 0x75,
  0x72, 0x65, 0x5f, 0x31, 0x2f, 0x62, 0x61, 0x74, 0x63, 0x68, 0x5f, 0x6e,
  0x6f, 0x72, 0x6d, 0x61, 0x6c, 0x69, 0x7a, 0x61, 0x74, 0x69, 0x6f, 0x6e,
  0x5f, 0x33, 0x5f, 0x31, 0x2f, 0x62, 0x61, 0x74, 0x63, 0x68, 0x6e, 0x6f,
  0x72, 0x6d, 0x2f, 0x6d, 0x75, 0x6c, 0x00, 0x00, 0x04, 0x00, 0x00, 0x00,
  0x01, 0x00, 0x00, 0x00, 0x03, 0x00, 0x00, 0x00, 0x03, 0x00, 0x00, 0x00,
  0x18, 0x00, 0x00, 0x00, 0xb2, 0xf7, 0xff, 0xff, 0x00, 0x00, 0x00, 0x01,
  0x14, 0x00, 0x00, 0x00, 0x48, 0x01, 0x00, 0x00, 0x07, 0x00, 0x00, 0x00,
  0x00, 0x00, 0x00, 0x02, 0x90, 0x02, 0x00, 0x00, 0xf4, 0xf6, 0xff, 0xff,
  0x08, 0x00, 0x00, 0x00, 0xcc, 0x00, 0x00, 0x00, 0x18, 0x00, 0x00, 0x00,
  0x00, 0x00, 0x00, 0x00, 0x00, 0x00, 0x00, 0x00, 0x00, 0x00, 0x00, 0x00,
  0x00, 0x00, 0x00, 0x00, 0x00, 0x00, 0x00, 0x00, 0x00, 0x00, 0x00, 0x00,
  0x00, 0x00, 0x00, 0x00, 0x00, 0x00, 0x00, 0x00, 0x00, 0x00, 0x00, 0x00,
  0x00, 0x00, 0x00, 0x00, 0x00, 0x00, 0x00, 0x00, 0x00, 0x00, 0x00, 0x00,
  0x00, 0x00, 0x00, 0x00, 0x00, 0x00, 0x00, 0x00, 0x00, 0x00, 0x00, 0x00,
  0x00, 0x00, 0x00, 0x00, 0x00, 0x00, 0x00, 0x00, 0x00, 0x00, 0x00, 0x00,
  0x00, 0x00, 0x00, 0x00, 0x00, 0x00, 0x00, 0x00, 0x00, 0x00, 0x00, 0x00,
  0x00, 0x00, 0x00, 0x00, 0x00, 0x00, 0x00, 0x00, 0x00, 0x00, 0x00, 0x00,
  0x00, 0x00, 0x00, 0x00, 0x00, 0x00, 0x00, 0x00, 0x00, 0x00, 0x00, 0x00,
  0x00, 0x00, 0x00, 0x00, 0x00, 0x00, 0x00, 0x00, 0x00, 0x00, 0x00, 0x00,
  0x00, 0x00, 0x00, 0x00, 0x00, 0x00, 0x00, 0x00, 0x00, 0x00, 0x00, 0x00,
  0x00, 0x00, 0x00, 0x00, 0x00, 0x00, 0x00, 0x00, 0x00, 0x00, 0x00, 0x00,
  0x00, 0x00, 0x00, 0x00, 0x00, 0x00, 0x00, 0x00, 0x00, 0x00, 0x00, 0x00,
  0x00, 0x00, 0x00, 0x00, 0x00, 0x00, 0x00, 0x00, 0x00, 0x00, 0x00, 0x00,
  0x00, 0x00, 0x00, 0x00, 0x00, 0x00, 0x00, 0x00, 0x00, 0x00, 0x00, 0x00,
  0x00, 0x00, 0x00, 0x00, 0x00, 0x00, 0x00, 0x00, 0x00, 0x00, 0x00, 0x00,
  0x00, 0x00, 0x00, 0x00, 0x18, 0x00, 0x00, 0x00, 0x0c, 0xc7, 0xeb, 0x38,
  0x15, 0x80, 0x9d, 0x39, 0x43, 0x13, 0xb8, 0x38, 0xca, 0x81, 0x58, 0x39,
  0x68, 0x49, 0xa7, 0x38, 0x5d, 0xe9, 0xcd, 0x38, 0x10, 0x71, 0x4e, 0x39,
  0x07, 0x35, 0xb8, 0x38, 0x9a, 0x3c, 0x51, 0x39, 0x3d, 0x37, 0xf7, 0x38,
  0x58, 0xd6, 0x94, 0x39, 0x14, 0xfc, 0x6b, 0x38, 0x9b, 0x91, 0x82, 0x39,
  0x49, 0xb5, 0xc0, 0x38, 0x25, 0x95, 0x1c, 0x39, 0x1c, 0x52, 0x17, 0x39,
  0xe0, 0x87, 0xf1, 0x38, 0xe9, 0xc3, 0x09, 0x39, 0xa7, 0x77, 0x6e, 0x39,
  0xb1, 0x7a, 0x44, 0x39, 0xf8, 0x61, 0xc5, 0x38, 0xf2, 0x35, 0x35, 0x39,
  0x5b, 0x53, 0x89, 0x38, 0xb3, 0x00, 0x04, 0x39, 0x4d, 0x01, 0x00, 0x00,
  0x68, 0x61, 0x67, 0x72, 0x69, 0x64, 0x5f, 0x74, 0x69, 0x6e, 0x79, 0x5f,
  0x67, 0x65, 0x73, 0x74, 0x75, 0x72, 0x65, 0x5f, 0x31, 0x2f, 0x72, 0x65,
  0x5f, 0x6c, 0x75, 0x5f, 0x33, 0x5f, 0x31, 0x2f, 0x52, 0x65, 0x6c, 0x75,
  0x3b, 0x68, 0x61, 0x67, 0x72, 0x69, 0x64, 0x5f, 0x74, 0x69, 0x6e, 0x79,
  0x5f, 0x67, 0x65, 0x73, 0x74, 0x75, 0x72, 0x65, 0x5f, 0x31, 0x2f, 0x62,
  0x61, 0x74, 0x63, 0x68, 0x5f, 0x6e, 0x6f, 0x72, 0x6d, 0x61, 0x6c, 0x69,
  0x7a, 0x61, 0x74, 0x69, 0x6f, 0x6e, 0x5f, 0x33, 0x5f, 0x31, 0x2f, 0x62,
  0x61, 0x74, 0x63, 0x68, 0x6e, 0x6f, 0x72, 0x6d, 0x2f, 0x61, 0x64, 0x64,
  0x5f, 0x31, 0x3b, 0x68, 0x61, 0x67, 0x72, 0x69, 0x64, 0x5f, 0x74, 0x69,
  0x6e, 0x79, 0x5f, 0x67, 0x65, 0x73, 0x74, 0x75, 0x72, 0x65, 0x5f, 0x31,
  0x2f, 0x62, 0x61, 0x74, 0x63, 0x68, 0x5f, 0x6e, 0x6f, 0x72, 0x6d, 0x61,
  0x6c, 0x69, 0x7a, 0x61, 0x74, 0x69, 0x6f, 0x6e, 0x5f, 0x33, 0x5f, 0x31,
  0x2f, 0x62, 0x61, 0x74, 0x63, 0x68, 0x6e, 0x6f, 0x72, 0x6d, 0x2f, 0x6d,
  0x75, 0x6c, 0x5f, 0x31, 0x3b, 0x68, 0x61, 0x67, 0x72, 0x69, 0x64, 0x5f,
  0x74, 0x69, 0x6e, 0x79, 0x5f, 0x67, 0x65, 0x73, 0x74, 0x75, 0x72, 0x65,
  0x5f, 0x31, 0x2f, 0x64, 0x65, 0x70, 0x74, 0x68, 0x77, 0x69, 0x73, 0x65,
  0x5f, 0x63, 0x6f, 0x6e, 0x76, 0x32, 0x64, 0x5f, 0x31, 0x5f, 0x32, 0x2f,
  0x64, 0x65, 0x70, 0x74, 0x68, 0x77, 0x69, 0x73, 0x65, 0x3b, 0x68, 0x61,
  0x67, 0x72, 0x69, 0x64, 0x5f, 0x74, 0x69, 0x6e, 0x79, 0x5f, 0x67, 0x65,
  0x73, 0x74, 0x75, 0x72, 0x65, 0x5f, 0x31, 0x2f, 0x62, 0x61, 0x74, 0x63,
  0x68, 0x5f, 0x6e, 0x6f, 0x72, 0x6d, 0x61, 0x6c, 0x69, 0x7a, 0x61, 0x74,
  0x69, 0x6f, 0x6e, 0x5f, 0x33, 0x5f, 0x31, 0x2f, 0x62, 0x61, 0x74, 0x63,
  0x68, 0x6e, 0x6f, 0x72, 0x6d, 0x2f, 0x6d, 0x75, 0x6c, 0x3b, 0x68, 0x61,
  0x67, 0x72, 0x69, 0x64, 0x5f, 0x74, 0x69, 0x6e, 0x79, 0x5f, 0x67, 0x65,
  0x73, 0x74, 0x75, 0x72, 0x65, 0x5f, 0x31, 0x2f, 0x62, 0x61, 0x74, 0x63,
  0x68, 0x5f, 0x6e, 0x6f, 0x72, 0x6d, 0x61, 0x6c, 0x69, 0x7a, 0x61, 0x74,
  0x69, 0x6f, 0x6e, 0x5f, 0x33, 0x5f, 0x31, 0x2f, 0x62, 0x61, 0x74, 0x63,
  0x68, 0x6e, 0x6f, 0x72, 0x6d, 0x2f, 0x73, 0x75, 0x62, 0x00, 0x00, 0x00,
  0x01, 0x00, 0x00, 0x00, 0x18, 0x00, 0x00, 0x00, 0x62, 0xfa, 0xff, 0xff,
  0x00, 0x00, 0x00, 0x01, 0x14, 0x00, 0x00, 0x00, 0xa4, 0x01, 0x00, 0x00,
  0x06, 0x00, 0x00, 0x00, 0x00, 0x00, 0x00, 0x09, 0xcc, 0x01, 0x00, 0x00,
  0xa4, 0xf9, 0xff, 0xff, 0x08, 0x00, 0x00, 0x00, 0x08, 0x01, 0x00, 0x00,
  0x20, 0x00, 0x00, 0x00, 0x00, 0x00, 0x00, 0x00, 0x00, 0x00, 0x00, 0x00,
  0x00, 0x00, 0x00, 0x00, 0x00, 0x00, 0x00, 0x00, 0x00, 0x00, 0x00, 0x00,
  0x00, 0x00, 0x00, 0x00, 0x00, 0x00, 0x00, 0x00, 0x00, 0x00, 0x00, 0x00,
  0x00, 0x00, 0x00, 0x00, 0x00, 0x00, 0x00, 0x00, 0x00, 0x00, 0x00, 0x00,
  0x00, 0x00, 0x00, 0x00, 0x00, 0x00, 0x00, 0x00, 0x00, 0x00, 0x00, 0x00,
  0x00, 0x00, 0x00, 0x00, 0x00, 0x00, 0x00, 0x00, 0x00, 0x00, 0x00, 0x00,
  0x00, 0x00, 0x00, 0x00, 0x00, 0x00, 0x00, 0x00, 0x00, 0x00, 0x00, 0x00,
  0x00, 0x00, 0x00, 0x00, 0x00, 0x00, 0x00, 0x00, 0x00, 0x00, 0x00, 0x00,
  0x00, 0x00, 0x00, 0x00, 0x00, 0x00, 0x00, 0x00, 0x00, 0x00, 0x00, 0x00,
  0x00, 0x00, 0x00, 0x00, 0x00, 0x00, 0x00, 0x00, 0x00, 0x00, 0x00, 0x00,
  0x00, 0x00, 0x00, 0x00, 0x00, 0x00, 0x00, 0x00, 0x00, 0x00, 0x00, 0x00,
  0x00, 0x00, 0x00, 0x00, 0x00, 0x00, 0x00, 0x00, 0x00, 0x00, 0x00, 0x00,
  0x00, 0x00, 0x00, 0x00, 0x00, 0x00, 0x00, 0x00, 0x00, 0x00, 0x00, 0x00,
  0x00, 0x00, 0x00, 0x00, 0x00, 0x00, 0x00, 0x00, 0x00, 0x00, 0x00, 0x00,
  0x00, 0x00, 0x00, 0x00, 0x00, 0x00, 0x00, 0x00, 0x00, 0x00, 0x00, 0x00,
  0x00, 0x00, 0x00, 0x00, 0x00, 0x00, 0x00, 0x00, 0x00, 0x00, 0x00, 0x00,
  0x00, 0x00, 0x00, 0x00, 0x00, 0x00, 0x00, 0x00, 0x00, 0x00, 0x00, 0x00,
  0x00, 0x00, 0x00, 0x00, 0x00, 0x00, 0x00, 0x00, 0x00, 0x00, 0x00, 0x00,
  0x00, 0x00, 0x00, 0x00, 0x00, 0x00, 0x00, 0x00, 0x00, 0x00, 0x00, 0x00,
  0x00, 0x00, 0x00, 0x00, 0x00, 0x00, 0x00, 0x00, 0x00, 0x00, 0x00, 0x00,
  0x00, 0x00, 0x00, 0x00, 0x00, 0x00, 0x00, 0x00, 0x00, 0x00, 0x00, 0x00,
  0x00, 0x00, 0x00, 0x00, 0x00, 0x00, 0x00, 0x00, 0x20, 0x00, 0x00, 0x00,
  0x6b, 0x99, 0xc2, 0x3c, 0xda, 0x4a, 0xb2, 0x3c, 0x29, 0x59, 0x89, 0x3c,
  0x9c, 0x3e, 0xb9, 0x3c, 0xd9, 0x9c, 0x9f, 0x3c, 0xab, 0xae, 0x90, 0x3c,
  0x93, 0x11, 0x90, 0x3c, 0x3c, 0xfd, 0x80, 0x3c, 0xb7, 0x86, 0x7d, 0x3c,
  0x6a, 0x76, 0xb6, 0x3c, 0x98, 0x50, 0x8e, 0x3c, 0x13, 0x95, 0x82, 0x3c,
  0x70, 0x63, 0x93, 0x3c, 0xf2, 0x27, 0x9f, 0x3c, 0x1e, 0x7d, 0xd4, 0x3c,
  0xe5, 0x24, 0xbd, 0x3c, 0x6c, 0x2e, 0xac, 0x3c, 0xf7, 0x53, 0x90, 0x3c,
  0x7c, 0xd2, 0xc9, 0x3c, 0x75, 0xb0, 0x89, 0x3c, 0x09, 0xc4, 0xab, 0x3c,
  0x30, 0x91, 0x9a, 0x3c, 0x79, 0xf3, 0x9b, 0x3c, 0x08, 0xc4, 0xdf, 0x3c,
  0x9e, 0x36, 0x57, 0x3c, 0xca, 0xab, 0xa6, 0x3c, 0x82, 0xb2, 0x8b, 0x3c,
  0x51, 0x2a, 0xa6, 0x3c, 0x56, 0xe0, 0xb9, 0x3c, 0x48, 0x49, 0x8b, 0x3c,
  0xa1, 0x9f, 0xa3, 0x3c, 0x1a, 0x57, 0xce, 0x3c, 0x2c, 0x00, 0x00, 0x00,
  0x68, 0x61, 0x67, 0x72, 0x69, 0x64, 0x5f, 0x74, 0x69, 0x6e, 0x79, 0x5f,
  0x67, 0x65, 0x73, 0x74, 0x75, 0x72, 0x65, 0x5f, 0x31, 0x2f, 0x63, 0x6f,
  0x6e, 0x76, 0x32, 0x64, 0x5f, 0x32, 0x5f, 0x31, 0x2f, 0x63, 0x6f, 0x6e,
  0x76, 0x6f, 0x6c, 0x75, 0x74, 0x69, 0x6f, 0x6e, 0x00, 0x00, 0x00, 0x00,
  0x04, 0x00, 0x00, 0x00, 0x20, 0x00, 0x00, 0x00, 0x01, 0x00, 0x00, 0x00,
  0x01, 0x00, 0x00, 0x00, 0x18, 0x00, 0x00, 0x00, 0x5a, 0xfc, 0xff, 0xff,
  0x00, 0x00, 0x00, 0x01, 0x14, 0x00, 0x00, 0x00, 0xa4, 0x01, 0x00, 0x00,
  0x05, 0x00, 0x00, 0x00, 0x00, 0x00, 0x00, 0x02, 0x68, 0x02, 0x00, 0x00,
  0x9c, 0xfb, 0xff, 0xff, 0x08, 0x00, 0x00, 0x00, 0x08, 0x01, 0x00, 0x00,
  0x20, 0x00, 0x00, 0x00, 0x00, 0x00, 0x00, 0x00, 0x00, 0x00, 0x00, 0x00,
  0x00, 0x00, 0x00, 0x00, 0x00, 0x00, 0x00, 0x00, 0x00, 0x00, 0x00, 0x00,
  0x00, 0x00, 0x00, 0x00, 0x00, 0x00, 0x00, 0x00, 0x00, 0x00, 0x00, 0x00,
  0x00, 0x00, 0x00, 0x00, 0x00, 0x00, 0x00, 0x00, 0x00, 0x00, 0x00, 0x00,
  0x00, 0x00, 0x00, 0x00, 0x00, 0x00, 0x00, 0x00, 0x00, 0x00, 0x00, 0x00,
  0x00, 0x00, 0x00, 0x00, 0x00, 0x00, 0x00, 0x00, 0x00, 0x00, 0x00, 0x00,
  0x00, 0x00, 0x00, 0x00, 0x00, 0x00, 0x00, 0x00, 0x00, 0x00, 0x00, 0x00,
  0x00, 0x00, 0x00, 0x00, 0x00, 0x00, 0x00, 0x00, 0x00, 0x00, 0x00, 0x00,
  0x00, 0x00, 0x00, 0x00, 0x00, 0x00, 0x00, 0x00, 0x00, 0x00, 0x00, 0x00,
  0x00, 0x00, 0x00, 0x00, 0x00, 0x00, 0x00, 0x00, 0x00, 0x00, 0x00, 0x00,
  0x00, 0x00, 0x00, 0x00, 0x00, 0x00, 0x00, 0x00, 0x00, 0x00, 0x00, 0x00,
  0x00, 0x00, 0x00, 0x00, 0x00, 0x00, 0x00, 0x00, 0x00, 0x00, 0x00, 0x00,
  0x00, 0x00, 0x00, 0x00, 0x00, 0x00, 0x00, 0x00, 0x00, 0x00, 0x00, 0x00,
  0x00, 0x00, 0x00, 0x00, 0x00, 0x00, 0x00, 0x00, 0x00, 0x00, 0x00, 0x00,
  0x00, 0x00, 0x00, 0x00, 0x00, 0x00, 0x00, 0x00, 0x00, 0x00, 0x00, 0x00,
  0x00, 0x00, 0x00, 0x00, 0x00, 0x00, 0x00, 0x00, 0x00, 0x00, 0x00, 0x00,
  0x00, 0x00, 0x00, 0x00, 0x00, 0x00, 0x00, 0x00, 0x00, 0x00, 0x00, 0x00,
  0x00, 0x00, 0x00, 0x00, 0x00, 0x00, 0x00, 0x00, 0x00, 0x00, 0x00, 0x00,
  0x00, 0x00, 0x00, 0x00, 0x00, 0x00, 0x00, 0x00, 0x00, 0x00, 0x00, 0x00,
  0x00, 0x00, 0x00, 0x00, 0x00, 0x00, 0x00, 0x00, 0x00, 0x00, 0x00, 0x00,
  0x00, 0x00, 0x00, 0x00, 0x00, 0x00, 0x00, 0x00, 0x00, 0x00, 0x00, 0x00,
  0x00, 0x00, 0x00, 0x00, 0x00, 0x00, 0x00, 0x00, 0x20, 0x00, 0x00, 0x00,
  0x61, 0x2b, 0x25, 0x3a, 0x25, 0x54, 0x17, 0x3a, 0x43, 0x27, 0xe9, 0x39,
  0xbf, 0x3a, 0x1d, 0x3a, 0x57, 0x79, 0x07, 0x3a, 0x66, 0x9a, 0xf5, 0x39,
  0xba, 0x8f, 0xf4, 0x39, 0xab, 0xf6, 0xda, 0x39, 0x48, 0x2f, 0xd7, 0x39,
  0x42, 0xde, 0x1a, 0x3a, 0x91, 0x95, 0xf1, 0x39, 0xfd, 0xaa, 0xdd, 0x39,
  0x66, 0x32, 0xfa, 0x39, 0x1e, 0x16, 0x07, 0x3a, 0x7a, 0x5a, 0x34, 0x3a,
  0x0e, 0x8a, 0x20, 0x3a, 0x4f, 0x24, 0x12, 0x3a, 0x6d, 0x00, 0xf5, 0x39,
  0xce, 0x4c, 0x2b, 0x3a, 0x74, 0xbb, 0xe9, 0x39, 0x03, 0xca, 0x11, 0x3a,
  0x05, 0x31, 0x03, 0x3a, 0xba, 0x5d, 0x04, 0x3a, 0xcb, 0xec, 0x3d, 0x3a,
  0x7e, 0xaa, 0xb6, 0x39, 0x03, 0x77, 0x0d, 0x3a, 0x12, 0x24, 0xed, 0x39,
  0x1e, 0x09, 0x0d, 0x3a, 0x03, 0xc4, 0x1d, 0x3a, 0x72, 0x71, 0xec, 0x39,
  0xd6, 0xe0, 0x0a, 0x3a, 0x81, 0x22, 0x2f, 0x3a, 0xcb, 0x00, 0x00, 0x00,
  0x68, 0x61, 0x67, 0x72, 0x69, 0x64, 0x5f, 0x74, 0x69, 0x6e, 0x79, 0x5f,
  0x67, 0x65, 0x73, 0x74, 0x75, 0x72, 0x65, 0x5f, 0x31, 0x2f, 0x72, 0x65,
  0x5f, 0x6c, 0x75, 0x5f, 0x34, 0x5f, 0x31, 0x2f, 0x52, 0x65, 0x6c, 0x75,
  0x3b, 0x68, 0x61, 0x67, 0x72, 0x69, 0x64, 0x5f, 0x74, 0x69, 0x6e, 0x79,
  0x5f, 0x67, 0x65, 0x73, 0x74, 0x75, 0x72, 0x65, 0x5f, 0x31, 0x2f, 0x62,
  0x61, 0x74, 0x63, 0x68, 0x5f, 0x6e, 0x6f, 0x72, 0x6d, 0x61, 0x6c, 0x69,
  0x7a, 0x61, 0x74, 0x69, 0x6f, 0x6e, 0x5f, 0x34, 0x5f, 0x31, 0x2f, 0x62,
  0x61, 0x74, 0x63, 0x68, 0x6e, 0x6f, 0x72, 0x6d, 0x2f, 0x61, 0x64, 0x64,
  0x5f, 0x31, 0x3b, 0x68, 0x61, 0x67, 0x72, 0x69, 0x64, 0x5f, 0x74, 0x69,
  0x6e, 0x79, 0x5f, 0x67, 0x65, 0x73, 0x74, 0x75, 0x72, 0x65, 0x5f, 0x31,
  0x2f, 0x63, 0x6f, 0x6e, 0x76, 0x32, 0x64, 0x5f, 0x32, 0x5f, 0x31, 0x2f,
  0x63, 0x6f, 0x6e, 0x76, 0x6f, 0x6c, 0x75, 0x74, 0x69, 0x6f, 0x6e, 0x3b,
  0x68, 0x61, 0x67, 0x72, 0x69, 0x64, 0x5f, 0x74, 0x69, 0x6e, 0x79, 0x5f,
  0x67, 0x65, 0x73, 0x74, 0x75, 0x72, 0x65, 0x5f, 0x31, 0x2f, 0x62, 0x61,
  0x74, 0x63, 0x68, 0x5f, 0x6e, 0x6f, 0x72, 0x6d, 0x61, 0x6c, 0x69, 0x7a,
  0x61, 0x74, 0x69, 0x6f, 0x6e, 0x5f, 0x34, 0x5f, 0x31, 0x2f, 0x62, 0x61,
  0x74, 0x63, 0x68, 0x6e, 0x6f, 0x72, 0x6d, 0x2f, 0x73, 0x75, 0x62, 0x00,
  0x01, 0x00, 0x00, 0x00, 0x20, 0x00, 0x00, 0x00, 0xe2, 0xfe, 0xff, 0xff,
  0x00, 0x00, 0x00, 0x01, 0x14, 0x00, 0x00, 0x00, 0x4c, 0x00, 0x00, 0x00,
  0x04, 0x00, 0x00, 0x00, 0x00, 0x00, 0x00, 0x09, 0x6c, 0x00, 0x00, 0x00,
  0x24, 0xfe, 0xff, 0xff, 0x08, 0x00, 0x00, 0x00, 0x24, 0x00, 0x00, 0x00,
  0x03, 0x00, 0x00, 0x00, 0x00, 0x00, 0x00, 0x00, 0x00, 0x00, 0x00, 0x00,
  0x00, 0x00, 0x00, 0x00, 0x00, 0x00, 0x00, 0x00, 0x00, 0x00, 0x00, 0x00,
  0x00, 0x00, 0x00, 0x00, 0x00, 0x00, 0x00, 0x00, 0x03, 0x00, 0x00, 0x00,
  0x0c, 0x5d, 0xdb, 0x3b, 0x3e, 0x82, 0xd4, 0x3b, 0x03, 0x58, 0xe9, 0x3b,
  0x24, 0x00, 0x00, 0x00, 0x68, 0x61, 0x67, 0x72, 0x69, 0x64, 0x5f, 0x74,
  0x69, 0x6e, 0x79, 0x5f, 0x67, 0x65, 0x73, 0x74, 0x75, 0x72, 0x65, 0x5f,
  0x31, 0x2f, 0x70, 0x72, 0x6f, 0x62, 0x73, 0x5f, 0x31, 0x2f, 0x4d, 0x61,
  0x74, 0x4d, 0x75, 0x6c, 0x00, 0x00, 0x00, 0x00, 0x02, 0x00, 0x00, 0x00,
  0x03, 0x00, 0x00, 0x00, 0x20, 0x00, 0x00, 0x00, 0x72, 0xff, 0xff, 0xff,
  0x00, 0x00, 0x00, 0x01, 0x14, 0x00, 0x00, 0x00, 0x4c, 0x00, 0x00, 0x00,
  0x03, 0x00, 0x00, 0x00, 0x00, 0x00, 0x00, 0x02, 0x6c, 0x00, 0x00, 0x00,
  0xb4, 0xfe, 0xff, 0xff, 0x08, 0x00, 0x00, 0x00, 0x24, 0x00, 0x00, 0x00,
  0x03, 0x00, 0x00, 0x00, 0x00, 0x00, 0x00, 0x00, 0x00, 0x00, 0x00, 0x00,
  0x00, 0x00, 0x00, 0x00, 0x00, 0x00, 0x00, 0x00, 0x00, 0x00, 0x00, 0x00,
  0x00, 0x00, 0x00, 0x00, 0x00, 0x00, 0x00, 0x00, 0x03, 0x00, 0x00, 0x00,
  0x91, 0x1c, 0x45, 0x38, 0xc4, 0xf3, 0x3e, 0x38, 0x7c, 0xac, 0x51, 0x38,
  0x25, 0x00, 0x00, 0x00, 0x68, 0x61, 0x67, 0x72, 0x69, 0x64, 0x5f, 0x74,
  0x69, 0x6e, 0x79, 0x5f, 0x67, 0x65, 0x73, 0x74, 0x75, 0x72, 0x65, 0x5f,
  0x31, 0x2f, 0x70, 0x72, 0x6f, 0x62, 0x73, 0x5f, 0x31, 0x2f, 0x42, 0x69,
  0x61, 0x73, 0x41, 0x64, 0x64, 0x00, 0x00, 0x00, 0x01, 0x00, 0x00, 0x00,
  0x03, 0x00, 0x00, 0x00, 0x00, 0x00, 0x16, 0x00, 0x1c, 0x00, 0x18, 0x00,
  0x17, 0x00, 0x10, 0x00, 0x0c, 0x00, 0x08, 0x00, 0x00, 0x00, 0x00, 0x00,
  0x00, 0x00, 0x07, 0x00, 0x16, 0x00, 0x00, 0x00, 0x00, 0x00, 0x00, 0x01,
  0x18, 0x00, 0x00, 0x00, 0x18, 0x00, 0x00, 0x00, 0x02, 0x00, 0x00, 0x00,
  0x00, 0x00, 0x00, 0x02, 0x58, 0x00, 0x00, 0x00, 0x04, 0x00, 0x04, 0x00,
  0x04, 0x00, 0x00, 0x00, 0x47, 0x00, 0x00, 0x00, 0x68, 0x61, 0x67, 0x72,
  0x69, 0x64, 0x5f, 0x74, 0x69, 0x6e, 0x79, 0x5f, 0x67, 0x65, 0x73, 0x74,
  0x75, 0x72, 0x65, 0x5f, 0x31, 0x2f, 0x67, 0x6c, 0x6f, 0x62, 0x61, 0x6c,
  0x5f, 0x61, 0x76, 0x65, 0x72, 0x61, 0x67, 0x65, 0x5f, 0x70, 0x6f, 0x6f,
  0x6c, 0x69, 0x6e, 0x67, 0x32, 0x64, 0x5f, 0x31, 0x2f, 0x4d, 0x65, 0x61,
  0x6e, 0x2f, 0x72, 0x65, 0x64, 0x75, 0x63, 0x74, 0x69, 0x6f, 0x6e, 0x5f,
  0x69, 0x6e, 0x64, 0x69, 0x63, 0x65, 0x73, 0x00, 0x01, 0x00, 0x00, 0x00,
  0x02, 0x00, 0x00, 0x00, 0x00, 0x00, 0x16, 0x00, 0x20, 0x00, 0x1c, 0x00,
  0x1b, 0x00, 0x14, 0x00, 0x10, 0x00, 0x0c, 0x00, 0x00, 0x00, 0x00, 0x00,
  0x08, 0x00, 0x07, 0x00, 0x16, 0x00, 0x00, 0x00, 0x00, 0x00, 0x00, 0x01,
  0x18, 0x00, 0x00, 0x00, 0x34, 0x00, 0x00, 0x00, 0x50, 0x00, 0x00, 0x00,
  0x01, 0x00, 0x00, 0x00, 0x00, 0x00, 0x00, 0x09, 0x60, 0x00, 0x00, 0x00,
  0x04, 0x00, 0x00, 0x00, 0xff, 0xff, 0xff, 0xff, 0x40, 0x00, 0x00, 0x00,
  0x40, 0x00, 0x00, 0x00, 0x01, 0x00, 0x00, 0x00, 0x0c, 0x00, 0x0c, 0x00,
  0x00, 0x00, 0x00, 0x00, 0x08, 0x00, 0x04, 0x00, 0x0c, 0x00, 0x00, 0x00,
  0x08, 0x00, 0x00, 0x00, 0x10, 0x00, 0x00, 0x00, 0x01, 0x00, 0x00, 0x00,
  0x80, 0xff, 0xff, 0xff, 0xff, 0xff, 0xff, 0xff, 0x01, 0x00, 0x00, 0x00,
  0x00, 0x00, 0x80, 0x3f, 0x17, 0x00, 0x00, 0x00, 0x73, 0x65, 0x72, 0x76,
  0x69, 0x6e, 0x67, 0x5f, 0x64, 0x65, 0x66, 0x61, 0x75, 0x6c, 0x74, 0x5f,
  0x69, 0x6e, 0x70, 0x75, 0x74, 0x3a, 0x30, 0x00, 0x04, 0x00, 0x00, 0x00,
  0x01, 0x00, 0x00, 0x00, 0x40, 0x00, 0x00, 0x00, 0x40, 0x00, 0x00, 0x00,
  0x01, 0x00, 0x00, 0x00, 0x06, 0x00, 0x00, 0x00, 0x74, 0x00, 0x00, 0x00,
  0x54, 0x00, 0x00, 0x00, 0x40, 0x00, 0x00, 0x00, 0x2c, 0x00, 0x00, 0x00,
  0x18, 0x00, 0x00, 0x00, 0x04, 0x00, 0x00, 0x00, 0xb0, 0xff, 0xff, 0xff,
  0x19, 0x00, 0x00, 0x00, 0x02, 0x00, 0x00, 0x00, 0x00, 0x00, 0x00, 0x19,
  0xc0, 0xff, 0xff, 0xff, 0x09, 0x00, 0x00, 0x00, 0x04, 0x00, 0x00, 0x00,
  0x00, 0x00, 0x00, 0x09, 0xd0, 0xff, 0xff, 0xff, 0x28, 0x00, 0x00, 0x00,
  0x02, 0x00, 0x00, 0x00, 0x00, 0x00, 0x00, 0x28, 0xe0, 0xff, 0xff, 0xff,
  0x11, 0x00, 0x00, 0x00, 0x02, 0x00, 0x00, 0x00, 0x00, 0x00, 0x00, 0x11,
  0xf0, 0xff, 0xff, 0xff, 0x04, 0x00, 0x00, 0x00, 0x03, 0x00, 0x00, 0x00,
  0x00, 0x00, 0x00, 0x04, 0x0c, 0x00, 0x10, 0x00, 0x0f, 0x00, 0x00, 0x00,
  0x08, 0x00, 0x04, 0x00, 0x0c, 0x00, 0x00, 0x00, 0x03, 0x00, 0x00, 0x00,
  0x03, 0x00, 0x00, 0x00, 0x00, 0x00, 0x00, 0x03
};
unsigned int gesture_model_len = 11912;
