// Auto-generated TensorFlow Lite model for Arduino Nano
// Model: Trigonometric function approximation (sin, cos)
// Generated: 2026-01-20 20:53:56.766038

#ifndef TRIG_MODEL_H
#define TRIG_MODEL_H

// Model size: 14392 bytes (14.05 KB)
const unsigned int model_len = 14392;

// Model data (quantized, 8-bit)
alignas(8) const unsigned char model_data[] = {
  0x20, 0x00, 0x00, 0x00, 0x54, 0x46, 0x4c, 0x33, 0x00, 0x00, 0x00, 0x00, 0x14, 0x00, 0x20, 0x00, 0x1c, 0x00, 0x18, 0x00, 0x14, 0x00, 0x10, 0x00, 0x0c, 0x00, 0x00, 0x00, 0x08, 0x00, 0x04, 0x00, 0x14, 0x00, 0x00, 0x00, 0x1c, 0x00, 0x00, 0x00, 0x8c, 0x00, 0x00, 0x00, 0xe4, 0x00, 0x00, 0x00, 0x64, 0x1d, 0x00, 0x00, 0x74, 0x1d, 0x00, 0x00, 0x98, 0x37, 0x00, 0x00, 0x03, 0x00, 0x00, 0x00, 0x01, 0x00, 0x00, 0x00, 0x04, 0x00, 0x00, 0x00, 0x1a, 0xe1, 0xff, 0xff, 0x0c, 0x00, 0x00, 0x00, 0x1c, 0x00, 0x00, 0x00, 0x3c, 0x00, 0x00, 0x00, 0x0f, 0x00, 0x00, 0x00, 0x73, 0x65, 0x72, 0x76, 0x69, 0x6e, 0x67, 0x5f, 0x64, 0x65, 0x66, 0x61, 0x75, 0x6c, 0x74, 0x00, 0x01, 0x00, 0x00, 0x00, 0x04, 0x00, 0x00, 0x00, 0x90, 0xff, 0xff, 0xff, 0x12, 0x00, 0x00, 0x00, 0x04, 0x00, 0x00, 0x00, 0x08, 0x00, 0x00, 0x00, 0x6f, 0x75, 0x74, 0x70, 0x75, 0x74, 0x5f, 0x30, 0x00, 0x00, 0x00, 0x00, 0x01, 0x00, 0x00, 0x00, 0x04, 0x00, 0x00, 0x00, 0x26, 0xe3, 0xff, 0xff, 0x04, 0x00, 0x00, 0x00, 0x0c, 0x00, 0x00, 0x00, 0x6b, 0x65, 0x72, 0x61, 0x73, 0x5f, 0x74, 0x65, 0x6e, 0x73, 0x6f, 0x72, 0x00, 0x00, 0x00, 0x00, 0x02, 0x00, 0x00, 0x00, 0x34, 0x00, 0x00, 0x00, 0x04, 0x00, 0x00, 0x00, 0xdc, 0xff, 0xff, 0xff, 0x15, 0x00, 0x00, 0x00, 0x04, 0x00, 0x00, 0x00, 0x13, 0x00, 0x00, 0x00, 0x43, 0x4f, 0x4e, 0x56, 0x45, 0x52, 0x53, 0x49, 0x4f, 0x4e, 0x5f, 0x4d, 0x45, 0x54, 0x41, 0x44, 0x41, 0x54, 0x41, 0x00, 0x08, 0x00, 0x0c, 0x00, 0x08, 0x00, 0x04, 0x00, 0x08, 0x00, 0x00, 0x00, 0x14, 0x00, 0x00, 0x00, 0x04, 0x00, 0x00, 0x00, 0x13, 0x00, 0x00, 0x00, 0x6d, 0x69, 0x6e, 0x5f, 0x72, 0x75, 0x6e, 0x74, 0x69, 0x6d, 0x65, 0x5f, 0x76, 0x65, 0x72, 0x73, 0x69, 0x6f, 0x6e, 0x00, 0x16, 0x00, 0x00, 0x00, 0x7c, 0x1c, 0x00, 0x00, 0x74, 0x1c, 0x00, 0x00, 0x5c, 0x1c, 0x00, 0x00, 0x04, 0x1c, 0x00, 0x00, 0x74, 0x1b, 0x00, 0x00, 0x64, 0x13, 0x00, 0x00, 0x54, 0x12, 0x00, 0x00, 0x44, 0x02, 0x00, 0x00, 0x34, 0x01, 0x00, 0x00, 0xe4, 0x00, 0x00, 0x00, 0xdc, 0x00, 0x00, 0x00, 0xd4, 0x00, 0x00, 0x00, 0xcc, 0x00, 0x00, 0x00, 0xc4, 0x00, 0x00, 0x00, 0xbc, 0x00, 0x00, 0x00, 0xb4, 0x00, 0x00, 0x00, 0xac, 0x00, 0x00, 0x00, 0xa4, 0x00, 0x00, 0x00, 0x9c, 0x00, 0x00, 0x00, 0x94, 0x00, 0x00, 0x00, 0x74, 0x00, 0x00, 0x00, 0x04, 0x00, 0x00, 0x00, 0xfa, 0xe3, 0xff, 0xff, 0x04, 0x00, 0x00, 0x00, 0x60, 0x00, 0x00, 0x00, 0x0c, 0x00, 0x00, 0x00, 0x08, 0x00, 0x0e, 0x00, 0x08, 0x00, 0x04, 0x00, 0x08, 0x00, 0x00, 0x00, 0x10, 0x00, 0x00, 0x00, 0x28, 0x00, 0x00, 0x00, 0x00, 0x00, 0x06, 0x00, 0x08, 0x00, 0x04, 0x00, 0x06, 0x00, 0x00, 0x00, 0x04, 0x00, 0x00, 0x00, 0x01, 0x00, 0x00, 0x00, 0xeb, 0x03, 0x00, 0x00, 0x0c, 0x00, 0x18, 0x00, 0x14, 0x00, 0x10, 0x00, 0x0c, 0x00, 0x04, 0x00, 0x0c, 0x00, 0x00, 0x00, 0xeb, 0xf3, 0x4a, 0x4d, 0xb0, 0x43, 0x60, 0x6c, 0x02, 0x00, 0x00, 0x00, 0x02, 0x00, 0x00, 0x00, 0x04, 0x00, 0x00, 0x00, 0x06, 0x00, 0x00, 0x00, 0x32, 0x2e, 0x32, 0x30, 0x2e, 0x30, 0x00, 0x00, 0x66, 0xe4, 0xff, 0xff, 0x04, 0x00, 0x00, 0x00, 0x10, 0x00, 0x00, 0x00, 0x31, 0x2e, 0x31, 0x34, 0x2e, 0x30, 0x00, 0x00, 0x00, 0x00, 0x00, 0x00, 0x00, 0x00, 0x00, 0x00, 0x5c, 0xca, 0xff, 0xff, 0x60, 0xca, 0xff, 0xff, 0x64, 0xca, 0xff, 0xff, 0x68, 0xca, 0xff, 0xff, 0x6c, 0xca, 0xff, 0xff, 0x70, 0xca, 0xff, 0xff, 0x74, 0xca, 0xff, 0xff, 0x78, 0xca, 0xff, 0xff, 0x7c, 0xca, 0xff, 0xff, 0x80, 0xca, 0xff, 0xff, 0xaa, 0xe4, 0xff, 0xff, 0x04, 0x00, 0x00, 0x00, 0x40, 0x00, 0x00, 0x00, 0x81, 0x81, 0x7f, 0x81, 0x7f, 0x81, 0x7f, 0x81, 0x7f, 0x81, 0x7f, 0x81, 0x81, 0x7f, 0x81, 0x7f, 0x81, 0x81, 0x7f, 0x81, 0x81, 0x81, 0x81, 0x7f, 0x81, 0x81, 0x81, 0x7f, 0x7f, 0x81, 0x81, 0x7f, 0x7f, 0x7f, 0x7f, 0x81, 0x81, 0x7f, 0x81, 0x7f, 0x81, 0x81, 0x81, 0x81, 0x81, 0x81, 0x81, 0x7f, 0x7f, 0x7f, 0x7f, 0x7f, 0x7f, 0x7f, 0x7f, 0x81, 0x7f, 0x81, 0x7f, 0x7f, 0x81, 0x81, 0x81, 0x81, 0xf6, 0xe4, 0xff, 0xff, 0x04, 0x00, 0x00, 0x00, 0x00, 0x01, 0x00, 0x00, 0xdf, 0x2e, 0x00, 0x00, 0xbe, 0x21, 0x00, 0x00, 0x34, 0x06, 0x00, 0x00, 0xa5, 0x64, 0x00, 0x00, 0x87, 0xa7, 0xfe, 0xff, 0xaa, 0x27, 0x00, 0x00, 0x43, 0xec, 0xff, 0xff, 0x25, 0x16, 0x00, 0x00, 0x5d, 0x89, 0xff, 0xff, 0x32, 0x30, 0x00, 0x00, 0x09, 0xe4, 0xff, 0xff, 0xe4, 0x44, 0x00, 0x00, 0x80, 0x68, 0x00, 0x00, 0xa1, 0xc6, 0xff, 0xff, 0xb4, 0x11, 0x00, 0x00, 0x95, 0xc2, 0xff, 0xff, 0x0a, 0xa7, 0x00, 0x00, 0xe2, 0x53, 0x00, 0x00, 0x97, 0xf8, 0xff, 0xff, 0xc7, 0x44, 0x00, 0x00, 0xc5, 0x71, 0x00, 0x00, 0x13, 0x15, 0x00, 0x00, 0xcf, 0x10, 0x00, 0x00, 0xff, 0xff, 0xff, 0xff, 0x06, 0x3c, 0x00, 0x00, 0x17, 0x5f, 0x00, 0x00, 0x3a, 0x25, 0x00, 0x00, 0x01, 0xd9, 0xff, 0xff, 0x52, 0x21, 0x00, 0x00, 0x16, 0xcb, 0xff, 0xff, 0x50, 0x2c, 0x00, 0x00, 0x57, 0xc3, 0xff, 0xff, 0xea, 0xc2, 0xff, 0xff, 0xde, 0x0b, 0x00, 0x00, 0xb9, 0x5e, 0xff, 0xff, 0x9f, 0x61, 0x00, 0x00, 0x6c, 0xe2, 0xff, 0xff, 0x9a, 0x23, 0x01, 0x00, 0x56, 0x76, 0xff, 0xff, 0x25, 0x08, 0x00, 0x00, 0xfb, 0x2f, 0x00, 0x00, 0xcc, 0xf6, 0xff, 0xff, 0xf9, 0x64, 0x00, 0x00, 0x98, 0x32, 0x00, 0x00, 0x63, 0x42, 0x00, 0x00, 0xf5, 0x10, 0x00, 0x00, 0x12, 0x1c, 0x00, 0x00, 0x95, 0xbd, 0xff, 0xff, 0x19, 0x87, 0xff, 0xff, 0x22, 0x75, 0xff, 0xff, 0x75, 0xb5, 0xff, 0xff, 0x35, 0xa4, 0xff, 0xff, 0x54, 0x16, 0x00, 0x00, 0x8e, 0xcb, 0xff, 0xff, 0xdc, 0xa3, 0xff, 0xff, 0xb1, 0x1c, 0x00, 0x00, 0xb5, 0xd4, 0xff, 0xff, 0x69, 0x42, 0x00, 0x00, 0xc1, 0xdb, 0xff, 0xff, 0x04, 0xaf, 0xff, 0xff, 0xc4, 0x49, 0x01, 0x00, 0xba, 0x92, 0x00, 0x00, 0xd9, 0x2a, 0x00, 0x00, 0xaf, 0x39, 0x00, 0x00, 0x02, 0xe6, 0xff, 0xff, 0x04, 0x00, 0x00, 0x00, 0x00, 0x10, 0x00, 0x00, 0xf1, 0x41, 0xc6, 0xe4, 0x52, 0x38, 0x8e, 0x60, 0xf7, 0x63, 0x0b, 0x45, 0x3c, 0xdc, 0x23, 0xfd, 0xf4, 0x25, 0xfb, 0x0f, 0x1d, 0x46, 0x22, 0xea, 0x0f, 0xff, 0xfa, 0xe7, 0xbe, 0x57, 0x43, 0xdc, 0xb2, 0xc4, 0x52, 0xf1, 0x14, 0x81, 0xfc, 0x9e, 0x0d, 0xf0, 0xca, 0xf3, 0x3e, 0x1e, 0x0f, 0xcd, 0x1e, 0x0f, 0x02, 0xea, 0xe8, 0xc5, 0xce, 0x40, 0xfe, 0x09, 0xc8, 0x19, 0x98, 0xdf, 0x5d, 0x1f, 0x21, 0x3a, 0xf6, 0x1e, 0xd5, 0xbf, 0xc5, 0x04, 0xb2, 0x6e, 0xf6, 0x65, 0x51, 0xa6, 0xc5, 0xa3, 0x47, 0xe7, 0x12, 0x79, 0xdd, 0x22, 0x1e, 0xa9, 0x4b, 0x52, 0x16, 0xc4, 0x2c, 0xd0, 0xf1, 0x89, 0xa6, 0x1a, 0x0f, 0x54, 0x05, 0x54, 0xbb, 0x9a, 0x51, 0x7a, 0x0a, 0x48, 0x05, 0x19, 0xeb, 0x0f, 0x42, 0xbf, 0xb7, 0xcb, 0x4c, 0xcc, 0x04, 0x2a, 0xbb, 0x50, 0xf5, 0xa6, 0x7f, 0x73, 0xbb, 0x29, 0xd9, 0xfb, 0x9f, 0x2a, 0x24, 0x0e, 0x8e, 0xfa, 0x1d, 0x12, 0x95, 0xed, 0xd5, 0x15, 0x7f, 0xdd, 0xc3, 0x13, 0xf3, 0x4c, 0xed, 0x3c, 0xfb, 0xf1, 0x3c, 0x11, 0x35, 0xe8, 0xac, 0x5a, 0x1a, 0xfe, 0xd1, 0xdb, 0xf1, 0x19, 0x1d, 0x9d, 0x2c, 0x82, 0x48, 0xff, 0xe9, 0x49, 0xf9, 0x38, 0x21, 0xc7, 0xf8, 0x2f, 0xb5, 0x28, 0xd4, 0xcc, 0x1f, 0x33, 0xc2, 0xfb, 0x90, 0x29, 0xd8, 0xac, 0x30, 0x1b, 0x2d, 0x1d, 0x45, 0x35, 0x9a, 0x3a, 0xdf, 0xf0, 0xd3, 0xdb, 0x26, 0x20, 0x51, 0x23, 0x29, 0x14, 0x5a, 0x68, 0xc6, 0xd5, 0x18, 0x23, 0xe1, 0x44, 0xe9, 0x0c, 0x49, 0xac, 0xd7, 0xf4, 0x44, 0x18, 0xbb, 0xf0, 0x81, 0x1c, 0x40, 0xef, 0xe4, 0xc8, 0x2e, 0xc9, 0x77, 0x0a, 0x3e, 0xcf, 0xc3, 0xca, 0xcf, 0xa2, 0x0e, 0xa2, 0xc1, 0x2e, 0xa5, 0xdf, 0x2b, 0x38, 0xeb, 0xd1, 0x16, 0xf3, 0x3b, 0x56, 0xc2, 0xa9, 0xd2, 0xa9, 0xf8, 0x97, 0xe7, 0xfb, 0x43, 0xe0, 0x33, 0xb3, 0xbb, 0x16, 0xdd, 0x60, 0xcb, 0x8b, 0x00, 0xdb, 0xc0, 0xf4, 0xbc, 0xec, 0xa1, 0xdd, 0xea, 0x2e, 0x21, 0x2a, 0xbc, 0x11, 0x27, 0x17, 0x7f, 0xc6, 0x21, 0xcb, 0x17, 0x26, 0xb3, 0x21, 0xe6, 0xff, 0x12, 0x1b, 0xac, 0x27, 0x5f, 0x34, 0x25, 0x09, 0x00, 0x10, 0x4b, 0xa4, 0xf2, 0xe4, 0x14, 0x28, 0xae, 0x8e, 0xda, 0xad, 0xf3, 0x07, 0x2b, 0x47, 0x81, 0x0f, 0x1e, 0xe1, 0xb3, 0x0f, 0x24, 0x0f, 0x2b, 0xf0, 0xce, 0x01, 0x72, 0x2b, 0x3f, 0xeb, 0x45, 0xe3, 0xd9, 0x3c, 0x07, 0x24, 0xe9, 0x25, 0x14, 0xca, 0xe7, 0xf4, 0xe8, 0x13, 0xa0, 0x2a, 0xd5, 0x5c, 0xa4, 0x3c, 0xf3, 0xeb, 0x43, 0x01, 0xfd, 0xd8, 0xf3, 0x09, 0xc7, 0xdb, 0xe4, 0xd3, 0x1e, 0xf3, 0xe8, 0x05, 0xed, 0xf3, 0x10, 0x14, 0x34, 0x5a, 0xec, 0xe2, 0x1a, 0xfe, 0x3d, 0x26, 0x9c, 0xf5, 0x29, 0xe7, 0x88, 0xf6, 0x16, 0x34, 0x13, 0xf0, 0xd2, 0xed, 0x7f, 0xf9, 0x2f, 0x23, 0x79, 0xfc, 0xd7, 0x36, 0x14, 0x05, 0x12, 0xf7, 0xf9, 0xf4, 0x0c, 0xe6, 0x19, 0x3c, 0x8b, 0x12, 0x02, 0x4d, 0xc6, 0x3f, 0x07, 0xe6, 0x56, 0x0c, 0xf5, 0xfa, 0xd3, 0xd9, 0xaa, 0xc7, 0xe5, 0xb9, 0x14, 0xf6, 0xd0, 0x1c, 0x15, 0x15, 0xf5, 0xd9, 0x4a, 0x6b, 0x01, 0x07, 0xf1, 0xd1, 0x34, 0x29, 0xbd, 0xa5, 0x78, 0xa4, 0x0a, 0x24, 0x30, 0x22, 0x34, 0x6d, 0xfb, 0x17, 0xc7, 0x3d, 0xf4, 0x98, 0xd0, 0xc6, 0x40, 0x26, 0xc3, 0x06, 0x9c, 0x1f, 0x3c, 0x00, 0xad, 0x02, 0xf5, 0x2b, 0xbb, 0xa7, 0xcc, 0x70, 0xf3, 0xfe, 0x10, 0x58, 0x4c, 0xd5, 0xec, 0x1c, 0x81, 0x5a, 0xb5, 0x0c, 0xbf, 0x39, 0xce, 0x50, 0x31, 0x89, 0x5b, 0x17, 0x45, 0x0f, 0x43, 0x37, 0x81, 0xcf, 0xf3, 0xf2, 0x20, 0x8a, 0x36, 0xc8, 0x2c, 0x19, 0x58, 0xc6, 0xe5, 0xb8, 0x99, 0x3b, 0xfe, 0xfe, 0xca, 0xc7, 0xf0, 0xd6, 0x9c, 0x17, 0xf5, 0x07, 0xcc, 0x91, 0xf6, 0x28, 0xf2, 0x20, 0xca, 0x21, 0xfe, 0x07, 0x36, 0xb9, 0xde, 0xce, 0x29, 0x1c, 0x0d, 0x26, 0x81, 0xde, 0xcb, 0xd1, 0x01, 0x1a, 0x44, 0x37, 0x09, 0x36, 0xe0, 0x30, 0x6c, 0xff, 0x13, 0xdf, 0x09, 0xfc, 0xe6, 0xb1, 0xfa, 0xc4, 0xeb, 0xf1, 0xf8, 0xa9, 0x38, 0xc3, 0x23, 0x11, 0x7f, 0xd2, 0x25, 0xe4, 0xda, 0x33, 0x00, 0x0b, 0x8d, 0xb0, 0xef, 0xda, 0xac, 0x11, 0x1b, 0x19, 0xe9, 0xb3, 0xd9, 0x04, 0x0d, 0xef, 0x09, 0x23, 0x3f, 0xfd, 0x4c, 0xe1, 0xfe, 0xbf, 0x32, 0xdd, 0xdb, 0xfa, 0x8f, 0xfc, 0x0e, 0xf7, 0x04, 0x25, 0x52, 0x49, 0xfe, 0x44, 0xe8, 0xf7, 0x3b, 0x01, 0x2d, 0xb7, 0xf5, 0x37, 0xd6, 0xbd, 0xd8, 0xf8, 0xed, 0xfb, 0xd4, 0x81, 0x1a, 0xdf, 0x69, 0xa9, 0xff, 0xa3, 0xff, 0x86, 0xc1, 0xde, 0xe2, 0xf9, 0xb4, 0xb6, 0xde, 0xbd, 0xbd, 0xc4, 0xd9, 0xf0, 0xb7, 0x0c, 0xf1, 0x62, 0xde, 0xe6, 0xfd, 0xfa, 0x6c, 0xc3, 0x5e, 0x95, 0x10, 0xdb, 0x32, 0x3f, 0xdc, 0xbd, 0x8c, 0x92, 0x97, 0xfd, 0xbd, 0x68, 0x5b, 0x59, 0xf1, 0xeb, 0x3a, 0xef, 0x1d, 0xb0, 0x24, 0xc6, 0xfd, 0x07, 0xa2, 0xbc, 0x94, 0xb5, 0x37, 0x3d, 0x26, 0x05, 0x9c, 0x4c, 0xe3, 0x2d, 0x9d, 0x38, 0xf4, 0x4f, 0xf3, 0x8f, 0x45, 0xa1, 0x37, 0x2c, 0x91, 0xfa, 0x3a, 0xd7, 0x05, 0x81, 0x50, 0x32, 0x54, 0x83, 0x09, 0x1e, 0x50, 0xfe, 0xe6, 0xe9, 0xa0, 0x4a, 0xec, 0x93, 0x32, 0xfe, 0x6d, 0xbf, 0x69, 0xee, 0xfe, 0x5a, 0xf1, 0xa0, 0xe3, 0xe4, 0xa6, 0xd8, 0x35, 0xe6, 0xc7, 0x39, 0x01, 0x2a, 0x16, 0xe4, 0xc3, 0x41, 0x53, 0xf3, 0xcb, 0x6c, 0x0a, 0x6c, 0xd5, 0x7a, 0x12, 0x14, 0xdf, 0x0c, 0x37, 0xd2, 0xbf, 0x44, 0x66, 0x25, 0xb8, 0xec, 0x55, 0x40, 0xcc, 0xb5, 0x12, 0x45, 0x97, 0xba, 0x0b, 0x69, 0xff, 0x7f, 0x09, 0x3c, 0x20, 0x0a, 0x88, 0x8d, 0x8d, 0x42, 0xb1, 0xfa, 0x2c, 0xca, 0xe3, 0xab, 0x22, 0x43, 0x9f, 0xb9, 0xa4, 0xff, 0x40, 0xab, 0xc4, 0x75, 0x2b, 0x94, 0xb2, 0xc6, 0xda, 0x62, 0x07, 0x08, 0x69, 0xd0, 0xea, 0xbc, 0x50, 0xc4, 0xe4, 0xe3, 0x56, 0x39, 0x29, 0xa0, 0xdf, 0xb9, 0x9e, 0x65, 0xfe, 0xf3, 0x36, 0xd8, 0xd4, 0xbf, 0x7f, 0x0b, 0x2c, 0x13, 0x0f, 0xda, 0xcd, 0xfa, 0xf5, 0x03, 0x26, 0x51, 0x37, 0x75, 0x38, 0x0a, 0xf3, 0x28, 0x28, 0x2a, 0xc6, 0xfa, 0x4d, 0x02, 0x98, 0x20, 0x90, 0x3b, 0x8b, 0x94, 0x52, 0xda, 0xc1, 0x34, 0xfb, 0x30, 0x33, 0x27, 0x74, 0xa6, 0xe8, 0x42, 0x2f, 0xea, 0xee, 0xd2, 0xd5, 0xe7, 0xcd, 0x5a, 0x91, 0x0a, 0x50, 0x3a, 0xd6, 0x29, 0x4d, 0xda, 0xd4, 0xbe, 0x19, 0xc8, 0xe0, 0x13, 0x07, 0xd6, 0xe0, 0xd7, 0xd3, 0xdb, 0x0a, 0xb7, 0x2c, 0x6b, 0xf2, 0x14, 0xe9, 0x8e, 0x27, 0xeb, 0x65, 0x27, 0xe8, 0xa8, 0x6b, 0x5e, 0x24, 0x4d, 0xc9, 0x63, 0x72, 0x89, 0x25, 0x28, 0xb9, 0xc5, 0x1f, 0xa9, 0xf8, 0x6d, 0x81, 0xd9, 0x24, 0x3c, 0x44, 0xad, 0xe0, 0xd0, 0xff, 0x7b, 0x07, 0x29, 0x42, 0x68, 0xc4, 0xfb, 0xdb, 0x45, 0x95, 0x25, 0xde, 0xc2, 0x6a, 0xe8, 0x1a, 0x51, 0x07, 0x3b, 0x14, 0x44, 0x45, 0x81, 0x01, 0xf0, 0x15, 0x8c, 0xb1, 0x66, 0x5b, 0xf5, 0xba, 0xca, 0xce, 0x04, 0x22, 0x9c, 0x48, 0xe1, 0x1d, 0x23, 0x3d, 0x0e, 0x1c, 0x59, 0x1e, 0xbd, 0x2d, 0xe7, 0x15, 0x26, 0xf2, 0xb7, 0xdb, 0x51, 0x03, 0x22, 0x90, 0xe1, 0xc2, 0x1c, 0x02, 0x2c, 0xd3, 0xb2, 0xca, 0x04, 0xad, 0xb7, 0x00, 0xb8, 0x74, 0xb6, 0xf4, 0x43, 0xeb, 0xc2, 0x47, 0x2f, 0xbc, 0x19, 0x5f, 0xca, 0x19, 0xcc, 0x1a, 0xe5, 0x59, 0x40, 0x11, 0x7f, 0x11, 0xaa, 0xe7, 0xc6, 0x2c, 0x1e, 0x71, 0x2f, 0x62, 0x02, 0x38, 0xaa, 0x1b, 0xac, 0x83, 0x62, 0xfe, 0xf2, 0x20, 0xe2, 0xe1, 0xc0, 0xcc, 0xfb, 0x14, 0xf4, 0xb4, 0x28, 0x3d, 0x28, 0x95, 0x33, 0x48, 0x5b, 0xef, 0x58, 0xea, 0x4c, 0xd8, 0x48, 0xa0, 0x4a, 0xd0, 0x26, 0xb6, 0x54, 0xc9, 0x61, 0x49, 0xb9, 0x05, 0x07, 0x51, 0x0f, 0x29, 0x44, 0x6c, 0x2f, 0xe3, 0x15, 0x0c, 0x58, 0xf0, 0x10, 0x07, 0xed, 0x0d, 0xd3, 0xa7, 0x2e, 0xbd, 0x20, 0x15, 0xe8, 0xf4, 0xcd, 0xfb, 0x29, 0x7f, 0x43, 0x16, 0x0d, 0x21, 0x08, 0x9b, 0xc7, 0xb7, 0xd4, 0xfc, 0x0b, 0xbe, 0xe9, 0xac, 0x03, 0xdb, 0xe2, 0x3d, 0x51, 0x20, 0xf2, 0xf1, 0x8f, 0xf6, 0x9f, 0x4f, 0xb3, 0x2a, 0xbe, 0x56, 0xf9, 0x53, 0x21, 0x1a, 0x3d, 0x30, 0x49, 0x1a, 0x8d, 0xbf, 0x4a, 0x58, 0xd4, 0x9a, 0xd9, 0x39, 0xc2, 0xcb, 0x7f, 0xe6, 0x29, 0xcf, 0x3c, 0x71, 0x12, 0x34, 0xe5, 0xb3, 0x18, 0xbc, 0x1c, 0x01, 0x40, 0xab, 0x9f, 0x0f, 0xdc, 0x40, 0xfd, 0xe5, 0xd0, 0x29, 0xf9, 0x59, 0x31, 0x34, 0xc3, 0x30, 0xf0, 0x0f, 0xd3, 0x08, 0xa9, 0xd0, 0x35, 0xd2, 0x1a, 0x25, 0x23, 0x8c, 0xcc, 0x53, 0xea, 0x92, 0xf6, 0xec, 0x0d, 0x3b, 0xd9, 0x02, 0xd8, 0x24, 0x0b, 0xfc, 0xea, 0x6f, 0xdd, 0xbc, 0x5f, 0xbc, 0xf8, 0xec, 0x00, 0x59, 0xed, 0xdf, 0x06, 0x34, 0x41, 0x86, 0x34, 0xc0, 0x7f, 0xbd, 0x3c, 0xd0, 0xfe, 0xed, 0xba, 0xd4, 0xcb, 0xde, 0xe1, 0xb7, 0x9e, 0xdc, 0xf6, 0x04, 0xe6, 0xd7, 0x0d, 0x30, 0xc3, 0x45, 0xca, 0x5f, 0x6b, 0xc4, 0xd4, 0xea, 0xe7, 0x4c, 0x0e, 0x99, 0xef, 0x28, 0xf6, 0x8c, 0x0a, 0xca, 0x59, 0x67, 0xb3, 0x16, 0xf4, 0x72, 0x27, 0x0d, 0x41, 0x64, 0x05, 0xbe, 0xe3, 0x45, 0x13, 0x3e, 0x1a, 0x48, 0xe7, 0xe5, 0xd6, 0xe4, 0x1c, 0xb0, 0x5b, 0xcd, 0x41, 0xe7, 0x51, 0xfa, 0xe3, 0x30, 0x2c, 0x17, 0xfa, 0x15, 0xae, 0xeb, 0xa5, 0xe1, 0xbe, 0x3c, 0xc0, 0xe1, 0x33, 0xf6, 0x11, 0x2e, 0xd1, 0x7c, 0x7f, 0xdd, 0x21, 0x3e, 0xbd, 0x1b, 0xd4, 0x67, 0x06, 0xea, 0xe7, 0x2a, 0x1d, 0x10, 0xab, 0x98, 0x38, 0xeb, 0x31, 0x9f, 0xc9, 0xf5, 0xc2, 0xfc, 0x28, 0x36, 0x4a, 0xf4, 0xaa, 0xe2, 0xe8, 0xfc, 0x1e, 0xd6, 0x42, 0x39, 0x17, 0x43, 0xde, 0x08, 0xe0, 0xf7, 0x2a, 0xb1, 0x10, 0xa9, 0x15, 0xbc, 0xe1, 0xe6, 0x11, 0x3c, 0x1f, 0x1b, 0x23, 0x38, 0x1c, 0x7f, 0xd5, 0x1b, 0xac, 0x43, 0xdd, 0xf9, 0xa1, 0x11, 0xd3, 0x1c, 0x67, 0xdc, 0x33, 0x2c, 0x61, 0x94, 0x35, 0x0b, 0x30, 0xbc, 0x2d, 0xf1, 0xde, 0x64, 0xea, 0xe7, 0x3a, 0x8b, 0x12, 0x05, 0x26, 0x26, 0xa2, 0x1d, 0x19, 0x51, 0xa0, 0x88, 0x34, 0x59, 0xa9, 0xbd, 0xde, 0x1b, 0xf2, 0x22, 0xea, 0x58, 0x84, 0x5c, 0x20, 0x1f, 0x5d, 0x0f, 0x52, 0x55, 0xdf, 0xfc, 0x0d, 0xf2, 0xca, 0xa1, 0x9c, 0xf8, 0x7f, 0x97, 0x3a, 0x95, 0x13, 0xcb, 0x0e, 0x36, 0x0f, 0x2a, 0x9f, 0x11, 0xc1, 0x1f, 0x04, 0x10, 0x09, 0x4b, 0xdb, 0xfa, 0x15, 0xa6, 0x0d, 0xfe, 0x39, 0xe6, 0xde, 0xdc, 0xe9, 0xb3, 0x31, 0x06, 0xd0, 0xce, 0xbb, 0xb3, 0x24, 0xf7, 0x03, 0xb3, 0xf3, 0x3f, 0xe7, 0x7f, 0x98, 0xbb, 0xd7, 0x36, 0xce, 0xc9, 0x20, 0xc7, 0xac, 0xee, 0xdd, 0x11, 0x5b, 0x1d, 0x32, 0x23, 0x28, 0x06, 0x55, 0x53, 0xf4, 0xff, 0xc7, 0x0b, 0x03, 0xd1, 0x98, 0xb3, 0xd9, 0x1c, 0x6f, 0xaa, 0xdd, 0x03, 0x71, 0x99, 0x19, 0x04, 0x43, 0xab, 0x7b, 0x5c, 0x9a, 0x5b, 0x02, 0xfd, 0x46, 0xc7, 0x64, 0xda, 0xf6, 0xe7, 0x9a, 0x44, 0x6c, 0x3e, 0x07, 0xfc, 0x3b, 0x6b, 0xe0, 0xda, 0x22, 0x48, 0xf7, 0xe0, 0xb6, 0x70, 0x12, 0x00, 0xe2, 0x3e, 0xf3, 0xfc, 0x3d, 0x0f, 0xe3, 0xf4, 0x27, 0x12, 0x1b, 0xfc, 0xd6, 0x81, 0x24, 0xae, 0x0a, 0xb4, 0x23, 0xcf, 0x33, 0x63, 0x63, 0x13, 0xb2, 0xc6, 0xb1, 0xa0, 0xd2, 0x12, 0xb5, 0xd5, 0x99, 0xe3, 0x17, 0xe5, 0x53, 0xf1, 0xe8, 0xc3, 0x36, 0x5f, 0x40, 0x5a, 0x26, 0xd0, 0x09, 0xfa, 0x2e, 0xeb, 0xe8, 0x79, 0x85, 0x04, 0xe0, 0x62, 0x23, 0x0f, 0xc6, 0x37, 0x63, 0x1e, 0xde, 0xa6, 0x1d, 0xf9, 0x83, 0x99, 0x81, 0xc5, 0x59, 0x2d, 0xbf, 0x60, 0xe1, 0xdd, 0x56, 0x2b, 0x99, 0x5a, 0xf1, 0x6a, 0xd2, 0x3b, 0x44, 0x01, 0x24, 0xf4, 0xa5, 0x04, 0xea, 0xfc, 0xdc, 0x17, 0x2c, 0x12, 0xc4, 0xed, 0xa6, 0xc7, 0x2c, 0x9c, 0x1f, 0x2b, 0x93, 0x15, 0x99, 0x15, 0xd2, 0x38, 0x07, 0x0c, 0xdf, 0x8d, 0x7b, 0xcf, 0x04, 0x81, 0x0b, 0x0c, 0xc8, 0x2f, 0xfa, 0xfb, 0xd5, 0x0c, 0x27, 0xef, 0xfd, 0x09, 0x99, 0xc5, 0xd3, 0xa4, 0x1c, 0x15, 0x53, 0x12, 0x31, 0x0c, 0xeb, 0x16, 0xce, 0x4c, 0xd3, 0x52, 0x01, 0xe5, 0xa1, 0x19, 0xdb, 0xdf, 0x78, 0x01, 0x36, 0x2e, 0x51, 0xbc, 0x3e, 0x26, 0x64, 0xed, 0xf6, 0xf0, 0xd8, 0x7e, 0xde, 0xf7, 0x0d, 0xdf, 0x31, 0x0a, 0xf0, 0x14, 0xb9, 0x34, 0xd8, 0x36, 0xec, 0xc5, 0x2d, 0x60, 0xcd, 0xc4, 0xfb, 0x31, 0x36, 0x4d, 0x81, 0x77, 0xdf, 0x60, 0x2c, 0x58, 0x44, 0x4c, 0x72, 0x07, 0xfc, 0x31, 0xc6, 0x0c, 0xe5, 0x8e, 0xf0, 0xce, 0x3f, 0x8c, 0xf3, 0xfe, 0xa7, 0xfd, 0xdf, 0x5b, 0x09, 0xe1, 0x04, 0xde, 0xc4, 0xe2, 0x60, 0xa3, 0x63, 0xca, 0x52, 0x0e, 0xfa, 0xd3, 0xe2, 0x45, 0x01, 0xf2, 0x04, 0xab, 0xdc, 0x3a, 0x5a, 0x2f, 0xe7, 0xef, 0x11, 0x4c, 0xd8, 0xcd, 0x5c, 0x38, 0x0b, 0xe2, 0xbb, 0x5c, 0x54, 0x35, 0x16, 0x1c, 0x87, 0x74, 0xc9, 0x57, 0xfb, 0xe7, 0x39, 0xf8, 0xd8, 0xc9, 0xb0, 0x9e, 0xa8, 0xb2, 0x06, 0x2f, 0x6d, 0xff, 0x50, 0x81, 0xb0, 0x0c, 0x23, 0x30, 0x46, 0xf9, 0xf3, 0xe2, 0xa0, 0x30, 0xca, 0x07, 0xe1, 0x75, 0x0a, 0x48, 0xad, 0xe8, 0x13, 0xaa, 0x10, 0xd5, 0xc4, 0x1d, 0x00, 0xe3, 0xe4, 0xe1, 0xfc, 0x03, 0x90, 0x99, 0x6b, 0x15, 0xb6, 0x09, 0x32, 0xfc, 0x37, 0x60, 0xf6, 0x25, 0xe9, 0xc3, 0xfd, 0x05, 0xd6, 0x81, 0xe1, 0xb9, 0xa6, 0xbd, 0x44, 0x41, 0x3a, 0x3e, 0x47, 0xe4, 0xfc, 0x46, 0x9c, 0x45, 0xff, 0x5d, 0x16, 0xdb, 0xe3, 0xac, 0x06, 0x0f, 0xfd, 0x17, 0x7f, 0xea, 0xf1, 0xcc, 0x0b, 0xbf, 0x2a, 0x16, 0x06, 0x6d, 0xe1, 0xf4, 0xdf, 0x1b, 0x13, 0x15, 0xff, 0x7c, 0xe8, 0x14, 0x04, 0x14, 0x62, 0xff, 0xcc, 0x11, 0x1e, 0x0e, 0xfa, 0x09, 0x08, 0xca, 0x63, 0xdb, 0x09, 0x0c, 0x32, 0x39, 0xef, 0x7f, 0x25, 0x3e, 0x00, 0xe6, 0xb3, 0xc2, 0xd4, 0xcd, 0xba, 0xd8, 0xc5, 0x9e, 0x0d, 0xcf, 0x2c, 0xc4, 0xe0, 0x19, 0x69, 0x11, 0x35, 0x2e, 0x6e, 0xfa, 0x28, 0x14, 0x39, 0x08, 0xf3, 0x0b, 0x08, 0x00, 0x11, 0xf1, 0xf6, 0x41, 0xe3, 0x56, 0xec, 0xe8, 0xe3, 0x77, 0x45, 0xd2, 0xc0, 0x45, 0x3d, 0x65, 0xc4, 0x33, 0xbf, 0x57, 0x1c, 0xf1, 0x02, 0x98, 0x30, 0xbf, 0x4f, 0xf3, 0xb1, 0xdf, 0xd6, 0x7e, 0x2d, 0x4f, 0x4e, 0xd3, 0xcc, 0xc5, 0x8c, 0xb3, 0xd0, 0xe6, 0xb6, 0xcb, 0x01, 0xee, 0x28, 0xcc, 0x11, 0x7f, 0x3e, 0x55, 0x5d, 0xb9, 0x45, 0xc3, 0x2b, 0x06, 0x46, 0x9c, 0x44, 0xd7, 0x6e, 0x9f, 0x5d, 0x14, 0x8c, 0x5f, 0xde, 0x2b, 0x25, 0xb7, 0x21, 0x67, 0x31, 0x0c, 0x82, 0x6f, 0xf9, 0x5e, 0x92, 0x9f, 0x0c, 0x0f, 0x9a, 0xce, 0xb3, 0x0f, 0x2e, 0x43, 0x87, 0x4a, 0x9d, 0x0d, 0x16, 0x0d, 0x71, 0x5d, 0x2e, 0x2b, 0xaf, 0xca, 0x1d, 0x9b, 0xce, 0x91, 0xb5, 0x9f, 0x1e, 0xe3, 0x72, 0x81, 0xc4, 0xd7, 0xce, 0x43, 0x13, 0xb8, 0xc6, 0x21, 0xa1, 0x53, 0xfe, 0xec, 0xed, 0x32, 0x0b, 0x3d, 0x08, 0xbc, 0x10, 0x2c, 0x25, 0xc5, 0xf6, 0x43, 0x17, 0xa2, 0x1e, 0xfa, 0x49, 0xad, 0xb6, 0xf2, 0x15, 0xe8, 0xf0, 0xeb, 0xe6, 0x07, 0x22, 0x62, 0xc6, 0xed, 0xd4, 0x3c, 0xf2, 0xb5, 0xe8, 0xed, 0x02, 0x20, 0xda, 0x16, 0x51, 0x65, 0x72, 0x0a, 0x0a, 0xd8, 0x6a, 0x7f, 0xe1, 0x42, 0xbc, 0x32, 0x03, 0xfd, 0x9e, 0x22, 0xbb, 0x33, 0x20, 0x24, 0xbd, 0x6d, 0xbc, 0x50, 0x35, 0x39, 0xa7, 0x3b, 0x20, 0xa9, 0x39, 0xe3, 0x79, 0xcd, 0xa4, 0xd8, 0xbe, 0xdd, 0xb5, 0x17, 0xce, 0x00, 0xae, 0xe9, 0xf7, 0x1d, 0xf1, 0xe5, 0xfe, 0x45, 0x12, 0x4c, 0x01, 0x9e, 0x0f, 0x0b, 0x44, 0xb5, 0x39, 0x81, 0xfa, 0xcb, 0x9d, 0xec, 0xf2, 0x1e, 0x22, 0xe4, 0x6b, 0x13, 0x3b, 0x6b, 0x25, 0x55, 0xd9, 0x5c, 0x68, 0xed, 0x12, 0xe6, 0x91, 0xb2, 0xd1, 0x51, 0x29, 0xa2, 0x17, 0x45, 0xff, 0x7a, 0x31, 0x25, 0x22, 0xe0, 0x09, 0xf3, 0x55, 0x81, 0x46, 0x05, 0xbd, 0xd7, 0xd1, 0xaa, 0xe8, 0x71, 0xe3, 0x22, 0x4c, 0xbe, 0xdc, 0x11, 0xf3, 0xaf, 0xec, 0x15, 0x93, 0x6d, 0xf8, 0x4d, 0x5a, 0xce, 0x1a, 0xa3, 0x1e, 0xa4, 0x26, 0xa1, 0xf8, 0x40, 0x4c, 0x0d, 0xc3, 0xbc, 0xfd, 0x00, 0x10, 0x3c, 0x58, 0xb1, 0xa8, 0x98, 0x49, 0xa3, 0xec, 0xd9, 0xfd, 0x22, 0x34, 0xa7, 0x06, 0x12, 0x18, 0x81, 0xf4, 0x12, 0x3a, 0x52, 0xf4, 0xf9, 0xc3, 0x27, 0x5a, 0xc7, 0xfb, 0x62, 0x30, 0xf8, 0x00, 0x47, 0x57, 0x45, 0x09, 0x11, 0x0a, 0x2a, 0xe7, 0xc5, 0xdb, 0x93, 0x4b, 0xd7, 0x1b, 0x10, 0xe9, 0x0d, 0x04, 0x3b, 0x35, 0x18, 0x13, 0x17, 0xb6, 0xc9, 0xd8, 0xbd, 0xd4, 0x15, 0xf6, 0xcb, 0x29, 0xda, 0x3f, 0xc7, 0xe5, 0x16, 0x48, 0x09, 0x33, 0x1f, 0x54, 0xb6, 0xf6, 0x61, 0x39, 0x92, 0x53, 0x0b, 0x53, 0xdd, 0x4e, 0xf7, 0xc5, 0x6f, 0xe6, 0x9e, 0xfc, 0xc4, 0x29, 0x11, 0x11, 0x31, 0xab, 0x41, 0x06, 0x49, 0xec, 0xb9, 0x42, 0x2a, 0xdf, 0x00, 0xc7, 0x54, 0x0c, 0x45, 0xc6, 0x56, 0x81, 0x18, 0x3b, 0x08, 0x5f, 0xfd, 0x79, 0x77, 0xb9, 0x26, 0xf4, 0x02, 0xee, 0xdc, 0xd5, 0xd3, 0x45, 0xc1, 0x1c, 0x8e, 0xc5, 0xa2, 0xff, 0x46, 0x2a, 0x03, 0xf3, 0x3c, 0xc2, 0xe5, 0x14, 0xe1, 0xef, 0x7b, 0x1b, 0x01, 0xe6, 0xa5, 0x23, 0xc8, 0xde, 0x09, 0xf5, 0xf2, 0xf5, 0x88, 0x32, 0x21, 0x05, 0xec, 0xe2, 0xee, 0x52, 0x3c, 0x36, 0x22, 0x26, 0x30, 0x14, 0x7f, 0x9f, 0xdf, 0x0c, 0x19, 0x43, 0xca, 0x30, 0xc3, 0x00, 0xf9, 0x01, 0xe3, 0x3c, 0x4d, 0x21, 0x35, 0x66, 0x39, 0x4f, 0x53, 0x23, 0xe7, 0xd5, 0xfd, 0xe9, 0xc8, 0xa5, 0xb7, 0xbb, 0xf2, 0xf9, 0xc5, 0xb3, 0x6a, 0xbe, 0x3f, 0x38, 0x53, 0xaf, 0xf1, 0xc2, 0xe0, 0x3f, 0x15, 0x30, 0x97, 0xa4, 0x1f, 0xff, 0x81, 0x2e, 0xc0, 0x27, 0x19, 0xfa, 0x10, 0x02, 0xf4, 0xbf, 0xea, 0x55, 0x27, 0x0e, 0x79, 0xc1, 0xb9, 0xef, 0x1f, 0xe6, 0xb5, 0xd7, 0xc0, 0xaf, 0xb8, 0xb3, 0xcb, 0x55, 0x65, 0x5f, 0x56, 0x3e, 0xdd, 0x54, 0x72, 0xee, 0x4f, 0xd2, 0xe8, 0x58, 0xb0, 0x9c, 0xe5, 0x14, 0x2c, 0xf6, 0xe8, 0x7f, 0x96, 0x34, 0xdd, 0x05, 0xe7, 0x6b, 0x30, 0x55, 0x32, 0xde, 0x41, 0xf8, 0x1f, 0x7a, 0x34, 0xfd, 0x25, 0x25, 0x15, 0x02, 0xe8, 0x5e, 0x5f, 0xcd, 0xc4, 0xec, 0x0c, 0x10, 0x9a, 0xf4, 0xb4, 0x52, 0xca, 0x52, 0x27, 0xd0, 0xf3, 0xe2, 0x54, 0xf2, 0xfc, 0x33, 0x2e, 0xa1, 0x90, 0xe7, 0xc9, 0x91, 0x08, 0xb3, 0xa6, 0x1d, 0xf0, 0x25, 0x03, 0xb1, 0x2f, 0x10, 0x53, 0x30, 0x0f, 0x56, 0xcc, 0xd4, 0x4f, 0x21, 0xa5, 0x4e, 0x39, 0x16, 0xdb, 0x2f, 0x23, 0xf5, 0x5a, 0xe9, 0xe1, 0xe4, 0xbb, 0xf2, 0xca, 0x28, 0x50, 0xa0, 0x11, 0x02, 0x37, 0xbb, 0xc4, 0x31, 0x51, 0xc5, 0xf1, 0xa0, 0x6b, 0xe9, 0x5d, 0x9a, 0x3b, 0x81, 0x1a, 0xfe, 0xfd, 0x54, 0x28, 0x62, 0x3f, 0x08, 0x11, 0x5c, 0x01, 0x02, 0x96, 0xf9, 0x07, 0x39, 0xb2, 0x23, 0x93, 0xe8, 0xab, 0xae, 0x28, 0x4c, 0xab, 0x39, 0x07, 0xe4, 0xc3, 0x6f, 0xdc, 0x62, 0x0f, 0x0f, 0x11, 0xe4, 0x7e, 0xe4, 0x0e, 0xd0, 0xc0, 0xd7, 0x23, 0xda, 0x56, 0x0e, 0x57, 0x0a, 0x63, 0x2c, 0x70, 0x34, 0xc9, 0x05, 0x77, 0xbd, 0xcf, 0x21, 0x92, 0xd8, 0xef, 0x49, 0x44, 0xfb, 0xc2, 0x59, 0x7d, 0x4d, 0xfc, 0x59, 0xe7, 0xa3, 0x41, 0xfd, 0x04, 0xd4, 0xfd, 0xeb, 0x81, 0x71, 0x93, 0x22, 0x98, 0x31, 0x08, 0x4d, 0x5f, 0xf6, 0xdf, 0x84, 0x64, 0x81, 0x16, 0x88, 0x7e, 0xc4, 0x5a, 0xe5, 0x54, 0xcc, 0xd0, 0x7a, 0xb8, 0x43, 0xd8, 0x8d, 0x70, 0x9d, 0x08, 0x24, 0x44, 0xd6, 0xbc, 0xd9, 0x05, 0x48, 0x54, 0x38, 0xf9, 0x58, 0x18, 0x56, 0x68, 0xb4, 0x2c, 0x34, 0x38, 0x08, 0xad, 0x0b, 0x00, 0xa8, 0x1f, 0x23, 0x28, 0x7c, 0x27, 0x77, 0xef, 0x24, 0x24, 0x35, 0x63, 0x21, 0x21, 0x0c, 0x41, 0x50, 0xfb, 0x0f, 0x0f, 0xe0, 0xc9, 0xb2, 0x25, 0xda, 0x06, 0xbf, 0x44, 0xb7, 0x55, 0x95, 0xff, 0x0d, 0xb8, 0x72, 0x81, 0x55, 0x50, 0xe6, 0xec, 0xc4, 0x94, 0xa9, 0xc7, 0x47, 0x90, 0xad, 0xfe, 0x42, 0x5d, 0xa9, 0xd9, 0xd0, 0x02, 0x5f, 0x21, 0x02, 0xc9, 0xf5, 0xaf, 0x3b, 0xb9, 0xec, 0xbe, 0xc3, 0xe6, 0xe8, 0x29, 0x7a, 0xe2, 0xc9, 0xe7, 0x6e, 0x3c, 0x48, 0x5d, 0xbf, 0x59, 0x07, 0x2b, 0xfc, 0x49, 0xd4, 0xe3, 0xbb, 0x10, 0x03, 0xd0, 0x26, 0xd1, 0x21, 0xe9, 0xe1, 0xe1, 0x2d, 0xf4, 0x71, 0x3a, 0xaf, 0x35, 0xc2, 0x7f, 0x17, 0x27, 0x03, 0x76, 0x0c, 0x40, 0x01, 0x39, 0x02, 0x29, 0x17, 0x15, 0xe8, 0xe6, 0xcc, 0xd2, 0x1f, 0x98, 0xfc, 0x17, 0xca, 0xc7, 0x05, 0x47, 0x32, 0x3e, 0x4b, 0x4f, 0x32, 0x19, 0x0e, 0xf3, 0x8d, 0x1a, 0x88, 0xd1, 0xae, 0xcd, 0x51, 0xf2, 0x00, 0xe2, 0xcf, 0x58, 0x0b, 0x01, 0x28, 0x33, 0xcf, 0xfb, 0x22, 0xe5, 0x20, 0x2b, 0xe7, 0x1f, 0xce, 0x44, 0x99, 0x98, 0x0a, 0xf0, 0x39, 0xb2, 0xb0, 0xee, 0x31, 0x20, 0xf5, 0xa3, 0x4c, 0x0e, 0xd9, 0xab, 0x41, 0xd4, 0xf4, 0x81, 0xed, 0xe1, 0x4e, 0x49, 0x09, 0xaf, 0x23, 0xd4, 0x01, 0xf7, 0x9d, 0xe9, 0xf3, 0xbb, 0x92, 0xa6, 0xe0, 0x03, 0xdd, 0xf8, 0xf9, 0x17, 0x70, 0x2b, 0x98, 0x69, 0xa8, 0xe3, 0xf7, 0xc7, 0x26, 0x88, 0xca, 0x0b, 0x1d, 0xf3, 0x9d, 0x52, 0x19, 0xe0, 0xc3, 0x68, 0xb8, 0x1a, 0xaa, 0x8e, 0x10, 0xd6, 0xe5, 0xd9, 0xd6, 0xe9, 0xde, 0xc4, 0x11, 0xed, 0x25, 0xf0, 0xc4, 0xe8, 0x2f, 0xe4, 0xf7, 0xbc, 0x12, 0x01, 0xd0, 0x56, 0xaf, 0x37, 0x1e, 0x3b, 0xf1, 0xe4, 0x0e, 0x81, 0xbe, 0xaf, 0x02, 0xe9, 0x2d, 0x24, 0x4d, 0x4d, 0x3a, 0xfc, 0x14, 0x7b, 0xfb, 0x27, 0xf1, 0x1d, 0xff, 0xa0, 0xbe, 0xb4, 0xb0, 0x19, 0x01, 0x03, 0x8e, 0x1c, 0xc4, 0x02, 0x19, 0x75, 0x0a, 0x2c, 0xdb, 0xa8, 0xf8, 0xfe, 0xf2, 0xb2, 0xc9, 0xe5, 0xcd, 0x81, 0x1d, 0xdb, 0xfd, 0x03, 0xad, 0xf5, 0x35, 0xe6, 0xdb, 0xcf, 0x0d, 0x3b, 0xd5, 0x45, 0xd0, 0x0e, 0xc0, 0x2d, 0x12, 0xed, 0xfc, 0x86, 0xc2, 0xee, 0x10, 0x02, 0xfc, 0x28, 0x51, 0x14, 0x16, 0xda, 0x2e, 0x47, 0xe3, 0x1c, 0xdb, 0x35, 0x2a, 0xd9, 0xcf, 0xec, 0xed, 0xed, 0x2d, 0xe5, 0x57, 0xc7, 0x2c, 0x0a, 0xef, 0x9d, 0xff, 0xe6, 0x10, 0x4b, 0xc1, 0xfb, 0xbd, 0x3d, 0x1e, 0xd7, 0xf3, 0x7f, 0xe4, 0xd6, 0x12, 0x01, 0x50, 0x20, 0xe1, 0xe7, 0xe1, 0x15, 0xef, 0xcd, 0x15, 0xca, 0x50, 0x0b, 0xfe, 0xca, 0x1e, 0x05, 0x16, 0x43, 0xec, 0x23, 0x03, 0x28, 0xbe, 0xbe, 0xb7, 0xea, 0xad, 0xde, 0xe6, 0x85, 0x23, 0xed, 0x41, 0xcc, 0xf3, 0x2b, 0x29, 0x10, 0x21, 0x2a, 0x1f, 0xa2, 0x3c, 0xf7, 0x36, 0xe4, 0x3f, 0xc5, 0x60, 0xbf, 0x44, 0xdd, 0x03, 0x25, 0x92, 0xfc, 0xd9, 0x04, 0x19, 0x34, 0x43, 0x1e, 0x85, 0xf8, 0x28, 0xff, 0xb5, 0xc1, 0x68, 0x55, 0x0b, 0x02, 0x8d, 0x06, 0xf5, 0x3a, 0x9a, 0x3a, 0x86, 0x28, 0x4f, 0xff, 0xfe, 0x08, 0x6a, 0x14, 0xc1, 0x40, 0x24, 0x02, 0x2d, 0x0a, 0x81, 0xf4, 0x4e, 0xb4, 0x37, 0x98, 0xc1, 0xbe, 0xd2, 0xef, 0x08, 0xf2, 0xcb, 0xf8, 0x71, 0x81, 0x23, 0xaa, 0xff, 0xc4, 0x37, 0x20, 0xe5, 0x3e, 0x97, 0xf0, 0x14, 0xdf, 0xc4, 0xb3, 0xce, 0x04, 0x60, 0xb1, 0xa3, 0xbc, 0x47, 0x35, 0xf8, 0xfe, 0x02, 0xd8, 0x3c, 0x1f, 0xde, 0xd2, 0x5c, 0x35, 0x37, 0x28, 0xf6, 0x21, 0xe5, 0xfa, 0x32, 0xf9, 0xf8, 0x3e, 0xa3, 0x15, 0x08, 0x3c, 0x08, 0xe3, 0xf6, 0x15, 0x0c, 0xdf, 0x4d, 0x89, 0xbf, 0xef, 0x1b, 0xf4, 0xc6, 0x0c, 0x52, 0xaa, 0x36, 0x48, 0x7a, 0xc0, 0x04, 0xe1, 0x20, 0xac, 0x34, 0xfa, 0xbd, 0x39, 0xb9, 0xc3, 0xe4, 0x82, 0xfb, 0x04, 0x19, 0xf5, 0x89, 0xf1, 0x39, 0x73, 0xdd, 0x93, 0x7f, 0x69, 0x0a, 0xa2, 0xf7, 0x58, 0x1c, 0x40, 0xe5, 0x2a, 0xcd, 0x07, 0x20, 0xb6, 0xea, 0x2a, 0x41, 0x19, 0xf6, 0x51, 0x01, 0x9d, 0xcf, 0xfc, 0xf9, 0xf3, 0x2e, 0x9c, 0x22, 0x0a, 0xab, 0xaa, 0x94, 0xf2, 0xe6, 0xbe, 0xd1, 0x6b, 0xab, 0xb1, 0x90, 0x02, 0x19, 0x33, 0xa2, 0xf8, 0x91, 0xfe, 0xd9, 0x81, 0x34, 0x0f, 0x09, 0x6e, 0x08, 0xf7, 0x23, 0xd7, 0x75, 0xaa, 0xad, 0xbe, 0x4f, 0x3a, 0xe6, 0xfa, 0x5b, 0x45, 0x12, 0x9e, 0xe6, 0xe2, 0x06, 0xc7, 0x6c, 0x03, 0xdc, 0xa4, 0x81, 0xf0, 0xda, 0x9c, 0x08, 0xb5, 0xc4, 0x28, 0x48, 0x52, 0xf4, 0x43, 0x1b, 0x4b, 0xc2, 0x44, 0xf4, 0xe7, 0x09, 0x91, 0xe5, 0xdd, 0xa6, 0x20, 0xb9, 0xce, 0xcb, 0x16, 0x6c, 0x43, 0xa7, 0xe0, 0x46, 0xce, 0xb9, 0x7f, 0xe1, 0xa2, 0x15, 0x3f, 0xf6, 0x36, 0xeb, 0x34, 0x55, 0x73, 0x4d, 0x16, 0x5e, 0x10, 0xaf, 0x46, 0x68, 0xa5, 0x88, 0xe1, 0xf9, 0x10, 0xe9, 0x6a, 0x43, 0x5f, 0x46, 0x55, 0xc6, 0x28, 0x3f, 0xa2, 0x4d, 0x97, 0x4a, 0x9f, 0x84, 0x87, 0x03, 0x5e, 0x6b, 0xf7, 0x4c, 0xf2, 0x2f, 0xf6, 0x73, 0x95, 0xab, 0x08, 0x30, 0xed, 0x71, 0xb4, 0x24, 0xf7, 0x1e, 0x9b, 0x41, 0xd3, 0x2d, 0x7f, 0x06, 0x12, 0xe8, 0x5e, 0x19, 0xd4, 0xf5, 0x3c, 0x1d, 0xe2, 0xf4, 0x03, 0x4e, 0xf5, 0xdf, 0x05, 0xdb, 0x32, 0xe5, 0xe1, 0x02, 0x9c, 0x15, 0xee, 0x15, 0xfd, 0xe1, 0x04, 0x03, 0x62, 0x2c, 0xf7, 0xf1, 0x1f, 0xcf, 0xee, 0x93, 0xfc, 0xa3, 0x17, 0xc9, 0x93, 0x1c, 0x02, 0x1a, 0xc9, 0xf4, 0x59, 0x12, 0xed, 0x0b, 0x23, 0x13, 0x2c, 0x8f, 0xfc, 0xd0, 0x23, 0x17, 0x7f, 0xc8, 0x0c, 0xb4, 0xbb, 0x4d, 0xec, 0x37, 0xce, 0xb2, 0xf4, 0xc7, 0x85, 0x23, 0xe4, 0x16, 0xf4, 0xc4, 0xfb, 0x04, 0x26, 0x17, 0xe0, 0x1b, 0x1a, 0xef, 0x3f, 0xe7, 0x0a, 0xf0, 0x13, 0xdc, 0xde, 0xf0, 0x9e, 0xcc, 0xb7, 0x09, 0xd7, 0x26, 0x1c, 0x4a, 0x07, 0x64, 0xed, 0x36, 0x26, 0xea, 0xf6, 0x08, 0xf1, 0x27, 0xf0, 0xd3, 0xee, 0xd3, 0xc8, 0x3f, 0x03, 0x42, 0xff, 0xe1, 0x2f, 0xc6, 0xe2, 0x17, 0xa6, 0x42, 0x64, 0xf7, 0x41, 0xc8, 0x0e, 0x24, 0x22, 0xe6, 0x34, 0x45, 0x03, 0x07, 0x6a, 0xf1, 0x58, 0xc5, 0xb7, 0xd0, 0x56, 0xa7, 0xc4, 0xc5, 0xbe, 0x13, 0xe2, 0x10, 0x01, 0xe2, 0x01, 0xf1, 0xf2, 0x11, 0x1d, 0xd6, 0x30, 0xc3, 0x08, 0x98, 0x9c, 0xbd, 0x0d, 0xbb, 0xdb, 0xc8, 0xb6, 0x38, 0x93, 0xdb, 0x7f, 0x74, 0x56, 0x4d, 0x18, 0x77, 0x31, 0x41, 0x9d, 0x12, 0x02, 0x55, 0xad, 0x24, 0x10, 0xfa, 0x63, 0xac, 0xfe, 0x9b, 0xc7, 0x24, 0xae, 0x5f, 0x5a, 0xcf, 0x4c, 0x10, 0xcf, 0xef, 0x11, 0x03, 0xcc, 0x19, 0x75, 0xb2, 0xf4, 0xd1, 0xe6, 0x1b, 0xd5, 0x3b, 0x2c, 0xa4, 0x0c, 0xb9, 0x7f, 0x6b, 0xd3, 0xe8, 0x5b, 0xfd, 0xcf, 0xb4, 0xa5, 0x3c, 0x2b, 0x06, 0xe5, 0xef, 0x27, 0xfb, 0xb7, 0x99, 0x4d, 0x5a, 0x29, 0x65, 0xba, 0x3d, 0x7f, 0x1d, 0xce, 0xce, 0x4e, 0x21, 0xbd, 0x3e, 0xc9, 0xae, 0xc6, 0xd9, 0xc3, 0xe8, 0x57, 0x89, 0xe0, 0x8d, 0xe7, 0xcf, 0xe7, 0x60, 0xfb, 0x33, 0x8d, 0x58, 0x64, 0x06, 0xeb, 0xc7, 0x48, 0xfa, 0x99, 0xc1, 0xac, 0xfb, 0x93, 0xdb, 0xeb, 0x11, 0x8b, 0xfb, 0xd7, 0x23, 0xab, 0x7c, 0x1e, 0x4b, 0xbf, 0xd2, 0x49, 0x30, 0x0a, 0xdb, 0x0c, 0xc8, 0x0c, 0x41, 0x4d, 0xd7, 0x00, 0xa9, 0x5c, 0x62, 0xb2, 0xaf, 0x5f, 0xdc, 0xe2, 0xe9, 0x3f, 0xe0, 0xc1, 0x68, 0x79, 0x97, 0x61, 0xae, 0x20, 0xa1, 0xaa, 0xe6, 0x17, 0xf7, 0x63, 0x12, 0x64, 0xd5, 0x50, 0xee, 0x5b, 0xd5, 0x62, 0x10, 0xd9, 0x19, 0xad, 0xb7, 0xf1, 0x4a, 0x54, 0xcf, 0x21, 0x06, 0xb9, 0x6b, 0x03, 0x10, 0xfb, 0xbe, 0xb8, 0x3b, 0x9f, 0x43, 0x27, 0x5f, 0x81, 0x44, 0x8f, 0xac, 0xaf, 0x12, 0x54, 0x47, 0xea, 0xd7, 0x28, 0xad, 0xbd, 0x10, 0x26, 0x91, 0x09, 0xdb, 0xf0, 0x18, 0x02, 0x25, 0x1d, 0x38, 0x07, 0x5a, 0xaf, 0xb9, 0x5d, 0xf9, 0xf9, 0x25, 0xc8, 0xb9, 0xf6, 0x8a, 0x2b, 0xea, 0x20, 0xec, 0xa1, 0x3e, 0x1a, 0xe9, 0x0d, 0x29, 0xbd, 0xdb, 0x3e, 0xc2, 0x32, 0xbf, 0x02, 0x3f, 0xbc, 0x50, 0xb8, 0x7f, 0xdd, 0x65, 0xf5, 0x68, 0x73, 0x6e, 0xe9, 0xb0, 0xe8, 0x1a, 0x77, 0xed, 0x9c, 0x40, 0xf0, 0xd8, 0xfc, 0xff, 0x25, 0x50, 0xd8, 0x1f, 0xf1, 0x1b, 0x8a, 0x08, 0x0b, 0x2e, 0x56, 0xe3, 0x1d, 0xdf, 0x50, 0x34, 0x00, 0x19, 0x7f, 0x02, 0x03, 0xe9, 0x12, 0x49, 0x14, 0xfe, 0x1b, 0x0c, 0xff, 0xe0, 0xd8, 0xee, 0x9a, 0x49, 0xf9, 0x06, 0xde, 0x00, 0x24, 0xf4, 0x64, 0x0e, 0x28, 0xee, 0xf2, 0xd1, 0xdb, 0xc9, 0x00, 0xdf, 0x1d, 0xf2, 0xa8, 0xf4, 0xd5, 0x1d, 0xee, 0xfc, 0x3c, 0x48, 0x0e, 0x01, 0xea, 0xe4, 0x14, 0xc4, 0x3b, 0xfb, 0x09, 0xf7, 0x58, 0xd6, 0xfc, 0xea, 0xc1, 0x0b, 0xf2, 0x16, 0xc3, 0xca, 0x16, 0xde, 0x81, 0xf5, 0x08, 0xe3, 0xdb, 0xb9, 0x0e, 0x2e, 0xeb, 0x1e, 0xd4, 0x13, 0x26, 0x16, 0x26, 0xda, 0x14, 0xe1, 0x1f, 0xda, 0xea, 0xf6, 0x99, 0xce, 0xd7, 0x09, 0x0a, 0xfc, 0x42, 0x50, 0x05, 0x33, 0xfb, 0x1c, 0x66, 0x18, 0x2a, 0xfb, 0x0d, 0x1e, 0xd6, 0xee, 0xdb, 0xe0, 0x0e, 0xf6, 0xff, 0xff, 0x04, 0x00, 0x00, 0x00, 0x00, 0x01, 0x00, 0x00, 0xd5, 0xf1, 0xff, 0xff, 0x9c, 0x0e, 0x00, 0x00, 0xb3, 0xf3, 0xff, 0xff, 0x0c, 0x0e, 0x00, 0x00, 0x71, 0xed, 0xff, 0xff, 0xd4, 0x1a, 0x00, 0x00, 0xd0, 0x14, 0x00, 0x00, 0x6b, 0xfc, 0xff, 0xff, 0x06, 0xf0, 0xff, 0xff, 0x23, 0xe9, 0xff, 0xff, 0x36, 0xef, 0xff, 0xff, 0xb5, 0x07, 0x00, 0x00, 0xc5, 0x07, 0x00, 0x00, 0xda, 0xff, 0xff, 0xff, 0xe0, 0xf7, 0xff, 0xff, 0x03, 0xf3, 0xff, 0xff, 0x26, 0x05, 0x00, 0x00, 0x60, 0x16, 0x00, 0x00, 0x5c, 0xf8, 0xff, 0xff, 0xe8, 0x1e, 0x00, 0x00, 0xf8, 0x1c, 0x00, 0x00, 0xcb, 0xed, 0xff, 0xff, 0xf1, 0xf2, 0xff, 0xff, 0x9e, 0xef, 0xff, 0xff, 0xf3, 0xfe, 0xff, 0xff, 0x7f, 0x0b, 0x00, 0x00, 0x2e, 0xf4, 0xff, 0xff, 0x0d, 0xf4, 0xff, 0xff, 0xbf, 0xf7, 0xff, 0xff, 0xba, 0xf1, 0xff, 0xff, 0x6b, 0x15, 0x00, 0x00, 0x05, 0x0f, 0x00, 0x00, 0x05, 0xf9, 0xff, 0xff, 0x85, 0xef, 0xff, 0xff, 0x07, 0xec, 0xff, 0xff, 0xa0, 0x07, 0x00, 0x00, 0xb9, 0x12, 0x00, 0x00, 0xf1, 0xe6, 0xff, 0xff, 0x63, 0xf9, 0xff, 0xff, 0xee, 0xea, 0xff, 0xff, 0xfb, 0x0e, 0x00, 0x00, 0xfe, 0xdf, 0xff, 0xff, 0xe5, 0x0f, 0x00, 0x00, 0xb0, 0xf3, 0xff, 0xff, 0xec, 0x02, 0x00, 0x00, 0x23, 0x14, 0x00, 0x00, 0x02, 0xfb, 0xff, 0xff, 0x88, 0xec, 0xff, 0xff, 0x43, 0xec, 0xff, 0xff, 0x8f, 0x16, 0x00, 0x00, 0x27, 0xec, 0xff, 0xff, 0x7c, 0x0a, 0x00, 0x00, 0x44, 0xed, 0xff, 0xff, 0xd5, 0x02, 0x00, 0x00, 0xbd, 0xf7, 0xff, 0xff, 0x83, 0x14, 0x00, 0x00, 0x2d, 0xf1, 0xff, 0xff, 0x0a, 0x13, 0x00, 0x00, 0x61, 0x10, 0x00, 0x00, 0x77, 0xff, 0xff, 0xff, 0x4a, 0x05, 0x00, 0x00, 0x22, 0xf2, 0xff, 0xff, 0x54, 0x12, 0x00, 0x00, 0x2d, 0xf0, 0xff, 0xff, 0x1a, 0xf7, 0xff, 0xff, 0x04, 0x00, 0x00, 0x00, 0x00, 0x08, 0x00, 0x00, 0x1b, 0xe5, 0x48, 0x28, 0xfd, 0xe2, 0xcb, 0xd2, 0xda, 0x2d, 0xe1, 0x23, 0xdb, 0xdc, 0x33, 0x6a, 0x05, 0x4f, 0xf1, 0xb8, 0xcc, 0xd5, 0x7f, 0x00, 0x41, 0x96, 0xee, 0x55, 0x7f, 0xff, 0xe2, 0x10, 0x77, 0x05, 0xae, 0xc7, 0xeb, 0x0f, 0xd0, 0xcd, 0xf9, 0x11, 0x1f, 0x9c, 0xc3, 0xfd, 0xf9, 0xd5, 0x3b, 0xe5, 0x3f, 0x43, 0x51, 0xac, 0xe0, 0xe7, 0x02, 0x21, 0x3d, 0xce, 0xfd, 0xad, 0xe6, 0xc8, 0xb6, 0xfa, 0xc5, 0xd6, 0xda, 0x51, 0x7f, 0x0d, 0xca, 0xb2, 0xfc, 0x14, 0x54, 0x27, 0xc6, 0xd4, 0xf2, 0x08, 0x29, 0xfe, 0x4b, 0x14, 0xe0, 0x21, 0x15, 0xd4, 0xc2, 0x2d, 0x08, 0x21, 0x27, 0xc6, 0xf1, 0xbf, 0x19, 0x0b, 0xef, 0x0f, 0xd3, 0x22, 0x33, 0xd7, 0x19, 0x16, 0xd7, 0x01, 0x38, 0xc4, 0xd4, 0xf4, 0x20, 0x2d, 0xb2, 0x5e, 0xc8, 0x03, 0xe4, 0x35, 0x15, 0x4d, 0xfc, 0x31, 0x07, 0xce, 0xe2, 0x3d, 0x04, 0x38, 0xe5, 0x15, 0x35, 0x21, 0xbe, 0xeb, 0xd2, 0x2c, 0xf4, 0x15, 0xe3, 0xed, 0xf0, 0x29, 0xef, 0xf6, 0xfc, 0xcf, 0xc1, 0xf6, 0xf6, 0x03, 0xe4, 0xe5, 0xe5, 0x23, 0x1c, 0x15, 0x05, 0xf7, 0xdb, 0xe5, 0x27, 0xd0, 0x19, 0xe7, 0x31, 0xf0, 0x16, 0xe3, 0xfa, 0x34, 0x21, 0xaa, 0xd7, 0x22, 0xc8, 0xea, 0x09, 0x11, 0xf7, 0x3b, 0xf6, 0xf9, 0x31, 0x0a, 0xf1, 0xcc, 0x7f, 0x96, 0xe4, 0x02, 0xed, 0x29, 0xdc, 0x17, 0xe8, 0xba, 0x81, 0xae, 0xc9, 0xf3, 0xf0, 0xf4, 0x05, 0x28, 0xde, 0x4b, 0x13, 0xcc, 0x09, 0xeb, 0x1b, 0xc5, 0xdf, 0x30, 0xc5, 0xcc, 0xd4, 0xcf, 0x11, 0x76, 0xa8, 0xf3, 0x01, 0xd4, 0x33, 0xb8, 0x90, 0xcd, 0x40, 0xf3, 0x44, 0x0f, 0xe2, 0x5a, 0x0f, 0xf0, 0xc1, 0x6e, 0x37, 0x07, 0xcc, 0x2b, 0xee, 0x37, 0x93, 0x16, 0x16, 0xa8, 0xc1, 0xfc, 0x71, 0xdb, 0x10, 0xf0, 0x29, 0x55, 0xf1, 0xcf, 0xa1, 0x81, 0xd6, 0xcb, 0xa4, 0x56, 0xde, 0xa1, 0x5d, 0xf1, 0x2f, 0x79, 0xf5, 0xb4, 0xfe, 0xaa, 0xa9, 0xa4, 0x47, 0x3f, 0xbd, 0x4c, 0xdc, 0x4c, 0xd0, 0x4a, 0x37, 0x4f, 0x57, 0x31, 0xc9, 0x98, 0x94, 0xf1, 0xf5, 0xba, 0xb1, 0x0c, 0x9d, 0xbc, 0xab, 0xf2, 0x3d, 0xd7, 0xbd, 0xe9, 0x19, 0x4c, 0x35, 0x31, 0x19, 0x08, 0xf9, 0xbd, 0x1b, 0x08, 0x79, 0xa0, 0xef, 0x43, 0x40, 0x19, 0xec, 0x12, 0x28, 0x9c, 0x85, 0x09, 0xbd, 0x3f, 0xed, 0x1e, 0x03, 0x0f, 0xeb, 0x4e, 0xb3, 0xc2, 0xd7, 0xe3, 0x1c, 0xbc, 0x73, 0x25, 0x81, 0x43, 0x48, 0xc3, 0x48, 0x0e, 0x5b, 0xc2, 0xfd, 0xb9, 0x68, 0xfc, 0x13, 0xb6, 0x35, 0x27, 0x60, 0xcd, 0xa8, 0x6b, 0x18, 0xc1, 0xbd, 0x51, 0xf5, 0x1c, 0xdd, 0xcf, 0x35, 0x59, 0xeb, 0x26, 0x4f, 0xc3, 0x17, 0xd2, 0x38, 0xa1, 0x72, 0x32, 0x4c, 0x20, 0xe3, 0xc2, 0x1a, 0x98, 0x11, 0x36, 0xff, 0x75, 0x25, 0xaf, 0x30, 0x2d, 0xeb, 0x51, 0xa8, 0x1f, 0xec, 0xe5, 0x7f, 0x01, 0x6a, 0x94, 0xd3, 0x5c, 0x1f, 0xc2, 0x46, 0x2f, 0x1e, 0x34, 0x85, 0xbd, 0x68, 0x3b, 0xf6, 0xfa, 0x2a, 0x2c, 0x1b, 0xe2, 0x87, 0xce, 0x95, 0x00, 0x1e, 0x4f, 0x57, 0x1e, 0x4a, 0xb5, 0xfb, 0x68, 0xf7, 0x35, 0xde, 0xef, 0x2b, 0x04, 0x02, 0xb7, 0x17, 0x45, 0x1a, 0x38, 0xce, 0x58, 0xe0, 0xb6, 0xdf, 0xef, 0x17, 0x29, 0xd8, 0x11, 0x31, 0xd1, 0x3f, 0x4a, 0xb5, 0xda, 0x22, 0x11, 0xec, 0x81, 0xe5, 0x27, 0xbb, 0xfe, 0x27, 0x25, 0x1f, 0x49, 0xed, 0xf5, 0xbf, 0x0a, 0x5c, 0xcb, 0x3a, 0xe5, 0xdd, 0xc3, 0xd8, 0x2c, 0x15, 0x47, 0xeb, 0xcb, 0x03, 0x79, 0x0b, 0x1b, 0x06, 0xbb, 0xcb, 0x48, 0xcb, 0x35, 0x64, 0x15, 0x10, 0xfa, 0x58, 0x8c, 0x35, 0xdd, 0x18, 0xb2, 0x0b, 0x9c, 0xad, 0x04, 0x3d, 0xef, 0xe5, 0x29, 0xf5, 0x9c, 0xc0, 0x23, 0xd8, 0x1a, 0xf7, 0x12, 0xb9, 0x57, 0x2f, 0x76, 0xec, 0xd7, 0xc6, 0x7e, 0x47, 0x30, 0xd1, 0x9c, 0x6f, 0x03, 0xc2, 0x33, 0x95, 0x50, 0xee, 0x29, 0x01, 0x2c, 0xc2, 0xcf, 0x28, 0xe4, 0x19, 0x26, 0x06, 0x06, 0x66, 0xb3, 0x46, 0xdc, 0xf3, 0xee, 0xd1, 0x1c, 0xdb, 0xeb, 0xb9, 0xe2, 0x81, 0x5b, 0xb1, 0xcb, 0x9b, 0xe8, 0x0c, 0x44, 0x37, 0xfb, 0x4a, 0xba, 0x00, 0x49, 0x00, 0x0b, 0xc6, 0xf1, 0x13, 0xe2, 0x25, 0x2b, 0x7d, 0xd1, 0x43, 0x1b, 0xac, 0x26, 0xb6, 0xb9, 0xef, 0xf2, 0x28, 0xd4, 0x23, 0xe5, 0x35, 0xf4, 0x51, 0x0a, 0xf0, 0x31, 0x1f, 0x81, 0xd0, 0x3f, 0x1c, 0xeb, 0x33, 0xf8, 0x9d, 0x4c, 0xf6, 0xda, 0xf0, 0xc6, 0xe5, 0x70, 0x2d, 0x03, 0x5b, 0x42, 0xd6, 0xfe, 0x41, 0xae, 0xa2, 0x0f, 0xeb, 0x0f, 0x34, 0x0d, 0x17, 0x29, 0xf2, 0x0c, 0x2a, 0xb6, 0x28, 0x14, 0xaa, 0x93, 0xf0, 0xde, 0x0d, 0x18, 0x27, 0x12, 0x81, 0x01, 0xbd, 0x3f, 0x0d, 0xba, 0xd0, 0x01, 0x04, 0xe2, 0xa2, 0x18, 0x17, 0x0c, 0xe4, 0xba, 0x0b, 0x16, 0xe6, 0xc7, 0xdc, 0x3e, 0x27, 0xf6, 0x18, 0x18, 0xe7, 0x0d, 0xb1, 0xf4, 0xc5, 0x25, 0xe4, 0x08, 0x1d, 0x0c, 0x02, 0x55, 0xf1, 0x1e, 0xfc, 0xf2, 0xac, 0xe3, 0x01, 0x2d, 0xbc, 0x7f, 0x07, 0xd6, 0x29, 0xf9, 0xfb, 0xe5, 0x51, 0xfd, 0xa6, 0xf5, 0x55, 0x53, 0x54, 0x5c, 0x5b, 0xb9, 0x33, 0x03, 0x1d, 0x6c, 0x4e, 0xba, 0x08, 0xfa, 0x4a, 0x08, 0xbb, 0x9e, 0xbe, 0xd1, 0xb7, 0xc6, 0xde, 0xc6, 0xe7, 0x10, 0x0a, 0x3f, 0xdf, 0xb4, 0xd0, 0xc0, 0xe8, 0x41, 0x02, 0x47, 0xb5, 0x4e, 0xc8, 0x53, 0xde, 0xd7, 0xb9, 0x79, 0xb7, 0xeb, 0x1a, 0xce, 0x00, 0xcf, 0xd2, 0xbc, 0x1d, 0x1c, 0x3a, 0x39, 0x29, 0xbe, 0x1d, 0x81, 0x07, 0x2e, 0xcd, 0xb1, 0xff, 0x96, 0x68, 0x3d, 0x1d, 0x28, 0x84, 0xfd, 0xfc, 0x37, 0x2f, 0xb1, 0xbc, 0x6e, 0xb4, 0x93, 0xb7, 0x17, 0x4c, 0xe9, 0xd0, 0xb3, 0x50, 0x49, 0xb2, 0xe5, 0x9f, 0x69, 0x62, 0xa5, 0x6d, 0xe3, 0xff, 0x10, 0xc3, 0x2e, 0x10, 0x3e, 0xff, 0x92, 0x52, 0xc8, 0xfa, 0x1e, 0xc3, 0xe8, 0xb8, 0xe3, 0x2e, 0x01, 0xf3, 0xef, 0x71, 0xe4, 0xa0, 0xc7, 0x33, 0x19, 0x21, 0x1f, 0x16, 0x1e, 0xfc, 0x22, 0xe1, 0xad, 0x2c, 0xba, 0xdd, 0x57, 0xf2, 0x22, 0x2d, 0xf2, 0x00, 0xeb, 0xee, 0x29, 0x9d, 0xeb, 0x1d, 0x36, 0x49, 0xea, 0xa1, 0xe0, 0x31, 0x0c, 0xb9, 0x61, 0x07, 0x1d, 0xc3, 0xe6, 0xff, 0x4c, 0x53, 0xa4, 0xd7, 0xc8, 0x19, 0xd1, 0xe1, 0xa3, 0x7f, 0xcd, 0x21, 0xd8, 0xcd, 0xfb, 0x82, 0x36, 0xe2, 0xc2, 0xd2, 0xd8, 0x3c, 0x3e, 0x2e, 0x27, 0x02, 0x25, 0xfd, 0xd2, 0xe8, 0x14, 0xf9, 0x88, 0x15, 0xba, 0x4b, 0xeb, 0xec, 0x50, 0x81, 0x4b, 0xee, 0xf7, 0x2d, 0x91, 0x9e, 0x25, 0xe6, 0xc8, 0xc7, 0x52, 0x46, 0xed, 0x94, 0xcd, 0x05, 0x44, 0xad, 0xde, 0x0f, 0x4c, 0x63, 0xb5, 0x5d, 0x5d, 0x00, 0xfc, 0xdf, 0xd5, 0xd9, 0x40, 0xd9, 0xed, 0x33, 0xd6, 0x12, 0x4b, 0xcc, 0x21, 0xed, 0xdf, 0x35, 0xe5, 0x49, 0x22, 0xf3, 0x81, 0xa3, 0x09, 0x0d, 0x20, 0x14, 0xfe, 0xe3, 0xfe, 0x0d, 0x72, 0x1d, 0x06, 0xf4, 0xa4, 0xf3, 0xcc, 0x70, 0x09, 0x4a, 0xad, 0xf1, 0x37, 0x35, 0xf6, 0xfe, 0x3b, 0x5f, 0x35, 0xd5, 0x18, 0x1c, 0x4f, 0x08, 0xc2, 0x07, 0x7b, 0x3e, 0xc5, 0xdf, 0x3f, 0xd8, 0x25, 0xf5, 0x0d, 0x37, 0xf1, 0x20, 0xc4, 0xff, 0x2f, 0xee, 0x41, 0x3b, 0xfc, 0x1d, 0x14, 0xb3, 0x2c, 0x2f, 0xe6, 0xd1, 0x91, 0x16, 0xa3, 0xb3, 0x0f, 0xb9, 0x7f, 0xf3, 0xf7, 0x4c, 0xa0, 0x4f, 0xc9, 0xb8, 0xd8, 0xaf, 0x98, 0x0a, 0xe6, 0x06, 0x78, 0x50, 0xa8, 0xb2, 0x60, 0x2c, 0xcf, 0x10, 0xa3, 0x9b, 0x3a, 0xcc, 0x50, 0xbd, 0x52, 0xf7, 0xd3, 0x55, 0xdf, 0x1f, 0x54, 0xcf, 0x27, 0x4c, 0x7d, 0x21, 0xd9, 0x54, 0x3f, 0x36, 0x24, 0x54, 0xe2, 0x13, 0xf5, 0x09, 0x15, 0x4e, 0x18, 0xfb, 0x6c, 0xaa, 0xe7, 0x16, 0xe1, 0x4c, 0xf9, 0x64, 0xda, 0xd9, 0xae, 0xa5, 0x75, 0x33, 0xf7, 0xdb, 0xb0, 0xa2, 0x51, 0xfd, 0x03, 0x14, 0xe5, 0xd7, 0xcc, 0x44, 0xfd, 0x1b, 0x05, 0x3e, 0xe7, 0x4f, 0x63, 0xd3, 0xf3, 0x9d, 0xf9, 0xe1, 0x40, 0xa0, 0x17, 0x39, 0x47, 0x2e, 0xbd, 0xbf, 0x1d, 0x47, 0x9e, 0x09, 0xf8, 0xd0, 0x3b, 0x97, 0xc3, 0x10, 0xcc, 0x93, 0x27, 0x57, 0x40, 0x28, 0xcf, 0x7f, 0xde, 0xa4, 0x03, 0xa9, 0x02, 0x0d, 0x30, 0x4b, 0x45, 0x04, 0xc0, 0x0c, 0xe0, 0xe6, 0x21, 0xbf, 0x81, 0xff, 0x08, 0x2c, 0x47, 0x2e, 0x00, 0x87, 0xf2, 0xbb, 0x10, 0x06, 0x9e, 0xc8, 0x31, 0x2a, 0xea, 0xd7, 0x00, 0x26, 0xe3, 0x12, 0x98, 0x17, 0x1b, 0x20, 0xc0, 0xc9, 0x3e, 0x2b, 0x12, 0x16, 0x10, 0xea, 0xff, 0xd7, 0xf4, 0xaa, 0xf8, 0xfb, 0x25, 0xf1, 0xfd, 0xdb, 0x3f, 0xf4, 0xef, 0x11, 0xfc, 0x03, 0xd4, 0xf1, 0xc2, 0x7f, 0xd9, 0xd3, 0x0a, 0x35, 0x21, 0x4b, 0xb2, 0xec, 0x25, 0xec, 0xf6, 0xfe, 0xa1, 0x25, 0xfd, 0xe9, 0x2e, 0xe6, 0x49, 0xea, 0x1b, 0x5c, 0xe3, 0xea, 0x3d, 0xe5, 0x94, 0xf4, 0x42, 0x43, 0x1d, 0x9c, 0x1c, 0x55, 0x3f, 0xc6, 0x0e, 0xc0, 0x34, 0x15, 0x9d, 0xff, 0x37, 0x26, 0xd1, 0xfb, 0xcd, 0x24, 0xf9, 0x07, 0xa0, 0x73, 0xcd, 0xe4, 0xf3, 0xeb, 0x02, 0xd1, 0x45, 0xe2, 0xf4, 0xcd, 0x22, 0xdc, 0x28, 0x54, 0x3e, 0xa2, 0x9b, 0xd5, 0xb8, 0x05, 0x13, 0xf6, 0xe1, 0x5e, 0xdf, 0xdd, 0xfc, 0x00, 0xd4, 0x06, 0xe3, 0xd9, 0x5d, 0xc9, 0x96, 0x8e, 0xc4, 0x09, 0xfd, 0x21, 0x21, 0xe1, 0x24, 0x2b, 0x22, 0xcf, 0x39, 0x37, 0x81, 0xee, 0x34, 0xca, 0xc8, 0x52, 0xe5, 0xb5, 0x66, 0x94, 0xb7, 0xec, 0x29, 0x28, 0xba, 0x27, 0x3e, 0x04, 0x3f, 0xc4, 0xaf, 0x30, 0xe1, 0x34, 0xec, 0x5e, 0xec, 0xdc, 0xff, 0xea, 0xd9, 0x32, 0x0f, 0xf8, 0x06, 0xee, 0x01, 0x1c, 0x63, 0xcd, 0xce, 0xce, 0xa7, 0xc9, 0xe2, 0x51, 0x2b, 0x3e, 0x12, 0xa5, 0x41, 0x23, 0xd9, 0xbd, 0xdb, 0xfb, 0xc2, 0xf0, 0xe4, 0x06, 0x7f, 0xea, 0x45, 0x00, 0x5e, 0x1c, 0x3a, 0xb1, 0xe4, 0xf0, 0x41, 0x07, 0x23, 0x17, 0xfb, 0x66, 0xd6, 0x1e, 0x24, 0x29, 0xea, 0x23, 0xf9, 0x0c, 0x01, 0xf2, 0x4b, 0xb1, 0x3a, 0xe3, 0x22, 0xd6, 0x0d, 0x7f, 0x68, 0xd1, 0xf9, 0x2e, 0xbb, 0x0a, 0x28, 0x2d, 0xe1, 0xd6, 0x1f, 0x24, 0x49, 0x5b, 0x3e, 0x23, 0x9e, 0x1d, 0x59, 0xd9, 0xec, 0xbe, 0x49, 0xed, 0x4d, 0x25, 0xd4, 0x07, 0x53, 0xfd, 0x03, 0x2c, 0xe5, 0x33, 0xc9, 0xfa, 0x17, 0xe2, 0x5d, 0x05, 0xeb, 0x96, 0x1f, 0xd8, 0x3b, 0xbc, 0x0a, 0x01, 0xec, 0xdf, 0x1d, 0xd9, 0x61, 0xb9, 0xf7, 0xf4, 0xe4, 0xe1, 0x0c, 0xe2, 0x18, 0xe8, 0x2a, 0x2c, 0xf5, 0xbb, 0xd3, 0xea, 0xfc, 0x2c, 0xfb, 0x0b, 0x0e, 0xfa, 0x2c, 0xed, 0x4c, 0x47, 0xe1, 0xd4, 0xb1, 0x22, 0xf9, 0xf7, 0xc3, 0x11, 0xf4, 0x5c, 0x3f, 0xc5, 0xb0, 0xe2, 0x0e, 0x55, 0xef, 0xd8, 0xba, 0x02, 0xc6, 0x2c, 0xe2, 0x23, 0x1b, 0xf6, 0x8c, 0xc0, 0x6a, 0xc4, 0xd9, 0xc8, 0x29, 0x18, 0x57, 0xb5, 0x10, 0x31, 0x05, 0x2c, 0xf3, 0x7f, 0x88, 0x3f, 0x3c, 0x0d, 0x06, 0xc8, 0x06, 0x41, 0xed, 0x9e, 0xc8, 0x8e, 0x59, 0xe5, 0xa7, 0x28, 0xf1, 0xfd, 0x1c, 0x00, 0x36, 0x1c, 0x83, 0x4a, 0x08, 0x7f, 0xcb, 0xa7, 0x22, 0x3c, 0xae, 0x3f, 0x05, 0x33, 0xf3, 0xa2, 0xfc, 0x7a, 0xef, 0xbe, 0xab, 0x34, 0x31, 0x18, 0xbb, 0x06, 0x5f, 0xbe, 0xd8, 0xae, 0x03, 0xd2, 0x42, 0x17, 0x9d, 0xe3, 0x33, 0x82, 0x44, 0x1a, 0xd2, 0xf8, 0xc8, 0x2d, 0x93, 0x49, 0x7c, 0xe1, 0xf3, 0x95, 0xf9, 0xe3, 0x29, 0x06, 0x13, 0x1f, 0xf5, 0xc4, 0x1e, 0xbe, 0x2b, 0xbb, 0x59, 0xcc, 0xdf, 0x54, 0x0b, 0x08, 0xd4, 0x27, 0x1a, 0xfc, 0xfd, 0xc1, 0x12, 0x7f, 0x49, 0xcd, 0x2f, 0x9b, 0x9f, 0x2a, 0xe3, 0xa6, 0xb7, 0xe6, 0xb1, 0x4d, 0xf6, 0xe5, 0xf9, 0xd4, 0x0e, 0xb2, 0x6c, 0xe3, 0xb5, 0x2b, 0xd5, 0xc6, 0x7e, 0xab, 0x48, 0x5f, 0xe4, 0xbe, 0x33, 0x47, 0xb6, 0xc8, 0x02, 0xb4, 0x72, 0x16, 0x28, 0x51, 0x5c, 0xbc, 0xc8, 0xfb, 0xb3, 0x73, 0x4e, 0x8c, 0x11, 0x10, 0x7f, 0xf1, 0x5f, 0x71, 0x05, 0x29, 0x18, 0xa1, 0x29, 0x38, 0x4f, 0xbf, 0xa3, 0x70, 0xca, 0xca, 0xfa, 0xb9, 0xba, 0x41, 0x9c, 0xe4, 0xdf, 0x14, 0x9a, 0xb3, 0x0d, 0xbb, 0x36, 0x19, 0x32, 0x11, 0x06, 0xa6, 0xd6, 0xe1, 0x7a, 0xef, 0x3b, 0xa5, 0x18, 0xc5, 0x1c, 0x59, 0x1d, 0x4b, 0xfe, 0x06, 0xb4, 0x05, 0xee, 0x79, 0xfa, 0xf3, 0x1f, 0x78, 0x48, 0x2e, 0x89, 0xf1, 0xff, 0xc6, 0xdb, 0xfe, 0x09, 0x32, 0xfa, 0xf5, 0x32, 0x0a, 0x67, 0x97, 0x13, 0x61, 0xb3, 0xf6, 0x34, 0xb3, 0x81, 0xe6, 0x53, 0x0c, 0xdd, 0x9f, 0xdf, 0x59, 0x04, 0xa7, 0xe2, 0xb1, 0xf8, 0x6e, 0xc2, 0x4a, 0x53, 0xe8, 0x9b, 0xd3, 0xc8, 0xe8, 0x5c, 0xda, 0xfe, 0x61, 0x00, 0xa5, 0x35, 0xc3, 0x2f, 0xf8, 0xf7, 0x1c, 0x64, 0xa5, 0xee, 0xee, 0x4c, 0x30, 0xef, 0xc2, 0xc5, 0xf1, 0xf6, 0xde, 0x30, 0xa2, 0xcb, 0xc4, 0x08, 0x4c, 0x5d, 0x27, 0x26, 0xd9, 0xfe, 0xb5, 0x34, 0x3e, 0x37, 0xf2, 0xfb, 0x28, 0x14, 0xef, 0x88, 0x64, 0x53, 0xc2, 0x81, 0x0d, 0xc6, 0x20, 0xa9, 0xc3, 0xb4, 0xcc, 0x4b, 0x74, 0xba, 0x8c, 0xd9, 0xdc, 0xbb, 0xce, 0x5a, 0xe6, 0x25, 0xb4, 0xc0, 0x44, 0xec, 0x01, 0x17, 0x65, 0x86, 0xf8, 0x38, 0xe0, 0x48, 0xa5, 0x39, 0x24, 0xed, 0xd7, 0xd4, 0xba, 0x54, 0x06, 0x09, 0xfe, 0x01, 0x25, 0x56, 0xcb, 0x25, 0x52, 0xa3, 0x3b, 0xad, 0x24, 0x0b, 0xb6, 0x1e, 0xd0, 0xce, 0x25, 0x41, 0x2e, 0xc0, 0xb8, 0x13, 0x74, 0xd6, 0x13, 0xca, 0x49, 0xd7, 0x50, 0xea, 0xc4, 0x58, 0xd4, 0xc4, 0xbc, 0x2e, 0x1b, 0x3a, 0x26, 0xd0, 0xd5, 0x62, 0xac, 0x1c, 0x44, 0x1f, 0x27, 0xce, 0x7f, 0xe8, 0xe0, 0xd2, 0x2d, 0xc3, 0x46, 0xfc, 0x00, 0xe1, 0x52, 0x4c, 0xfb, 0x00, 0x08, 0x1a, 0xf7, 0xd9, 0xdf, 0xc8, 0x2c, 0xe9, 0xd7, 0x22, 0x28, 0x48, 0x0e, 0xfe, 0x2e, 0x01, 0xe5, 0x23, 0x85, 0xcd, 0x18, 0x55, 0xef, 0xfa, 0xb0, 0x14, 0x3d, 0x18, 0xd6, 0xfa, 0xf9, 0x06, 0xd0, 0xaf, 0x2a, 0x64, 0x4f, 0xbe, 0xf7, 0x0b, 0xfb, 0xf3, 0x20, 0xc6, 0x57, 0xd5, 0x16, 0xfd, 0xe7, 0x45, 0xd1, 0x7f, 0xa1, 0x13, 0xf2, 0x19, 0x43, 0x39, 0xe6, 0xf6, 0x3a, 0x17, 0x69, 0xa9, 0x37, 0x16, 0xa6, 0x86, 0xfc, 0x81, 0x01, 0x26, 0x20, 0x50, 0xba, 0x36, 0xbc, 0x39, 0x5a, 0xa0, 0xa6, 0x6d, 0xf9, 0xbd, 0x90, 0xdd, 0x24, 0x27, 0xcb, 0xa6, 0x38, 0x34, 0xde, 0xca, 0xec, 0x25, 0x34, 0x99, 0x54, 0x0a, 0xec, 0xef, 0x16, 0x0f, 0xa4, 0x1d, 0xe5, 0xb8, 0x30, 0xac, 0xd9, 0x41, 0x0f, 0x2e, 0xb7, 0xed, 0x26, 0xff, 0xff, 0xff, 0x04, 0x00, 0x00, 0x00, 0x80, 0x00, 0x00, 0x00, 0x72, 0xf5, 0xff, 0xff, 0xda, 0x04, 0x00, 0x00, 0x99, 0x08, 0x00, 0x00, 0x09, 0x01, 0x00, 0x00, 0xb0, 0xfc, 0xff, 0xff, 0xc0, 0x06, 0x00, 0x00, 0x5a, 0x01, 0x00, 0x00, 0xf4, 0x0f, 0x00, 0x00, 0x0f, 0xfa, 0xff, 0xff, 0x27, 0x0d, 0x00, 0x00, 0xc3, 0x06, 0x00, 0x00, 0xef, 0x0b, 0x00, 0x00, 0x6a, 0xfc, 0xff, 0xff, 0x22, 0xfd, 0xff, 0xff, 0x2c, 0xfc, 0xff, 0xff, 0x0c, 0xf3, 0xff, 0xff, 0xb1, 0xf5, 0xff, 0xff, 0x7d, 0x0d, 0x00, 0x00, 0xc2, 0x03, 0x00, 0x00, 0x9e, 0xfa, 0xff, 0xff, 0xac, 0x0d, 0x00, 0x00, 0x69, 0xf4, 0xff, 0xff, 0x51, 0x06, 0x00, 0x00, 0x6f, 0x0a, 0x00, 0x00, 0xf5, 0x08, 0x00, 0x00, 0x59, 0x0c, 0x00, 0x00, 0x62, 0xff, 0xff, 0xff, 0x22, 0xfa, 0xff, 0xff, 0x6f, 0x0e, 0x00, 0x00, 0xf8, 0x0a, 0x00, 0x00, 0xba, 0xfd, 0xff, 0xff, 0xa2, 0xfd, 0xff, 0xff, 0xb2, 0xff, 0xff, 0xff, 0x04, 0x00, 0x00, 0x00, 0x40, 0x00, 0x00, 0x00, 0xbd, 0xd2, 0xe3, 0xbe, 0x01, 0x16, 0x2f, 0xe5, 0x2f, 0x15, 0x6d, 0x1e, 0xaa, 0x70, 0xbf, 0xae, 0xfa, 0xf5, 0x13, 0x81, 0x2a, 0x96, 0xcc, 0xf5, 0x3b, 0xef, 0xcc, 0xd5, 0x13, 0x66, 0x50, 0xa5, 0x0f, 0x3e, 0xcf, 0xf4, 0xf9, 0xc9, 0x51, 0xf9, 0xf9, 0x3d, 0xe2, 0x43, 0xba, 0x34, 0xc6, 0x5e, 0xbe, 0xfb, 0x90, 0xeb, 0x3e, 0xca, 0x4b, 0x81, 0xbe, 0xf2, 0x22, 0x47, 0x32, 0xad, 0x0b, 0xc2, 0x00, 0x00, 0x06, 0x00, 0x08, 0x00, 0x04, 0x00, 0x06, 0x00, 0x00, 0x00, 0x04, 0x00, 0x00, 0x00, 0x08, 0x00, 0x00, 0x00, 0xcb, 0x00, 0x00, 0x00, 0xd9, 0x07, 0x00, 0x00, 0xf4, 0xe5, 0xff, 0xff, 0xf8, 0xe5, 0xff, 0xff, 0x0f, 0x00, 0x00, 0x00, 0x4d, 0x4c, 0x49, 0x52, 0x20, 0x43, 0x6f, 0x6e, 0x76, 0x65, 0x72, 0x74, 0x65, 0x64, 0x2e, 0x00, 0x01, 0x00, 0x00, 0x00, 0x14, 0x00, 0x00, 0x00, 0x00, 0x00, 0x0e, 0x00, 0x18, 0x00, 0x14, 0x00, 0x10, 0x00, 0x0c, 0x00, 0x08, 0x00, 0x04, 0x00, 0x0e, 0x00, 0x00, 0x00, 0x14, 0x00, 0x00, 0x00, 0x1c, 0x00, 0x00, 0x00, 0xf8, 0x01, 0x00, 0x00, 0xfc, 0x01, 0x00, 0x00, 0x00, 0x02, 0x00, 0x00, 0x04, 0x00, 0x00, 0x00, 0x6d, 0x61, 0x69, 0x6e, 0x00, 0x00, 0x00, 0x00, 0x0a, 0x00, 0x00, 0x00, 0xc0, 0x01, 0x00, 0x00, 0x7c, 0x01, 0x00, 0x00, 0x48, 0x01, 0x00, 0x00, 0x04, 0x01, 0x00, 0x00, 0xe0, 0x00, 0x00, 0x00, 0xa8, 0x00, 0x00, 0x00, 0x84, 0x00, 0x00, 0x00, 0x4c, 0x00, 0x00, 0x00, 0x28, 0x00, 0x00, 0x00, 0x04, 0x00, 0x00, 0x00, 0xe2, 0xfe, 0xff, 0xff, 0x0c, 0x00, 0x00, 0x00, 0x10, 0x00, 0x00, 0x00, 0x03, 0x00, 0x00, 0x00, 0x01, 0x00, 0x00, 0x00, 0x12, 0x00, 0x00, 0x00, 0x01, 0x00, 0x00, 0x00, 0x11, 0x00, 0x00, 0x00, 0x02, 0xff, 0xff, 0xff, 0x0c, 0x00, 0x00, 0x00, 0x10, 0x00, 0x00, 0x00, 0x02, 0x00, 0x00, 0x00, 0x01, 0x00, 0x00, 0x00, 0x11, 0x00, 0x00, 0x00, 0x01, 0x00, 0x00, 0x00, 0x10, 0x00, 0x00, 0x00, 0xf6, 0xfe, 0xff, 0xff, 0x14, 0x00, 0x00, 0x00, 0x00, 0x00, 0x00, 0x08, 0x10, 0x00, 0x00, 0x00, 0x14, 0x00, 0x00, 0x00, 0x01, 0x00, 0x00, 0x00, 0xd0, 0xe6, 0xff, 0xff, 0x01, 0x00, 0x00, 0x00, 0x10, 0x00, 0x00, 0x00, 0x03, 0x00, 0x00, 0x00, 0x0f, 0x00, 0x00, 0x00, 0x02, 0x00, 0x00, 0x00, 0x01, 0x00, 0x00, 0x00, 0x56, 0xff, 0xff, 0xff, 0x0c, 0x00, 0x00, 0x00, 0x10, 0x00, 0x00, 0x00, 0x02, 0x00, 0x00, 0x00, 0x01, 0x00, 0x00, 0x00, 0x0f, 0x00, 0x00, 0x00, 0x01, 0x00, 0x00, 0x00, 0x0e, 0x00, 0x00, 0x00, 0x4a, 0xff, 0xff, 0xff, 0x14, 0x00, 0x00, 0x00, 0x00, 0x00, 0x00, 0x08, 0x10, 0x00, 0x00, 0x00, 0x14, 0x00, 0x00, 0x00, 0x01, 0x00, 0x00, 0x00, 0x24, 0xe7, 0xff, 0xff, 0x01, 0x00, 0x00, 0x00, 0x0e, 0x00, 0x00, 0x00, 0x03, 0x00, 0x00, 0x00, 0x0d, 0x00, 0x00, 0x00, 0x04, 0x00, 0x00, 0x00, 0x03, 0x00, 0x00, 0x00, 0xaa, 0xff, 0xff, 0xff, 0x0c, 0x00, 0x00, 0x00, 0x10, 0x00, 0x00, 0x00, 0x02, 0x00, 0x00, 0x00, 0x01, 0x00, 0x00, 0x00, 0x0d, 0x00, 0x00, 0x00, 0x01, 0x00, 0x00, 0x00, 0x0c, 0x00, 0x00, 0x00, 0x9e, 0xff, 0xff, 0xff, 0x14, 0x00, 0x00, 0x00, 0x00, 0x00, 0x00, 0x08, 0x10, 0x00, 0x00, 0x00, 0x14, 0x00, 0x00, 0x00, 0x01, 0x00, 0x00, 0x00, 0x78, 0xe7, 0xff, 0xff, 0x01, 0x00, 0x00, 0x00, 0x0c, 0x00, 0x00, 0x00, 0x03, 0x00, 0x00, 0x00, 0x0b, 0x00, 0x00, 0x00, 0x06, 0x00, 0x00, 0x00, 0x05, 0x00, 0x00, 0x00, 0x00, 0x00, 0x0a, 0x00, 0x10, 0x00, 0x0c, 0x00, 0x08, 0x00, 0x04, 0x00, 0x0a, 0x00, 0x00, 0x00, 0x0c, 0x00, 0x00, 0x00, 0x10, 0x00, 0x00, 0x00, 0x02, 0x00, 0x00, 0x00, 0x01, 0x00, 0x00, 0x00, 0x0b, 0x00, 0x00, 0x00, 0x01, 0x00, 0x00, 0x00, 0x0a, 0x00, 0x00, 0x00, 0x00, 0x00, 0x0e, 0x00, 0x18, 0x00, 0x14, 0x00, 0x10, 0x00, 0x0c, 0x00, 0x0b, 0x00, 0x04, 0x00, 0x0e, 0x00, 0x00, 0x00, 0x14, 0x00, 0x00, 0x00, 0x00, 0x00, 0x00, 0x08, 0x10, 0x00, 0x00, 0x00, 0x14, 0x00, 0x00, 0x00, 0x01, 0x00, 0x00, 0x00, 0xe8, 0xe7, 0xff, 0xff, 0x01, 0x00, 0x00, 0x00, 0x0a, 0x00, 0x00, 0x00, 0x03, 0x00, 0x00, 0x00, 0x09, 0x00, 0x00, 0x00, 0x08, 0x00, 0x00, 0x00, 0x07, 0x00, 0x00, 0x00, 0x00, 0x00, 0x0a, 0x00, 0x0c, 0x00, 0x00, 0x00, 0x08, 0x00, 0x04, 0x00, 0x0a, 0x00, 0x00, 0x00, 0x08, 0x00, 0x00, 0x00, 0x0c, 0x00, 0x00, 0x00, 0x01, 0x00, 0x00, 0x00, 0x09, 0x00, 0x00, 0x00, 0x01, 0x00, 0x00, 0x00, 0x00, 0x00, 0x00, 0x00, 0x01, 0x00, 0x00, 0x00, 0x12, 0x00, 0x00, 0x00, 0x01, 0x00, 0x00, 0x00, 0x00, 0x00, 0x00, 0x00, 0x13, 0x00, 0x00, 0x00, 0x98, 0x17, 0x00, 0x00, 0x04, 0x17, 0x00, 0x00, 0x7c, 0x16, 0x00, 0x00, 0xa8, 0x14, 0x00, 0x00, 0xcc, 0x12, 0x00, 0x00, 0x78, 0x0f, 0x00, 0x00, 0x1c, 0x0c, 0x00, 0x00, 0xc8, 0x08, 0x00, 0x00, 0x6c, 0x05, 0x00, 0x00, 0xf8, 0x04, 0x00, 0x00, 0x3c, 0x04, 0x00, 0x00, 0xc0, 0x03, 0x00, 0x00, 0x1c, 0x03, 0x00, 0x00, 0xa0, 0x02, 0x00, 0x00, 0xfc, 0x01, 0x00, 0x00, 0x80, 0x01, 0x00, 0x00, 0xe4, 0x00, 0x00, 0x00, 0x60, 0x00, 0x00, 0x00, 0x04, 0x00, 0x00, 0x00, 0xca, 0xe8, 0xff, 0xff, 0x00, 0x00, 0x00, 0x01, 0x14, 0x00, 0x00, 0x00, 0x1c, 0x00, 0x00, 0x00, 0x1c, 0x00, 0x00, 0x00, 0x13, 0x00, 0x00, 0x00, 0x34, 0x00, 0x00, 0x00, 0x02, 0x00, 0x00, 0x00, 0xff, 0xff, 0xff, 0xff, 0x02, 0x00, 0x00, 0x00, 0xb4, 0xe8, 0xff, 0xff, 0x1b, 0x00, 0x00, 0x00, 0x53, 0x74, 0x61, 0x74, 0x65, 0x66, 0x75, 0x6c, 0x50, 0x61, 0x72, 0x74, 0x69, 0x74, 0x69, 0x6f, 0x6e, 0x65, 0x64, 0x43, 0x61, 0x6c, 0x6c, 0x5f, 0x31, 0x3a, 0x30, 0x00, 0x02, 0x00, 0x00, 0x00, 0x01, 0x00, 0x00, 0x00, 0x02, 0x00, 0x00, 0x00, 0x9e, 0xfb, 0xff, 0xff, 0x00, 0x00, 0x00, 0x01, 0x18, 0x00, 0x00, 0x00, 0x20, 0x00, 0x00, 0x00, 0x40, 0x00, 0x00, 0x00, 0x12, 0x00, 0x00, 0x00, 0x00, 0x00, 0x00, 0x09, 0x58, 0x00, 0x00, 0x00, 0x02, 0x00, 0x00, 0x00, 0xff, 0xff, 0xff, 0xff, 0x02, 0x00, 0x00, 0x00, 0xac, 0xe9, 0xff, 0xff, 0x08, 0x00, 0x00, 0x00, 0x14, 0x00, 0x00, 0x00, 0x01, 0x00, 0x00, 0x00, 0x00, 0x00, 0x00, 0x00, 0x00, 0x00, 0x00, 0x00, 0x00, 0x00, 0x00, 0x00, 0x01, 0x00, 0x00, 0x00, 0x00, 0x00, 0x00, 0x3c, 0x1c, 0x00, 0x00, 0x00, 0x53, 0x74, 0x61, 0x74, 0x65, 0x66, 0x75, 0x6c, 0x50, 0x61, 0x72, 0x74, 0x69, 0x74, 0x69, 0x6f, 0x6e, 0x65, 0x64, 0x43, 0x61, 0x6c, 0x6c, 0x5f, 0x31, 0x3a, 0x30, 0x31, 0x00, 0x00, 0x00, 0x00, 0x02, 0x00, 0x00, 0x00, 0x01, 0x00, 0x00, 0x00, 0x02, 0x00, 0x00, 0x00, 0x1e, 0xfc, 0xff, 0xff, 0x00, 0x00, 0x00, 0x01, 0x18, 0x00, 0x00, 0x00, 0x20, 0x00, 0x00, 0x00, 0x3c, 0x00, 0x00, 0x00, 0x11, 0x00, 0x00, 0x00, 0x00, 0x00, 0x00, 0x09, 0x70, 0x00, 0x00, 0x00, 0x02, 0x00, 0x00, 0x00, 0xff, 0xff, 0xff, 0xff, 0x02, 0x00, 0x00, 0x00, 0x2c, 0xea, 0xff, 0xff, 0x08, 0x00, 0x00, 0x00, 0x10, 0x00, 0x00, 0x00, 0x01, 0x00, 0x00, 0x00, 0xfc, 0xff, 0xff, 0xff, 0xff, 0xff, 0xff, 0xff, 0x01, 0x00, 0x00, 0x00, 0xbb, 0x4c, 0x95, 0x3c, 0x3a, 0x00, 0x00, 0x00, 0x73, 0x65, 0x71, 0x75, 0x65, 0x6e, 0x74, 0x69, 0x61, 0x6c, 0x5f, 0x31, 0x2f, 0x6f, 0x75, 0x74, 0x70, 0x75, 0x74, 0x5f, 0x31, 0x2f, 0x4d, 0x61, 0x74, 0x4d, 0x75, 0x6c, 0x3b, 0x73, 0x65, 0x71, 0x75, 0x65, 0x6e, 0x74, 0x69, 0x61, 0x6c, 0x5f, 0x31, 0x2f, 0x6f, 0x75, 0x74, 0x70, 0x75, 0x74, 0x5f, 0x31, 0x2f, 0x42, 0x69, 0x61, 0x73, 0x41, 0x64, 0x64, 0x00, 0x00, 0x02, 0x00, 0x00, 0x00, 0x01, 0x00, 0x00, 0x00, 0x02, 0x00, 0x00, 0x00, 0xb6, 0xfc, 0xff, 0xff, 0x00, 0x00, 0x00, 0x01, 0x18, 0x00, 0x00, 0x00, 0x20, 0x00, 0x00, 0x00, 0x3c, 0x00, 0x00, 0x00, 0x10, 0x00, 0x00, 0x00, 0x00, 0x00, 0x00, 0x09, 0x50, 0x00, 0x00, 0x00, 0x02, 0x00, 0x00, 0x00, 0xff, 0xff, 0xff, 0xff, 0x20, 0x00, 0x00, 0x00, 0xc4, 0xea, 0xff, 0xff, 0x08, 0x00, 0x00, 0x00, 0x10, 0x00, 0x00, 0x00, 0x01, 0x00, 0x00, 0x00, 0x00, 0x00, 0x00, 0x00, 0x00, 0x00, 0x00, 0x00, 0x01, 0x00, 0x00, 0x00, 0x00, 0x00, 0x00, 0x3c, 0x1b, 0x00, 0x00, 0x00, 0x73, 0x65, 0x71, 0x75, 0x65, 0x6e, 0x74, 0x69, 0x61, 0x6c, 0x5f, 0x31, 0x2f, 0x68, 0x69, 0x64, 0x64, 0x65, 0x6e, 0x33, 0x5f, 0x31, 0x2f, 0x54, 0x61, 0x6e, 0x68, 0x00, 0x02, 0x00, 0x00, 0x00, 0x01, 0x00, 0x00, 0x00, 0x20, 0x00, 0x00, 0x00, 0x2e, 0xfd, 0xff, 0xff, 0x00, 0x00, 0x00, 0x01, 0x18, 0x00, 0x00, 0x00, 0x20, 0x00, 0x00, 0x00, 0x40, 0x00, 0x00, 0x00, 0x0f, 0x00, 0x00, 0x00, 0x00, 0x00, 0x00, 0x09, 0x78, 0x00, 0x00, 0x00, 0x02, 0x00, 0x00, 0x00, 0xff, 0xff, 0xff, 0xff, 0x20, 0x00, 0x00, 0x00, 0x3c, 0xeb, 0xff, 0xff, 0x08, 0x00, 0x00, 0x00, 0x14, 0x00, 0x00, 0x00, 0x01, 0x00, 0x00, 0x00, 0x12, 0x00, 0x00, 0x00, 0x00, 0x00, 0x00, 0x00, 0x00, 0x00, 0x00, 0x00, 0x01, 0x00, 0x00, 0x00, 0xce, 0x5f, 0xcc, 0x3d, 0x3c, 0x00, 0x00, 0x00, 0x73, 0x65, 0x71, 0x75, 0x65, 0x6e, 0x74, 0x69, 0x61, 0x6c, 0x5f, 0x31, 0x2f, 0x68, 0x69, 0x64, 0x64, 0x65, 0x6e, 0x33, 0x5f, 0x31, 0x2f, 0x4d, 0x61, 0x74, 0x4d, 0x75, 0x6c, 0x3b, 0x73, 0x65, 0x71, 0x75, 0x65, 0x6e, 0x74, 0x69, 0x61, 0x6c, 0x5f, 0x31, 0x2f, 0x68, 0x69, 0x64, 0x64, 0x65, 0x6e, 0x33, 0x5f, 0x31, 0x2f, 0x42, 0x69, 0x61, 0x73, 0x41, 0x64, 0x64, 0x00, 0x00, 0x00, 0x00, 0x02, 0x00, 0x00, 0x00, 0x01, 0x00, 0x00, 0x00, 0x20, 0x00, 0x00, 0x00, 0xce, 0xfd, 0xff, 0xff, 0x00, 0x00, 0x00, 0x01, 0x18, 0x00, 0x00, 0x00, 0x20, 0x00, 0x00, 0x00, 0x3c, 0x00, 0x00, 0x00, 0x0e, 0x00, 0x00, 0x00, 0x00, 0x00, 0x00, 0x09, 0x50, 0x00, 0x00, 0x00, 0x02, 0x00, 0x00, 0x00, 0xff, 0xff, 0xff, 0xff, 0x40, 0x00, 0x00, 0x00, 0xdc, 0xeb, 0xff, 0xff, 0x08, 0x00, 0x00, 0x00, 0x10, 0x00, 0x00, 0x00, 0x01, 0x00, 0x00, 0x00, 0x00, 0x00, 0x00, 0x00, 0x00, 0x00, 0x00, 0x00, 0x01, 0x00, 0x00, 0x00, 0x00, 0x00, 0x00, 0x3c, 0x1b, 0x00, 0x00, 0x00, 0x73, 0x65, 0x71, 0x75, 0x65, 0x6e, 0x74, 0x69, 0x61, 0x6c, 0x5f, 0x31, 0x2f, 0x68, 0x69, 0x64, 0x64, 0x65, 0x6e, 0x32, 0x5f, 0x31, 0x2f, 0x54, 0x61, 0x6e, 0x68, 0x00, 0x02, 0x00, 0x00, 0x00, 0x01, 0x00, 0x00, 0x00, 0x40, 0x00, 0x00, 0x00, 0x46, 0xfe, 0xff, 0xff, 0x00, 0x00, 0x00, 0x01, 0x18, 0x00, 0x00, 0x00, 0x20, 0x00, 0x00, 0x00, 0x40, 0x00, 0x00, 0x00, 0x0d, 0x00, 0x00, 0x00, 0x00, 0x00, 0x00, 0x09, 0x78, 0x00, 0x00, 0x00, 0x02, 0x00, 0x00, 0x00, 0xff, 0xff, 0xff, 0xff, 0x40, 0x00, 0x00, 0x00, 0x54, 0xec, 0xff, 0xff, 0x08, 0x00, 0x00, 0x00, 0x14, 0x00, 0x00, 0x00, 0x01, 0x00, 0x00, 0x00, 0x1f, 0x00, 0x00, 0x00, 0x00, 0x00, 0x00, 0x00, 0x00, 0x00, 0x00, 0x00, 0x01, 0x00, 0x00, 0x00, 0x8a, 0x3e, 0xc9, 0x3c, 0x3c, 0x00, 0x00, 0x00, 0x73, 0x65, 0x71, 0x75, 0x65, 0x6e, 0x74, 0x69, 0x61, 0x6c, 0x5f, 0x31, 0x2f, 0x68, 0x69, 0x64, 0x64, 0x65, 0x6e, 0x32, 0x5f, 0x31, 0x2f, 0x4d, 0x61, 0x74, 0x4d, 0x75, 0x6c, 0x3b, 0x73, 0x65, 0x71, 0x75, 0x65, 0x6e, 0x74, 0x69, 0x61, 0x6c, 0x5f, 0x31, 0x2f, 0x68, 0x69, 0x64, 0x64, 0x65, 0x6e, 0x32, 0x5f, 0x31, 0x2f, 0x42, 0x69, 0x61, 0x73, 0x41, 0x64, 0x64, 0x00, 0x00, 0x00, 0x00, 0x02, 0x00, 0x00, 0x00, 0x01, 0x00, 0x00, 0x00, 0x40, 0x00, 0x00, 0x00, 0xe6, 0xfe, 0xff, 0xff, 0x00, 0x00, 0x00, 0x01, 0x18, 0x00, 0x00, 0x00, 0x20, 0x00, 0x00, 0x00, 0x3c, 0x00, 0x00, 0x00, 0x0c, 0x00, 0x00, 0x00, 0x00, 0x00, 0x00, 0x09, 0x50, 0x00, 0x00, 0x00, 0x02, 0x00, 0x00, 0x00, 0xff, 0xff, 0xff, 0xff, 0x40, 0x00, 0x00, 0x00, 0xf4, 0xec, 0xff, 0xff, 0x08, 0x00, 0x00, 0x00, 0x10, 0x00, 0x00, 0x00, 0x01, 0x00, 0x00, 0x00, 0x00, 0x00, 0x00, 0x00, 0x00, 0x00, 0x00, 0x00, 0x01, 0x00, 0x00, 0x00, 0x00, 0x00, 0x00, 0x3c, 0x1b, 0x00, 0x00, 0x00, 0x73, 0x65, 0x71, 0x75, 0x65, 0x6e, 0x74, 0x69, 0x61, 0x6c, 0x5f, 0x31, 0x2f, 0x68, 0x69, 0x64, 0x64, 0x65, 0x6e, 0x31, 0x5f, 0x31, 0x2f, 0x54, 0x61, 0x6e, 0x68, 0x00, 0x02, 0x00, 0x00, 0x00, 0x01, 0x00, 0x00, 0x00, 0x40, 0x00, 0x00, 0x00, 0x5e, 0xff, 0xff, 0xff, 0x00, 0x00, 0x00, 0x01, 0x18, 0x00, 0x00, 0x00, 0x20, 0x00, 0x00, 0x00, 0x40, 0x00, 0x00, 0x00, 0x0b, 0x00, 0x00, 0x00, 0x00, 0x00, 0x00, 0x09, 0x78, 0x00, 0x00, 0x00, 0x02, 0x00, 0x00, 0x00, 0xff, 0xff, 0xff, 0xff, 0x40, 0x00, 0x00, 0x00, 0x6c, 0xed, 0xff, 0xff, 0x08, 0x00, 0x00, 0x00, 0x14, 0x00, 0x00, 0x00, 0x01, 0x00, 0x00, 0x00, 0xf2, 0xff, 0xff, 0xff, 0xff, 0xff, 0xff, 0xff, 0x00, 0x00, 0x00, 0x00, 0x01, 0x00, 0x00, 0x00, 0x86, 0xaa, 0x50, 0x3b, 0x3c, 0x00, 0x00, 0x00, 0x73, 0x65, 0x71, 0x75, 0x65, 0x6e, 0x74, 0x69, 0x61, 0x6c, 0x5f, 0x31, 0x2f, 0x68, 0x69, 0x64, 0x64, 0x65, 0x6e, 0x31, 0x5f, 0x31, 0x2f, 0x4d, 0x61, 0x74, 0x4d, 0x75, 0x6c, 0x3b, 0x73, 0x65, 0x71, 0x75, 0x65, 0x6e, 0x74, 0x69, 0x61, 0x6c, 0x5f, 0x31, 0x2f, 0x68, 0x69, 0x64, 0x64, 0x65, 0x6e, 0x31, 0x5f, 0x31, 0x2f, 0x42, 0x69, 0x61, 0x73, 0x41, 0x64, 0x64, 0x00, 0x00, 0x00, 0x00, 0x02, 0x00, 0x00, 0x00, 0x01, 0x00, 0x00, 0x00, 0x40, 0x00, 0x00, 0x00, 0x00, 0x00, 0x16, 0x00, 0x20, 0x00, 0x1c, 0x00, 0x1b, 0x00, 0x14, 0x00, 0x10, 0x00, 0x0c, 0x00, 0x00, 0x00, 0x00, 0x00, 0x08, 0x00, 0x07, 0x00, 0x16, 0x00, 0x00, 0x00, 0x00, 0x00, 0x00, 0x01, 0x18, 0x00, 0x00, 0x00, 0x20, 0x00, 0x00, 0x00, 0x40, 0x00, 0x00, 0x00, 0x0a, 0x00, 0x00, 0x00, 0x00, 0x00, 0x00, 0x09, 0x48, 0x00, 0x00, 0x00, 0x02, 0x00, 0x00, 0x00, 0xff, 0xff, 0xff, 0xff, 0x01, 0x00, 0x00, 0x00, 0x24, 0xee, 0xff, 0xff, 0x08, 0x00, 0x00, 0x00, 0x14, 0x00, 0x00, 0x00, 0x01, 0x00, 0x00, 0x00, 0x80, 0xff, 0xff, 0xff, 0xff, 0xff, 0xff, 0xff, 0x00, 0x00, 0x00, 0x00, 0x01, 0x00, 0x00, 0x00, 0x81, 0x80, 0x80, 0x3b, 0x0c, 0x00, 0x00, 0x00, 0x74, 0x66, 0x6c, 0x2e, 0x71, 0x75, 0x61, 0x6e, 0x74, 0x69, 0x7a, 0x65, 0x00, 0x00, 0x00, 0x00, 0x02, 0x00, 0x00, 0x00, 0x01, 0x00, 0x00, 0x00, 0x01, 0x00, 0x00, 0x00, 0x9a, 0xee, 0xff, 0xff, 0x00, 0x00, 0x00, 0x01, 0x14, 0x00, 0x00, 0x00, 0x28, 0x03, 0x00, 0x00, 0x09, 0x00, 0x00, 0x00, 0x00, 0x00, 0x00, 0x09, 0x34, 0x03, 0x00, 0x00, 0x84, 0xee, 0xff, 0xff, 0x08, 0x00, 0x00, 0x00, 0x0c, 0x02, 0x00, 0x00, 0x40, 0x00, 0x00, 0x00, 0x00, 0x00, 0x00, 0x00, 0x00, 0x00, 0x00, 0x00, 0x00, 0x00, 0x00, 0x00, 0x00, 0x00, 0x00, 0x00, 0x00, 0x00, 0x00, 0x00, 0x00, 0x00, 0x00, 0x00, 0x00, 0x00, 0x00, 0x00, 0x00, 0x00, 0x00, 0x00, 0x00, 0x00, 0x00, 0x00, 0x00, 0x00, 0x00, 0x00, 0x00, 0x00, 0x00, 0x00, 0x00, 0x00, 0x00, 0x00, 0x00, 0x00, 0x00, 0x00, 0x00, 0x00, 0x00, 0x00, 0x00, 0x00, 0x00, 0x00, 0x00, 0x00, 0x00, 0x00, 0x00, 0x00, 0x00, 0x00, 0x00, 0x00, 0x00, 0x00, 0x00, 0x00, 0x00, 0x00, 0x00, 0x00, 0x00, 0x00, 0x00, 0x00, 0x00, 0x00, 0x00, 0x00, 0x00, 0x00, 0x00, 0x00, 0x00, 0x00, 0x00, 0x00, 0x00, 0x00, 0x00, 0x00, 0x00, 0x00, 0x00, 0x00, 0x00, 0x00, 0x00, 0x00, 0x00, 0x00, 0x00, 0x00, 0x00, 0x00, 0x00, 0x00, 0x00, 0x00, 0x00, 0x00, 0x00, 0x00, 0x00, 0x00, 0x00, 0x00, 0x00, 0x00, 0x00, 0x00, 0x00, 0x00, 0x00, 0x00, 0x00, 0x00, 0x00, 0x00, 0x00, 0x00, 0x00, 0x00, 0x00, 0x00, 0x00, 0x00, 0x00, 0x00, 0x00, 0x00, 0x00, 0x00, 0x00, 0x00, 0x00, 0x00, 0x00, 0x00, 0x00, 0x00, 0x00, 0x00, 0x00, 0x00, 0x00, 0x00, 0x00, 0x00, 0x00, 0x00, 0x00, 0x00, 0x00, 0x00, 0x00, 0x00, 0x00, 0x00, 0x00, 0x00, 0x00, 0x00, 0x00, 0x00, 0x00, 0x00, 0x00, 0x00, 0x00, 0x00, 0x00, 0x00, 0x00, 0x00, 0x00, 0x00, 0x00, 0x00, 0x00, 0x00, 0x00, 0x00, 0x00, 0x00, 0x00, 0x00, 0x00, 0x00, 0x00, 0x00, 0x00, 0x00, 0x00, 0x00, 0x00, 0x00, 0x00, 0x00, 0x00, 0x00, 0x00, 0x00, 0x00, 0x00, 0x00, 0x00, 0x00, 0x00, 0x00, 0x00, 0x00, 0x00, 0x00, 0x00, 0x00, 0x00, 0x00, 0x00, 0x00, 0x00, 0x00, 0x00, 0x00, 0x00, 0x00, 0x00, 0x00, 0x00, 0x00, 0x00, 0x00, 0x00, 0x00, 0x00, 0x00, 0x00, 0x00, 0x00, 0x00, 0x00, 0x00, 0x00, 0x00, 0x00, 0x00, 0x00, 0x00, 0x00, 0x00, 0x00, 0x00, 0x00, 0x00, 0x00, 0x00, 0x00, 0x00, 0x00, 0x00, 0x00, 0x00, 0x00, 0x00, 0x00, 0x00, 0x00, 0x00, 0x00, 0x00, 0x00, 0x00, 0x00, 0x00, 0x00, 0x00, 0x00, 0x00, 0x00, 0x00, 0x00, 0x00, 0x00, 0x00, 0x00, 0x00, 0x00, 0x00, 0x00, 0x00, 0x00, 0x00, 0x00, 0x00, 0x00, 0x00, 0x00, 0x00, 0x00, 0x00, 0x00, 0x00, 0x00, 0x00, 0x00, 0x00, 0x00, 0x00, 0x00, 0x00, 0x00, 0x00, 0x00, 0x00, 0x00, 0x00, 0x00, 0x00, 0x00, 0x00, 0x00, 0x00, 0x00, 0x00, 0x00, 0x00, 0x00, 0x00, 0x00, 0x00, 0x00, 0x00, 0x00, 0x00, 0x00, 0x00, 0x00, 0x00, 0x00, 0x00, 0x00, 0x00, 0x00, 0x00, 0x00, 0x00, 0x00, 0x00, 0x00, 0x00, 0x00, 0x00, 0x00, 0x00, 0x00, 0x00, 0x00, 0x00, 0x00, 0x00, 0x00, 0x00, 0x00, 0x00, 0x00, 0x00, 0x00, 0x00, 0x00, 0x00, 0x00, 0x00, 0x00, 0x00, 0x00, 0x00, 0x00, 0x00, 0x00, 0x00, 0x00, 0x00, 0x00, 0x00, 0x00, 0x00, 0x00, 0x00, 0x00, 0x00, 0x00, 0x00, 0x00, 0x00, 0x00, 0x00, 0x00, 0x00, 0x00, 0x00, 0x00, 0x00, 0x00, 0x00, 0x00, 0x00, 0x00, 0x00, 0x00, 0x00, 0x00, 0x00, 0x00, 0x00, 0x00, 0x00, 0x00, 0x00, 0x00, 0x00, 0x00, 0x00, 0x00, 0x00, 0x00, 0x00, 0x00, 0x00, 0x00, 0x00, 0x00, 0x00, 0x00, 0x00, 0x00, 0x00, 0x00, 0x00, 0x00, 0x00, 0x00, 0x00, 0x00, 0x00, 0x00, 0x00, 0x00, 0x00, 0x00, 0x00, 0x00, 0x00, 0x00, 0x00, 0x00, 0x00, 0x00, 0x00, 0x00, 0x00, 0x00, 0x00, 0x00, 0x00, 0x00, 0x00, 0x00, 0x00, 0x00, 0x00, 0x00, 0x00, 0x00, 0x00, 0x00, 0x00, 0x00, 0x00, 0x00, 0x00, 0x00, 0x00, 0x00, 0x00, 0x00, 0x00, 0x00, 0x00, 0x00, 0x00, 0x00, 0x00, 0x00, 0x00, 0x00, 0x00, 0x00, 0x00, 0x00, 0x40, 0x00, 0x00, 0x00, 0xa2, 0x51, 0x21, 0x38, 0x50, 0x2d, 0x57, 0x3b, 0x1a, 0x5d, 0xca, 0x3a, 0xc9, 0xfc, 0xd8, 0x3a, 0x2e, 0xf5, 0x25, 0x3a, 0x80, 0xf8, 0x3e, 0x3b, 0xd8, 0x43, 0x3d, 0x3b, 0xbd, 0x3d, 0x0e, 0x3b, 0xe3, 0x1c, 0xb6, 0x3a, 0x41, 0x95, 0x01, 0x3b, 0x66, 0x53, 0x1c, 0x3b, 0x33, 0xb0, 0x0d, 0x3b, 0x9c, 0xb3, 0x11, 0x3b, 0xb7, 0x5a, 0x25, 0x3b, 0x5c, 0xc1, 0x53, 0x3b, 0x3b, 0x5b, 0x1f, 0x3b, 0x25, 0x31, 0x83, 0x3a, 0xa3, 0xb5, 0xe2, 0x3a, 0x0d, 0x6d, 0xe7, 0x3a, 0xd9, 0xce, 0xb0, 0x3a, 0xdc, 0x5c, 0xa3, 0x3a, 0x85, 0xd0, 0x8a, 0x3a, 0xde, 0x63, 0xb2, 0x3a, 0x8c, 0xcb, 0x62, 0x3b, 0x74, 0x23, 0xfa, 0x3a, 0x1f, 0x2c, 0xe2, 0x3a, 0xdf, 0x30, 0x4d, 0x3b, 0xbe, 0x8f, 0x31, 0x3b, 0x31, 0xe9, 0x36, 0x3b, 0x01, 0x79, 0x04, 0x3b, 0xc4, 0xd6, 0x20, 0x3b, 0x48, 0xce, 0x0a, 0x3b, 0x70, 0xd7, 0x00, 0x3b, 0x8c, 0xf4, 0x13, 0x3b, 0xf9, 0xde, 0x92, 0x3a, 0x04, 0xfa, 0x93, 0x3a, 0xce, 0x65, 0xd4, 0x3a, 0x5f, 0x4a, 0x14, 0x3a, 0xe3, 0xde, 0x8b, 0x3a, 0x4e, 0x49, 0x22, 0x3b, 0x15, 0x73, 0x2a, 0x3b, 0x38, 0xf6, 0x4f, 0x39, 0xa9, 0x92, 0xd1, 0x3a, 0x6c, 0x1c, 0x3d, 0x3b, 0xea, 0xe7, 0x08, 0x3b, 0x7f, 0xbe, 0x25, 0x3b, 0x92, 0x0d, 0x26, 0x3b, 0xbe, 0x5d, 0xeb, 0x3a, 0x98, 0xbf, 0x6f, 0x3a, 0xfd, 0x15, 0x8d, 0x3a, 0x07, 0x95, 0xba, 0x3a, 0xf4, 0xd2, 0xc8, 0x3a, 0xd3, 0xf0, 0x0b, 0x3b, 0xc1, 0x92, 0x35, 0x3b, 0xb9, 0x90, 0x0c, 0x3b, 0xac, 0xae, 0x3d, 0x3b, 0xdb, 0x32, 0x52, 0x3b, 0x5e, 0x75, 0xf1, 0x3a, 0x2d, 0xdc, 0x5e, 0x3b, 0x9f, 0xcc, 0xb9, 0x3a, 0x15, 0x92, 0x1d, 0x3a, 0xfa, 0xa0, 0x73, 0x3a, 0xbd, 0x98, 0x15, 0x3b, 0xfe, 0x7c, 0x26, 0x3b, 0x12, 0x00, 0x00, 0x00, 0x74, 0x66, 0x6c, 0x2e, 0x70, 0x73, 0x65, 0x75, 0x64, 0x6f, 0x5f, 0x71, 0x63, 0x6f, 0x6e, 0x73, 0x74, 0x37, 0x00, 0x00, 0x02, 0x00, 0x00, 0x00, 0x40, 0x00, 0x00, 0x00, 0x01, 0x00, 0x00, 0x00, 0xf2, 0xf1, 0xff, 0xff, 0x00, 0x00, 0x00, 0x01, 0x14, 0x00, 0x00, 0x00, 0x24, 0x03, 0x00, 0x00, 0x08, 0x00, 0x00, 0x00, 0x00, 0x00, 0x00, 0x02, 0x30, 0x03, 0x00, 0x00, 0xdc, 0xf1, 0xff, 0xff, 0x08, 0x00, 0x00, 0x00, 0x08, 0x02, 0x00, 0x00, 0x40, 0x00, 0x00, 0x00, 0x00, 0x00, 0x00, 0x00, 0x00, 0x00, 0x00, 0x00, 0x00, 0x00, 0x00, 0x00, 0x00, 0x00, 0x00, 0x00, 0x00, 0x00, 0x00, 0x00, 0x00, 0x00, 0x00, 0x00, 0x00, 0x00, 0x00, 0x00, 0x00, 0x00, 0x00, 0x00, 0x00, 0x00, 0x00, 0x00, 0x00, 0x00, 0x00, 0x00, 0x00, 0x00, 0x00, 0x00, 0x00, 0x00, 0x00, 0x00, 0x00, 0x00, 0x00, 0x00, 0x00, 0x00, 0x00, 0x00, 0x00, 0x00, 0x00, 0x00, 0x00, 0x00, 0x00, 0x00, 0x00, 0x00, 0x00, 0x00, 0x00, 0x00, 0x00, 0x00, 0x00, 0x00, 0x00, 0x00, 0x00, 0x00, 0x00, 0x00, 0x00, 0x00, 0x00, 0x00, 0x00, 0x00, 0x00, 0x00, 0x00, 0x00, 0x00, 0x00, 0x00, 0x00, 0x00, 0x00, 0x00, 0x00, 0x00, 0x00, 0x00, 0x00, 0x00, 0x00, 0x00, 0x00, 0x00, 0x00, 0x00, 0x00, 0x00, 0x00, 0x00, 0x00, 0x00, 0x00, 0x00, 0x00, 0x00, 0x00, 0x00, 0x00, 0x00, 0x00, 0x00, 0x00, 0x00, 0x00, 0x00, 0x00, 0x00, 0x00, 0x00, 0x00, 0x00, 0x00, 0x00, 0x00, 0x00, 0x00, 0x00, 0x00, 0x00, 0x00, 0x00, 0x00, 0x00, 0x00, 0x00, 0x00, 0x00, 0x00, 0x00, 0x00, 0x00, 0x00, 0x00, 0x00, 0x00, 0x00, 0x00, 0x00, 0x00, 0x00, 0x00, 0x00, 0x00, 0x00, 0x00, 0x00, 0x00, 0x00, 0x00, 0x00, 0x00, 0x00, 0x00, 0x00, 0x00, 0x00, 0x00, 0x00, 0x00, 0x00, 0x00, 0x00, 0x00, 0x00, 0x00, 0x00, 0x00, 0x00, 0x00, 0x00, 0x00, 0x00, 0x00, 0x00, 0x00, 0x00, 0x00, 0x00, 0x00, 0x00, 0x00, 0x00, 0x00, 0x00, 0x00, 0x00, 0x00, 0x00, 0x00, 0x00, 0x00, 0x00, 0x00, 0x00, 0x00, 0x00, 0x00, 0x00, 0x00, 0x00, 0x00, 0x00, 0x00, 0x00, 0x00, 0x00, 0x00, 0x00, 0x00, 0x00, 0x00, 0x00, 0x00, 0x00, 0x00, 0x00, 0x00, 0x00, 0x00, 0x00, 0x00, 0x00, 0x00, 0x00, 0x00, 0x00, 0x00, 0x00, 0x00, 0x00, 0x00, 0x00, 0x00, 0x00, 0x00, 0x00, 0x00, 0x00, 0x00, 0x00, 0x00, 0x00, 0x00, 0x00, 0x00, 0x00, 0x00, 0x00, 0x00, 0x00, 0x00, 0x00, 0x00, 0x00, 0x00, 0x00, 0x00, 0x00, 0x00, 0x00, 0x00, 0x00, 0x00, 0x00, 0x00, 0x00, 0x00, 0x00, 0x00, 0x00, 0x00, 0x00, 0x00, 0x00, 0x00, 0x00, 0x00, 0x00, 0x00, 0x00, 0x00, 0x00, 0x00, 0x00, 0x00, 0x00, 0x00, 0x00, 0x00, 0x00, 0x00, 0x00, 0x00, 0x00, 0x00, 0x00, 0x00, 0x00, 0x00, 0x00, 0x00, 0x00, 0x00, 0x00, 0x00, 0x00, 0x00, 0x00, 0x00, 0x00, 0x00, 0x00, 0x00, 0x00, 0x00, 0x00, 0x00, 0x00, 0x00, 0x00, 0x00, 0x00, 0x00, 0x00, 0x00, 0x00, 0x00, 0x00, 0x00, 0x00, 0x00, 0x00, 0x00, 0x00, 0x00, 0x00, 0x00, 0x00, 0x00, 0x00, 0x00, 0x00, 0x00, 0x00, 0x00, 0x00, 0x00, 0x00, 0x00, 0x00, 0x00, 0x00, 0x00, 0x00, 0x00, 0x00, 0x00, 0x00, 0x00, 0x00, 0x00, 0x00, 0x00, 0x00, 0x00, 0x00, 0x00, 0x00, 0x00, 0x00, 0x00, 0x00, 0x00, 0x00, 0x00, 0x00, 0x00, 0x00, 0x00, 0x00, 0x00, 0x00, 0x00, 0x00, 0x00, 0x00, 0x00, 0x00, 0x00, 0x00, 0x00, 0x00, 0x00, 0x00, 0x00, 0x00, 0x00, 0x00, 0x00, 0x00, 0x00, 0x00, 0x00, 0x00, 0x00, 0x00, 0x00, 0x00, 0x00, 0x00, 0x00, 0x00, 0x00, 0x00, 0x00, 0x00, 0x00, 0x00, 0x00, 0x00, 0x00, 0x00, 0x00, 0x00, 0x00, 0x00, 0x00, 0x00, 0x00, 0x00, 0x00, 0x00, 0x00, 0x00, 0x00, 0x00, 0x00, 0x00, 0x00, 0x00, 0x00, 0x00, 0x00, 0x00, 0x00, 0x00, 0x00, 0x00, 0x00, 0x00, 0x00, 0x00, 0x00, 0x00, 0x00, 0x00, 0x00, 0x00, 0x00, 0x00, 0x00, 0x00, 0x00, 0x00, 0x00, 0x00, 0x00, 0x00, 0x00, 0x00, 0x00, 0x00, 0x00, 0x00, 0x00, 0x00, 0x00, 0x00, 0x00, 0x00, 0x00, 0x00, 0x00, 0x00, 0x00, 0x00, 0x00, 0x00, 0x40, 0x00, 0x00, 0x00, 0x96, 0xf3, 0x21, 0x34, 0x56, 0x05, 0x58, 0x37, 0x43, 0x28, 0xcb, 0x36, 0xa0, 0xd6, 0xd9, 0x36, 0xca, 0x9b, 0x26, 0x36, 0x39, 0xb8, 0x3f, 0x37, 0xdb, 0x01, 0x3e, 0x37, 0x8a, 0xcc, 0x0e, 0x37, 0xb7, 0xd3, 0xb6, 0x36, 0x59, 0x17, 0x02, 0x37, 0x57, 0xf0, 0x1c, 0x37, 0x72, 0x3e, 0x0e, 0x37, 0xe2, 0x45, 0x12, 0x37, 0xb8, 0x00, 0x26, 0x37, 0xf3, 0x95, 0x54, 0x37, 0x37, 0xfb, 0x1f, 0x37, 0xda, 0xb4, 0x83, 0x36, 0x3d, 0x99, 0xe3, 0x36, 0x63, 0x55, 0xe8, 0x36, 0x5a, 0x80, 0xb1, 0x36, 0xdd, 0x00, 0xa4, 0x36, 0xe1, 0x5b, 0x8b, 0x36, 0xf6, 0x16, 0xb3, 0x36, 0x3c, 0xaf, 0x63, 0x37, 0x94, 0x1e, 0xfb, 0x36, 0x2f, 0x0f, 0xe3, 0x36, 0xdf, 0xfe, 0x4d, 0x37, 0x01, 0x42, 0x32, 0x37, 0xd3, 0xa0, 0x37, 0x37, 0x00, 0xfe, 0x04, 0x37, 0x3d, 0x78, 0x21, 0x37, 0xa2, 0x59, 0x0b, 0x37, 0xc9, 0x58, 0x01, 0x37, 0x16, 0x89, 0x14, 0x37, 0x6c, 0x72, 0x93, 0x36, 0x93, 0x8e, 0x94, 0x36, 0x0a, 0x3b, 0xd5, 0x36, 0x3f, 0xdf, 0x14, 0x36, 0x4f, 0x6b, 0x8c, 0x36, 0x3b, 0xec, 0x22, 0x37, 0x34, 0x1e, 0x2b, 0x37, 0x00, 0xc7, 0x50, 0x35, 0x0f, 0x65, 0xd2, 0x36, 0x47, 0xda, 0x3d, 0x37, 0x5c, 0x71, 0x09, 0x37, 0xe5, 0x64, 0x26, 0x37, 0x47, 0xb4, 0x26, 0x37, 0x09, 0x4a, 0xec, 0x36, 0x49, 0xb0, 0x70, 0x36, 0xa1, 0xa3, 0x8d, 0x36, 0x58, 0x50, 0xbb, 0x36, 0x91, 0x9c, 0xc9, 0x36, 0x51, 0x7d, 0x0c, 0x37, 0x0b, 0x49, 0x36, 0x37, 0xd7, 0x1d, 0x0d, 0x37, 0x1a, 0x6d, 0x3e, 0x37, 0xe2, 0x05, 0x53, 0x37, 0xc7, 0x67, 0xf2, 0x36, 0xea, 0xbb, 0x5f, 0x37, 0x27, 0x87, 0xba, 0x36, 0x46, 0x30, 0x1e, 0x36, 0x91, 0x95, 0x74, 0x36, 0xed, 0x2e, 0x16, 0x37, 0x23, 0x24, 0x27, 0x37, 0x12, 0x00, 0x00, 0x00, 0x74, 0x66, 0x6c, 0x2e, 0x70, 0x73, 0x65, 0x75, 0x64, 0x6f, 0x5f, 0x71, 0x63, 0x6f, 0x6e, 0x73, 0x74, 0x36, 0x00, 0x00, 0x01, 0x00, 0x00, 0x00, 0x40, 0x00, 0x00, 0x00, 0x42, 0xf5, 0xff, 0xff, 0x00, 0x00, 0x00, 0x01, 0x14, 0x00, 0x00, 0x00, 0x28, 0x03, 0x00, 0x00, 0x07, 0x00, 0x00, 0x00, 0x00, 0x00, 0x00, 0x09, 0x34, 0x03, 0x00, 0x00, 0x2c, 0xf5, 0xff, 0xff, 0x08, 0x00, 0x00, 0x00, 0x0c, 0x02, 0x00, 0x00, 0x40, 0x00, 0x00, 0x00, 0x00, 0x00, 0x00, 0x00, 0x00, 0x00, 0x00, 0x00, 0x00, 0x00, 0x00, 0x00, 0x00, 0x00, 0x00, 0x00, 0x00, 0x00, 0x00, 0x00, 0x00, 0x00, 0x00, 0x00, 0x00, 0x00, 0x00, 0x00, 0x00, 0x00, 0x00, 0x00, 0x00, 0x00, 0x00, 0x00, 0x00, 0x00, 0x00, 0x00, 0x00, 0x00, 0x00, 0x00, 0x00, 0x00, 0x00, 0x00, 0x00, 0x00, 0x00, 0x00, 0x00, 0x00, 0x00, 0x00, 0x00, 0x00, 0x00, 0x00, 0x00, 0x00, 0x00, 0x00, 0x00, 0x00, 0x00, 0x00, 0x00, 0x00, 0x00, 0x00, 0x00, 0x00, 0x00, 0x00, 0x00, 0x00, 0x00, 0x00, 0x00, 0x00, 0x00, 0x00, 0x00, 0x00, 0x00, 0x00, 0x00, 0x00, 0x00, 0x00, 0x00, 0x00, 0x00, 0x00, 0x00, 0x00, 0x00, 0x00, 0x00, 0x00, 0x00, 0x00, 0x00, 0x00, 0x00, 0x00, 0x00, 0x00, 0x00, 0x00, 0x00, 0x00, 0x00, 0x00, 0x00, 0x00, 0x00, 0x00, 0x00, 0x00, 0x00, 0x00, 0x00, 0x00, 0x00, 0x00, 0x00, 0x00, 0x00, 0x00, 0x00, 0x00, 0x00, 0x00, 0x00, 0x00, 0x00, 0x00, 0x00, 0x00, 0x00, 0x00, 0x00, 0x00, 0x00, 0x00, 0x00, 0x00, 0x00, 0x00, 0x00, 0x00, 0x00, 0x00, 0x00, 0x00, 0x00, 0x00, 0x00, 0x00, 0x00, 0x00, 0x00, 0x00, 0x00, 0x00, 0x00, 0x00, 0x00, 0x00, 0x00, 0x00, 0x00, 0x00, 0x00, 0x00, 0x00, 0x00, 0x00, 0x00, 0x00, 0x00, 0x00, 0x00, 0x00, 0x00, 0x00, 0x00, 0x00, 0x00, 0x00, 0x00, 0x00, 0x00, 0x00, 0x00, 0x00, 0x00, 0x00, 0x00, 0x00, 0x00, 0x00, 0x00, 0x00, 0x00, 0x00, 0x00, 0x00, 0x00, 0x00, 0x00, 0x00, 0x00, 0x00, 0x00, 0x00, 0x00, 0x00, 0x00, 0x00, 0x00, 0x00, 0x00, 0x00, 0x00, 0x00, 0x00, 0x00, 0x00, 0x00, 0x00, 0x00, 0x00, 0x00, 0x00, 0x00, 0x00, 0x00, 0x00, 0x00, 0x00, 0x00, 0x00, 0x00, 0x00, 0x00, 0x00, 0x00, 0x00, 0x00, 0x00, 0x00, 0x00, 0x00, 0x00, 0x00, 0x00, 0x00, 0x00, 0x00, 0x00, 0x00, 0x00, 0x00, 0x00, 0x00, 0x00, 0x00, 0x00, 0x00, 0x00, 0x00, 0x00, 0x00, 0x00, 0x00, 0x00, 0x00, 0x00, 0x00, 0x00, 0x00, 0x00, 0x00, 0x00, 0x00, 0x00, 0x00, 0x00, 0x00, 0x00, 0x00, 0x00, 0x00, 0x00, 0x00, 0x00, 0x00, 0x00, 0x00, 0x00, 0x00, 0x00, 0x00, 0x00, 0x00, 0x00, 0x00, 0x00, 0x00, 0x00, 0x00, 0x00, 0x00, 0x00, 0x00, 0x00, 0x00, 0x00, 0x00, 0x00, 0x00, 0x00, 0x00, 0x00, 0x00, 0x00, 0x00, 0x00, 0x00, 0x00, 0x00, 0x00, 0x00, 0x00, 0x00, 0x00, 0x00, 0x00, 0x00, 0x00, 0x00, 0x00, 0x00, 0x00, 0x00, 0x00, 0x00, 0x00, 0x00, 0x00, 0x00, 0x00, 0x00, 0x00, 0x00, 0x00, 0x00, 0x00, 0x00, 0x00, 0x00, 0x00, 0x00, 0x00, 0x00, 0x00, 0x00, 0x00, 0x00, 0x00, 0x00, 0x00, 0x00, 0x00, 0x00, 0x00, 0x00, 0x00, 0x00, 0x00, 0x00, 0x00, 0x00, 0x00, 0x00, 0x00, 0x00, 0x00, 0x00, 0x00, 0x00, 0x00, 0x00, 0x00, 0x00, 0x00, 0x00, 0x00, 0x00, 0x00, 0x00, 0x00, 0x00, 0x00, 0x00, 0x00, 0x00, 0x00, 0x00, 0x00, 0x00, 0x00, 0x00, 0x00, 0x00, 0x00, 0x00, 0x00, 0x00, 0x00, 0x00, 0x00, 0x00, 0x00, 0x00, 0x00, 0x00, 0x00, 0x00, 0x00, 0x00, 0x00, 0x00, 0x00, 0x00, 0x00, 0x00, 0x00, 0x00, 0x00, 0x00, 0x00, 0x00, 0x00, 0x00, 0x00, 0x00, 0x00, 0x00, 0x00, 0x00, 0x00, 0x00, 0x00, 0x00, 0x00, 0x00, 0x00, 0x00, 0x00, 0x00, 0x00, 0x00, 0x00, 0x00, 0x00, 0x00, 0x00, 0x00, 0x00, 0x00, 0x00, 0x00, 0x00, 0x00, 0x00, 0x00, 0x00, 0x00, 0x00, 0x00, 0x00, 0x00, 0x00, 0x00, 0x00, 0x00, 0x00, 0x00, 0x00, 0x00, 0x00, 0x00, 0x00, 0x00, 0x00, 0x00, 0x00, 0x00, 0x00, 0x00, 0x00, 0x00, 0x00, 0x00, 0x00, 0x00, 0x00, 0x00, 0x00, 0x00, 0x00, 0x40, 0x00, 0x00, 0x00, 0xa6, 0x51, 0x60, 0x3b, 0x46, 0x58, 0x0b, 0x3b, 0x14, 0x65, 0x5c, 0x3b, 0x58, 0xdf, 0x46, 0x3b, 0x9f, 0x53, 0x5b, 0x3b, 0x58, 0x61, 0xbf, 0x3b, 0x27, 0x2d, 0xb6, 0x3b, 0x80, 0x51, 0x0a, 0x3b, 0x0f, 0x3f, 0xa9, 0x3b, 0xac, 0x0f, 0xb4, 0x3b, 0xb8, 0x59, 0x33, 0x3b, 0x15, 0x6a, 0x21, 0x3b, 0xe3, 0xf0, 0xde, 0x3a, 0x0a, 0xfa, 0x16, 0x3b, 0xda, 0xf1, 0x18, 0x3b, 0xcc, 0x7f, 0x5e, 0x3b, 0xe8, 0x2a, 0xeb, 0x3a, 0x27, 0xe7, 0x81, 0x3b, 0x9d, 0x51, 0x12, 0x3b, 0xdb, 0xa6, 0x75, 0x3b, 0x80, 0x8a, 0x69, 0x3b, 0x3e, 0xfb, 0x67, 0x3b, 0xc6, 0xbc, 0x9f, 0x3b, 0x1e, 0xba, 0x46, 0x3b, 0x0d, 0xfb, 0x31, 0x3b, 0xfe, 0xbe, 0x1d, 0x3b, 0x9b, 0x2f, 0x21, 0x3b, 0xa8, 0xbf, 0x56, 0x3b, 0xe3, 0x81, 0x26, 0x3b, 0xf9, 0x5a, 0x55, 0x3b, 0x7d, 0x77, 0x9f, 0x3b, 0x89, 0x27, 0x2e, 0x3b, 0x8c, 0x72, 0x78, 0x3b, 0x30, 0x1c, 0x40, 0x3b, 0x33, 0x8a, 0x24, 0x3b, 0x9f, 0x51, 0x03, 0x3b, 0xd0, 0xd4, 0x95, 0x3b, 0x00, 0x01, 0x90, 0x3b, 0x66, 0xc0, 0x5a, 0x3b, 0xd8, 0x5d, 0x54, 0x3b, 0x85, 0x4e, 0x37, 0x3b, 0x61, 0x4e, 0x9e, 0x3b, 0xd8, 0xa3, 0x17, 0x3b, 0xc4, 0x56, 0x1f, 0x3b, 0x55, 0xfe, 0x28, 0x3b, 0x22, 0x5e, 0x57, 0x3b, 0xba, 0x24, 0x25, 0x3b, 0xa0, 0x56, 0x75, 0x3b, 0xb9, 0x99, 0xa5, 0x3b, 0x39, 0x51, 0xa7, 0x3b, 0x00, 0x4e, 0x40, 0x3b, 0x57, 0xb6, 0x16, 0x3b, 0x5d, 0x60, 0x39, 0x3b, 0xb4, 0x1f, 0x27, 0x3b, 0x1d, 0xda, 0xe1, 0x3a, 0xa4, 0x69, 0xa0, 0x3b, 0x20, 0x81, 0x9b, 0x3b, 0xcd, 0x85, 0x2e, 0x3b, 0x5b, 0x8e, 0x17, 0x3b, 0xbd, 0x5b, 0x11, 0x3b, 0x13, 0xd9, 0x02, 0x3b, 0xda, 0xc1, 0x0d, 0x3b, 0xf2, 0x62, 0xee, 0x3b, 0x19, 0x35, 0xcb, 0x3b, 0x12, 0x00, 0x00, 0x00, 0x74, 0x66, 0x6c, 0x2e, 0x70, 0x73, 0x65, 0x75, 0x64, 0x6f, 0x5f, 0x71, 0x63, 0x6f, 0x6e, 0x73, 0x74, 0x35, 0x00, 0x00, 0x02, 0x00, 0x00, 0x00, 0x40, 0x00, 0x00, 0x00, 0x40, 0x00, 0x00, 0x00, 0x9a, 0xf8, 0xff, 0xff, 0x00, 0x00, 0x00, 0x01, 0x14, 0x00, 0x00, 0x00, 0x24, 0x03, 0x00, 0x00, 0x06, 0x00, 0x00, 0x00, 0x00, 0x00, 0x00, 0x02, 0x30, 0x03, 0x00, 0x00, 0x84, 0xf8, 0xff, 0xff, 0x08, 0x00, 0x00, 0x00, 0x08, 0x02, 0x00, 0x00, 0x40, 0x00, 0x00, 0x00, 0x00, 0x00, 0x00, 0x00, 0x00, 0x00, 0x00, 0x00, 0x00, 0x00, 0x00, 0x00, 0x00, 0x00, 0x00, 0x00, 0x00, 0x00, 0x00, 0x00, 0x00, 0x00, 0x00, 0x00, 0x00, 0x00, 0x00, 0x00, 0x00, 0x00, 0x00, 0x00, 0x00, 0x00, 0x00, 0x00, 0x00, 0x00, 0x00, 0x00, 0x00, 0x00, 0x00, 0x00, 0x00, 0x00, 0x00, 0x00, 0x00, 0x00, 0x00, 0x00, 0x00, 0x00, 0x00, 0x00, 0x00, 0x00, 0x00, 0x00, 0x00, 0x00, 0x00, 0x00, 0x00, 0x00, 0x00, 0x00, 0x00, 0x00, 0x00, 0x00, 0x00, 0x00, 0x00, 0x00, 0x00, 0x00, 0x00, 0x00, 0x00, 0x00, 0x00, 0x00, 0x00, 0x00, 0x00, 0x00, 0x00, 0x00, 0x00, 0x00, 0x00, 0x00, 0x00, 0x00, 0x00, 0x00, 0x00, 0x00, 0x00, 0x00, 0x00, 0x00, 0x00, 0x00, 0x00, 0x00, 0x00, 0x00, 0x00, 0x00, 0x00, 0x00, 0x00, 0x00, 0x00, 0x00, 0x00, 0x00, 0x00, 0x00, 0x00, 0x00, 0x00, 0x00, 0x00, 0x00, 0x00, 0x00, 0x00, 0x00, 0x00, 0x00, 0x00, 0x00, 0x00, 0x00, 0x00, 0x00, 0x00, 0x00, 0x00, 0x00, 0x00, 0x00, 0x00, 0x00, 0x00, 0x00, 0x00, 0x00, 0x00, 0x00, 0x00, 0x00, 0x00, 0x00, 0x00, 0x00, 0x00, 0x00, 0x00, 0x00, 0x00, 0x00, 0x00, 0x00, 0x00, 0x00, 0x00, 0x00, 0x00, 0x00, 0x00, 0x00, 0x00, 0x00, 0x00, 0x00, 0x00, 0x00, 0x00, 0x00, 0x00, 0x00, 0x00, 0x00, 0x00, 0x00, 0x00, 0x00, 0x00, 0x00, 0x00, 0x00, 0x00, 0x00, 0x00, 0x00, 0x00, 0x00, 0x00, 0x00, 0x00, 0x00, 0x00, 0x00, 0x00, 0x00, 0x00, 0x00, 0x00, 0x00, 0x00, 0x00, 0x00, 0x00, 0x00, 0x00, 0x00, 0x00, 0x00, 0x00, 0x00, 0x00, 0x00, 0x00, 0x00, 0x00, 0x00, 0x00, 0x00, 0x00, 0x00, 0x00, 0x00, 0x00, 0x00, 0x00, 0x00, 0x00, 0x00, 0x00, 0x00, 0x00, 0x00, 0x00, 0x00, 0x00, 0x00, 0x00, 0x00, 0x00, 0x00, 0x00, 0x00, 0x00, 0x00, 0x00, 0x00, 0x00, 0x00, 0x00, 0x00, 0x00, 0x00, 0x00, 0x00, 0x00, 0x00, 0x00, 0x00, 0x00, 0x00, 0x00, 0x00, 0x00, 0x00, 0x00, 0x00, 0x00, 0x00, 0x00, 0x00, 0x00, 0x00, 0x00, 0x00, 0x00, 0x00, 0x00, 0x00, 0x00, 0x00, 0x00, 0x00, 0x00, 0x00, 0x00, 0x00, 0x00, 0x00, 0x00, 0x00, 0x00, 0x00, 0x00, 0x00, 0x00, 0x00, 0x00, 0x00, 0x00, 0x00, 0x00, 0x00, 0x00, 0x00, 0x00, 0x00, 0x00, 0x00, 0x00, 0x00, 0x00, 0x00, 0x00, 0x00, 0x00, 0x00, 0x00, 0x00, 0x00, 0x00, 0x00, 0x00, 0x00, 0x00, 0x00, 0x00, 0x00, 0x00, 0x00, 0x00, 0x00, 0x00, 0x00, 0x00, 0x00, 0x00, 0x00, 0x00, 0x00, 0x00, 0x00, 0x00, 0x00, 0x00, 0x00, 0x00, 0x00, 0x00, 0x00, 0x00, 0x00, 0x00, 0x00, 0x00, 0x00, 0x00, 0x00, 0x00, 0x00, 0x00, 0x00, 0x00, 0x00, 0x00, 0x00, 0x00, 0x00, 0x00, 0x00, 0x00, 0x00, 0x00, 0x00, 0x00, 0x00, 0x00, 0x00, 0x00, 0x00, 0x00, 0x00, 0x00, 0x00, 0x00, 0x00, 0x00, 0x00, 0x00, 0x00, 0x00, 0x00, 0x00, 0x00, 0x00, 0x00, 0x00, 0x00, 0x00, 0x00, 0x00, 0x00, 0x00, 0x00, 0x00, 0x00, 0x00, 0x00, 0x00, 0x00, 0x00, 0x00, 0x00, 0x00, 0x00, 0x00, 0x00, 0x00, 0x00, 0x00, 0x00, 0x00, 0x00, 0x00, 0x00, 0x00, 0x00, 0x00, 0x00, 0x00, 0x00, 0x00, 0x00, 0x00, 0x00, 0x00, 0x00, 0x00, 0x00, 0x00, 0x00, 0x00, 0x00, 0x00, 0x00, 0x00, 0x00, 0x00, 0x00, 0x00, 0x00, 0x00, 0x00, 0x00, 0x00, 0x00, 0x00, 0x00, 0x00, 0x00, 0x00, 0x00, 0x00, 0x00, 0x00, 0x00, 0x00, 0x00, 0x00, 0x00, 0x00, 0x00, 0x00, 0x00, 0x00, 0x00, 0x00, 0x00, 0x00, 0x00, 0x00, 0x00, 0x00, 0x00, 0x00, 0x00, 0x00, 0x00, 0x00, 0x00, 0x00, 0x00, 0x00, 0x00, 0x00, 0x00, 0x00, 0x00, 0x40, 0x00, 0x00, 0x00, 0xa6, 0x51, 0xe0, 0x37, 0x46, 0x58, 0x8b, 0x37, 0x14, 0x65, 0xdc, 0x37, 0x58, 0xdf, 0xc6, 0x37, 0x9f, 0x53, 0xdb, 0x37, 0x58, 0x61, 0x3f, 0x38, 0x27, 0x2d, 0x36, 0x38, 0x80, 0x51, 0x8a, 0x37, 0x0f, 0x3f, 0x29, 0x38, 0xac, 0x0f, 0x34, 0x38, 0xb8, 0x59, 0xb3, 0x37, 0x15, 0x6a, 0xa1, 0x37, 0xe3, 0xf0, 0x5e, 0x37, 0x0a, 0xfa, 0x96, 0x37, 0xda, 0xf1, 0x98, 0x37, 0xcc, 0x7f, 0xde, 0x37, 0xe8, 0x2a, 0x6b, 0x37, 0x27, 0xe7, 0x01, 0x38, 0x9d, 0x51, 0x92, 0x37, 0xdb, 0xa6, 0xf5, 0x37, 0x80, 0x8a, 0xe9, 0x37, 0x3e, 0xfb, 0xe7, 0x37, 0xc6, 0xbc, 0x1f, 0x38, 0x1e, 0xba, 0xc6, 0x37, 0x0d, 0xfb, 0xb1, 0x37, 0xfe, 0xbe, 0x9d, 0x37, 0x9b, 0x2f, 0xa1, 0x37, 0xa8, 0xbf, 0xd6, 0x37, 0xe3, 0x81, 0xa6, 0x37, 0xf9, 0x5a, 0xd5, 0x37, 0x7d, 0x77, 0x1f, 0x38, 0x89, 0x27, 0xae, 0x37, 0x8c, 0x72, 0xf8, 0x37, 0x30, 0x1c, 0xc0, 0x37, 0x33, 0x8a, 0xa4, 0x37, 0x9f, 0x51, 0x83, 0x37, 0xd0, 0xd4, 0x15, 0x38, 0x00, 0x01, 0x10, 0x38, 0x66, 0xc0, 0xda, 0x37, 0xd8, 0x5d, 0xd4, 0x37, 0x85, 0x4e, 0xb7, 0x37, 0x61, 0x4e, 0x1e, 0x38, 0xd8, 0xa3, 0x97, 0x37, 0xc4, 0x56, 0x9f, 0x37, 0x55, 0xfe, 0xa8, 0x37, 0x22, 0x5e, 0xd7, 0x37, 0xba, 0x24, 0xa5, 0x37, 0xa0, 0x56, 0xf5, 0x37, 0xb9, 0x99, 0x25, 0x38, 0x39, 0x51, 0x27, 0x38, 0x00, 0x4e, 0xc0, 0x37, 0x57, 0xb6, 0x96, 0x37, 0x5d, 0x60, 0xb9, 0x37, 0xb4, 0x1f, 0xa7, 0x37, 0x1d, 0xda, 0x61, 0x37, 0xa4, 0x69, 0x20, 0x38, 0x20, 0x81, 0x1b, 0x38, 0xcd, 0x85, 0xae, 0x37, 0x5b, 0x8e, 0x97, 0x37, 0xbd, 0x5b, 0x91, 0x37, 0x13, 0xd9, 0x82, 0x37, 0xda, 0xc1, 0x8d, 0x37, 0xf2, 0x62, 0x6e, 0x38, 0x19, 0x35, 0x4b, 0x38, 0x12, 0x00, 0x00, 0x00, 0x74, 0x66, 0x6c, 0x2e, 0x70, 0x73, 0x65, 0x75, 0x64, 0x6f, 0x5f, 0x71, 0x63, 0x6f, 0x6e, 0x73, 0x74, 0x34, 0x00, 0x00, 0x01, 0x00, 0x00, 0x00, 0x40, 0x00, 0x00, 0x00, 0xea, 0xfb, 0xff, 0xff, 0x00, 0x00, 0x00, 0x01, 0x14, 0x00, 0x00, 0x00, 0xa8, 0x01, 0x00, 0x00, 0x05, 0x00, 0x00, 0x00, 0x00, 0x00, 0x00, 0x09, 0xb4, 0x01, 0x00, 0x00, 0xd4, 0xfb, 0xff, 0xff, 0x08, 0x00, 0x00, 0x00, 0x0c, 0x01, 0x00, 0x00, 0x20, 0x00, 0x00, 0x00, 0x00, 0x00, 0x00, 0x00, 0x00, 0x00, 0x00, 0x00, 0x00, 0x00, 0x00, 0x00, 0x00, 0x00, 0x00, 0x00, 0x00, 0x00, 0x00, 0x00, 0x00, 0x00, 0x00, 0x00, 0x00, 0x00, 0x00, 0x00, 0x00, 0x00, 0x00, 0x00, 0x00, 0x00, 0x00, 0x00, 0x00, 0x00, 0x00, 0x00, 0x00, 0x00, 0x00, 0x00, 0x00, 0x00, 0x00, 0x00, 0x00, 0x00, 0x00, 0x00, 0x00, 0x00, 0x00, 0x00, 0x00, 0x00, 0x00, 0x00, 0x00, 0x00, 0x00, 0x00, 0x00, 0x00, 0x00, 0x00, 0x00, 0x00, 0x00, 0x00, 0x00, 0x00, 0x00, 0x00, 0x00, 0x00, 0x00, 0x00, 0x00, 0x00, 0x00, 0x00, 0x00, 0x00, 0x00, 0x00, 0x00, 0x00, 0x00, 0x00, 0x00, 0x00, 0x00, 0x00, 0x00, 0x00, 0x00, 0x00, 0x00, 0x00, 0x00, 0x00, 0x00, 0x00, 0x00, 0x00, 0x00, 0x00, 0x00, 0x00, 0x00, 0x00, 0x00, 0x00, 0x00, 0x00, 0x00, 0x00, 0x00, 0x00, 0x00, 0x00, 0x00, 0x00, 0x00, 0x00, 0x00, 0x00, 0x00, 0x00, 0x00, 0x00, 0x00, 0x00, 0x00, 0x00, 0x00, 0x00, 0x00, 0x00, 0x00, 0x00, 0x00, 0x00, 0x00, 0x00, 0x00, 0x00, 0x00, 0x00, 0x00, 0x00, 0x00, 0x00, 0x00, 0x00, 0x00, 0x00, 0x00, 0x00, 0x00, 0x00, 0x00, 0x00, 0x00, 0x00, 0x00, 0x00, 0x00, 0x00, 0x00, 0x00, 0x00, 0x00, 0x00, 0x00, 0x00, 0x00, 0x00, 0x00, 0x00, 0x00, 0x00, 0x00, 0x00, 0x00, 0x00, 0x00, 0x00, 0x00, 0x00, 0x00, 0x00, 0x00, 0x00, 0x00, 0x00, 0x00, 0x00, 0x00, 0x00, 0x00, 0x00, 0x00, 0x00, 0x00, 0x00, 0x00, 0x00, 0x00, 0x00, 0x00, 0x00, 0x00, 0x00, 0x00, 0x00, 0x00, 0x00, 0x00, 0x00, 0x00, 0x00, 0x00, 0x00, 0x00, 0x00, 0x00, 0x00, 0x00, 0x00, 0x00, 0x00, 0x00, 0x00, 0x00, 0x00, 0x00, 0x00, 0x00, 0x00, 0x00, 0x00, 0x00, 0x00, 0x00, 0x00, 0x00, 0x00, 0x00, 0x00, 0x00, 0x00, 0x00, 0x00, 0x00, 0x00, 0x00, 0x20, 0x00, 0x00, 0x00, 0xce, 0x86, 0x83, 0x3b, 0x65, 0xbd, 0x6c, 0x3b, 0xf1, 0x73, 0xc9, 0x3b, 0xd8, 0x32, 0x68, 0x3b, 0x94, 0x69, 0x19, 0x3b, 0x41, 0x3d, 0x7c, 0x3b, 0x16, 0xf3, 0x47, 0x3b, 0x35, 0x26, 0x65, 0x3b, 0x54, 0xe5, 0x2c, 0x3b, 0xc7, 0xdd, 0x30, 0x3b, 0x23, 0x52, 0xe5, 0x3b, 0x4a, 0x81, 0x38, 0x3b, 0xe3, 0x85, 0x7f, 0x3b, 0x3a, 0xcb, 0x59, 0x3b, 0xf7, 0x7d, 0x71, 0x3b, 0x18, 0xf5, 0x92, 0x3b, 0x07, 0xe2, 0x26, 0x3b, 0x98, 0xbe, 0x2a, 0x3b, 0x4b, 0x95, 0xc3, 0x3b, 0x06, 0x3e, 0xf1, 0x3b, 0xeb, 0x38, 0x34, 0x3b, 0x71, 0xc6, 0x77, 0x3b, 0x4b, 0x9f, 0x45, 0x3b, 0x90, 0x83, 0xa0, 0x3b, 0xdc, 0xb7, 0x69, 0x3b, 0xa9, 0xdf, 0x3a, 0x3b, 0x54, 0xd4, 0x23, 0x3b, 0x56, 0x17, 0x7a, 0x3b, 0x1a, 0x37, 0x1b, 0x3b, 0x1d, 0x42, 0x7e, 0x3b, 0x89, 0xe4, 0xaa, 0x3b, 0x78, 0x04, 0x71, 0x3b, 0x12, 0x00, 0x00, 0x00, 0x74, 0x66, 0x6c, 0x2e, 0x70, 0x73, 0x65, 0x75, 0x64, 0x6f, 0x5f, 0x71, 0x63, 0x6f, 0x6e, 0x73, 0x74, 0x33, 0x00, 0x00, 0x02, 0x00, 0x00, 0x00, 0x20, 0x00, 0x00, 0x00, 0x40, 0x00, 0x00, 0x00, 0xc2, 0xfd, 0xff, 0xff, 0x00, 0x00, 0x00, 0x01, 0x14, 0x00, 0x00, 0x00, 0xa4, 0x01, 0x00, 0x00, 0x04, 0x00, 0x00, 0x00, 0x00, 0x00, 0x00, 0x02, 0xb0, 0x01, 0x00, 0x00, 0xac, 0xfd, 0xff, 0xff, 0x08, 0x00, 0x00, 0x00, 0x08, 0x01, 0x00, 0x00, 0x20, 0x00, 0x00, 0x00, 0x00, 0x00, 0x00, 0x00, 0x00, 0x00, 0x00, 0x00, 0x00, 0x00, 0x00, 0x00, 0x00, 0x00, 0x00, 0x00, 0x00, 0x00, 0x00, 0x00, 0x00, 0x00, 0x00, 0x00, 0x00, 0x00, 0x00, 0x00, 0x00, 0x00, 0x00, 0x00, 0x00, 0x00, 0x00, 0x00, 0x00, 0x00, 0x00, 0x00, 0x00, 0x00, 0x00, 0x00, 0x00, 0x00, 0x00, 0x00, 0x00, 0x00, 0x00, 0x00, 0x00, 0x00, 0x00, 0x00, 0x00, 0x00, 0x00, 0x00, 0x00, 0x00, 0x00, 0x00, 0x00, 0x00, 0x00, 0x00, 0x00, 0x00, 0x00, 0x00, 0x00, 0x00, 0x00, 0x00, 0x00, 0x00, 0x00, 0x00, 0x00, 0x00, 0x00, 0x00, 0x00, 0x00, 0x00, 0x00, 0x00, 0x00, 0x00, 0x00, 0x00, 0x00, 0x00, 0x00, 0x00, 0x00, 0x00, 0x00, 0x00, 0x00, 0x00, 0x00, 0x00, 0x00, 0x00, 0x00, 0x00, 0x00, 0x00, 0x00, 0x00, 0x00, 0x00, 0x00, 0x00, 0x00, 0x00, 0x00, 0x00, 0x00, 0x00, 0x00, 0x00, 0x00, 0x00, 0x00, 0x00, 0x00, 0x00, 0x00, 0x00, 0x00, 0x00, 0x00, 0x00, 0x00, 0x00, 0x00, 0x00, 0x00, 0x00, 0x00, 0x00, 0x00, 0x00, 0x00, 0x00, 0x00, 0x00, 0x00, 0x00, 0x00, 0x00, 0x00, 0x00, 0x00, 0x00, 0x00, 0x00, 0x00, 0x00, 0x00, 0x00, 0x00, 0x00, 0x00, 0x00, 0x00, 0x00, 0x00, 0x00, 0x00, 0x00, 0x00, 0x00, 0x00, 0x00, 0x00, 0x00, 0x00, 0x00, 0x00, 0x00, 0x00, 0x00, 0x00, 0x00, 0x00, 0x00, 0x00, 0x00, 0x00, 0x00, 0x00, 0x00, 0x00, 0x00, 0x00, 0x00, 0x00, 0x00, 0x00, 0x00, 0x00, 0x00, 0x00, 0x00, 0x00, 0x00, 0x00, 0x00, 0x00, 0x00, 0x00, 0x00, 0x00, 0x00, 0x00, 0x00, 0x00, 0x00, 0x00, 0x00, 0x00, 0x00, 0x00, 0x00, 0x00, 0x00, 0x00, 0x00, 0x00, 0x00, 0x00, 0x00, 0x00, 0x00, 0x00, 0x00, 0x00, 0x00, 0x00, 0x00, 0x00, 0x00, 0x00, 0x00, 0x00, 0x00, 0x00, 0x00, 0x00, 0x00, 0x00, 0x20, 0x00, 0x00, 0x00, 0xce, 0x86, 0x03, 0x38, 0x65, 0xbd, 0xec, 0x37, 0xf1, 0x73, 0x49, 0x38, 0xd8, 0x32, 0xe8, 0x37, 0x94, 0x69, 0x99, 0x37, 0x41, 0x3d, 0xfc, 0x37, 0x16, 0xf3, 0xc7, 0x37, 0x35, 0x26, 0xe5, 0x37, 0x54, 0xe5, 0xac, 0x37, 0xc7, 0xdd, 0xb0, 0x37, 0x23, 0x52, 0x65, 0x38, 0x4a, 0x81, 0xb8, 0x37, 0xe3, 0x85, 0xff, 0x37, 0x3a, 0xcb, 0xd9, 0x37, 0xf7, 0x7d, 0xf1, 0x37, 0x18, 0xf5, 0x12, 0x38, 0x07, 0xe2, 0xa6, 0x37, 0x98, 0xbe, 0xaa, 0x37, 0x4b, 0x95, 0x43, 0x38, 0x06, 0x3e, 0x71, 0x38, 0xeb, 0x38, 0xb4, 0x37, 0x71, 0xc6, 0xf7, 0x37, 0x4b, 0x9f, 0xc5, 0x37, 0x90, 0x83, 0x20, 0x38, 0xdc, 0xb7, 0xe9, 0x37, 0xa9, 0xdf, 0xba, 0x37, 0x54, 0xd4, 0xa3, 0x37, 0x56, 0x17, 0xfa, 0x37, 0x1a, 0x37, 0x9b, 0x37, 0x1d, 0x42, 0xfe, 0x37, 0x89, 0xe4, 0x2a, 0x38, 0x78, 0x04, 0xf1, 0x37, 0x12, 0x00, 0x00, 0x00, 0x74, 0x66, 0x6c, 0x2e, 0x70, 0x73, 0x65, 0x75, 0x64, 0x6f, 0x5f, 0x71, 0x63, 0x6f, 0x6e, 0x73, 0x74, 0x32, 0x00, 0x00, 0x01, 0x00, 0x00, 0x00, 0x20, 0x00, 0x00, 0x00, 0x92, 0xff, 0xff, 0xff, 0x00, 0x00, 0x00, 0x01, 0x14, 0x00, 0x00, 0x00, 0x3c, 0x00, 0x00, 0x00, 0x03, 0x00, 0x00, 0x00, 0x00, 0x00, 0x00, 0x09, 0x48, 0x00, 0x00, 0x00, 0x7c, 0xff, 0xff, 0xff, 0x08, 0x00, 0x00, 0x00, 0x18, 0x00, 0x00, 0x00, 0x02, 0x00, 0x00, 0x00, 0x00, 0x00, 0x00, 0x00, 0x00, 0x00, 0x00, 0x00, 0x00, 0x00, 0x00, 0x00, 0x00, 0x00, 0x00, 0x00, 0x02, 0x00, 0x00, 0x00, 0x87, 0xce, 0x91, 0x3b, 0x27, 0x85, 0xa6, 0x3b, 0x12, 0x00, 0x00, 0x00, 0x74, 0x66, 0x6c, 0x2e, 0x70, 0x73, 0x65, 0x75, 0x64, 0x6f, 0x5f, 0x71, 0x63, 0x6f, 0x6e, 0x73, 0x74, 0x31, 0x00, 0x00, 0x02, 0x00, 0x00, 0x00, 0x02, 0x00, 0x00, 0x00, 0x20, 0x00, 0x00, 0x00, 0x00, 0x00, 0x16, 0x00, 0x1c, 0x00, 0x18, 0x00, 0x17, 0x00, 0x10, 0x00, 0x0c, 0x00, 0x08, 0x00, 0x00, 0x00, 0x00, 0x00, 0x00, 0x00, 0x07, 0x00, 0x16, 0x00, 0x00, 0x00, 0x00, 0x00, 0x00, 0x01, 0x20, 0x00, 0x00, 0x00, 0x4c, 0x00, 0x00, 0x00, 0x02, 0x00, 0x00, 0x00, 0x00, 0x00, 0x00, 0x02, 0x58, 0x00, 0x00, 0x00, 0x0c, 0x00, 0x0c, 0x00, 0x00, 0x00, 0x00, 0x00, 0x08, 0x00, 0x04, 0x00, 0x0c, 0x00, 0x00, 0x00, 0x08, 0x00, 0x00, 0x00, 0x1c, 0x00, 0x00, 0x00, 0x02, 0x00, 0x00, 0x00, 0x00, 0x00, 0x00, 0x00, 0x00, 0x00, 0x00, 0x00, 0x00, 0x00, 0x00, 0x00, 0x00, 0x00, 0x00, 0x00, 0x00, 0x00, 0x00, 0x00, 0x02, 0x00, 0x00, 0x00, 0x87, 0xce, 0x11, 0x38, 0x27, 0x85, 0x26, 0x38, 0x11, 0x00, 0x00, 0x00, 0x74, 0x66, 0x6c, 0x2e, 0x70, 0x73, 0x65, 0x75, 0x64, 0x6f, 0x5f, 0x71, 0x63, 0x6f, 0x6e, 0x73, 0x74, 0x00, 0x00, 0x00, 0x01, 0x00, 0x00, 0x00, 0x02, 0x00, 0x00, 0x00, 0x00, 0x00, 0x16, 0x00, 0x1c, 0x00, 0x18, 0x00, 0x00, 0x00, 0x14, 0x00, 0x10, 0x00, 0x0c, 0x00, 0x00, 0x00, 0x00, 0x00, 0x08, 0x00, 0x07, 0x00, 0x16, 0x00, 0x00, 0x00, 0x00, 0x00, 0x00, 0x01, 0x14, 0x00, 0x00, 0x00, 0x20, 0x00, 0x00, 0x00, 0x20, 0x00, 0x00, 0x00, 0x01, 0x00, 0x00, 0x00, 0x3c, 0x00, 0x00, 0x00, 0x02, 0x00, 0x00, 0x00, 0xff, 0xff, 0xff, 0xff, 0x01, 0x00, 0x00, 0x00, 0x04, 0x00, 0x04, 0x00, 0x04, 0x00, 0x00, 0x00, 0x1e, 0x00, 0x00, 0x00, 0x73, 0x65, 0x72, 0x76, 0x69, 0x6e, 0x67, 0x5f, 0x64, 0x65, 0x66, 0x61, 0x75, 0x6c, 0x74, 0x5f, 0x6b, 0x65, 0x72, 0x61, 0x73, 0x5f, 0x74, 0x65, 0x6e, 0x73, 0x6f, 0x72, 0x3a, 0x30, 0x00, 0x00, 0x02, 0x00, 0x00, 0x00, 0x01, 0x00, 0x00, 0x00, 0x01, 0x00, 0x00, 0x00, 0x04, 0x00, 0x00, 0x00, 0x58, 0x00, 0x00, 0x00, 0x38, 0x00, 0x00, 0x00, 0x18, 0x00, 0x00, 0x00, 0x04, 0x00, 0x00, 0x00, 0xe0, 0xff, 0xff, 0xff, 0x06, 0x00, 0x00, 0x00, 0x02, 0x00, 0x00, 0x00, 0x00, 0x00, 0x00, 0x06, 0xf0, 0xff, 0xff, 0xff, 0x1c, 0x00, 0x00, 0x00, 0x02, 0x00, 0x00, 0x00, 0x00, 0x00, 0x00, 0x1c, 0x0c, 0x00, 0x10, 0x00, 0x0f, 0x00, 0x00, 0x00, 0x08, 0x00, 0x04, 0x00, 0x0c, 0x00, 0x00, 0x00, 0x09, 0x00, 0x00, 0x00, 0x04, 0x00, 0x00, 0x00, 0x00, 0x00, 0x00, 0x09, 0x0c, 0x00, 0x0c, 0x00, 0x0b, 0x00, 0x00, 0x00, 0x00, 0x00, 0x04, 0x00, 0x0c, 0x00, 0x00, 0x00, 0x72, 0x00, 0x00, 0x00, 0x00, 0x00, 0x00, 0x72
};

#endif // TRIG_MODEL_H
