// Auto-generated TensorFlow Lite model
// Model size: 28264 bytes
// Generated by Project2_Technical_Report.ipynb

#ifndef KEYWORD_MODEL_H
#define KEYWORD_MODEL_H

const unsigned int keyword_model_len = 28264;

alignas(8) const unsigned char keyword_model_data[] = {
  0x20, 0x00, 0x00, 0x00, 0x54, 0x46, 0x4c, 0x33, 0x00, 0x00, 0x00, 0x00,
  0x14, 0x00, 0x20, 0x00, 0x1c, 0x00, 0x18, 0x00, 0x14, 0x00, 0x10, 0x00,
  0x0c, 0x00, 0x00, 0x00, 0x08, 0x00, 0x04, 0x00, 0x14, 0x00, 0x00, 0x00,
  0x1c, 0x00, 0x00, 0x00, 0x88, 0x00, 0x00, 0x00, 0xe0, 0x00, 0x00, 0x00,
  0xf8, 0x36, 0x00, 0x00, 0x08, 0x37, 0x00, 0x00, 0x38, 0x6d, 0x00, 0x00,
  0x03, 0x00, 0x00, 0x00, 0x01, 0x00, 0x00, 0x00, 0x04, 0x00, 0x00, 0x00,
  0x96, 0xc5, 0xff, 0xff, 0x0c, 0x00, 0x00, 0x00, 0x1c, 0x00, 0x00, 0x00,
  0x3c, 0x00, 0x00, 0x00, 0x0f, 0x00, 0x00, 0x00, 0x73, 0x65, 0x72, 0x76,
  0x69, 0x6e, 0x67, 0x5f, 0x64, 0x65, 0x66, 0x61, 0x75, 0x6c, 0x74, 0x00,
  0x01, 0x00, 0x00, 0x00, 0x04, 0x00, 0x00, 0x00, 0x94, 0xff, 0xff, 0xff,
  0x25, 0x00, 0x00, 0x00, 0x04, 0x00, 0x00, 0x00, 0x08, 0x00, 0x00, 0x00,
  0x6f, 0x75, 0x74, 0x70, 0x75, 0x74, 0x5f, 0x30, 0x00, 0x00, 0x00, 0x00,
  0x01, 0x00, 0x00, 0x00, 0x04, 0x00, 0x00, 0x00, 0x9e, 0xc5, 0xff, 0xff,
  0x04, 0x00, 0x00, 0x00, 0x0b, 0x00, 0x00, 0x00, 0x69, 0x6e, 0x70, 0x75,
  0x74, 0x5f, 0x6c, 0x61, 0x79, 0x65, 0x72, 0x00, 0x02, 0x00, 0x00, 0x00,
  0x34, 0x00, 0x00, 0x00, 0x04, 0x00, 0x00, 0x00, 0xdc, 0xff, 0xff, 0xff,
  0x28, 0x00, 0x00, 0x00, 0x04, 0x00, 0x00, 0x00, 0x13, 0x00, 0x00, 0x00,
  0x43, 0x4f, 0x4e, 0x56, 0x45, 0x52, 0x53, 0x49, 0x4f, 0x4e, 0x5f, 0x4d,
  0x45, 0x54, 0x41, 0x44, 0x41, 0x54, 0x41, 0x00, 0x08, 0x00, 0x0c, 0x00,
  0x08, 0x00, 0x04, 0x00, 0x08, 0x00, 0x00, 0x00, 0x27, 0x00, 0x00, 0x00,
  0x04, 0x00, 0x00, 0x00, 0x13, 0x00, 0x00, 0x00, 0x6d, 0x69, 0x6e, 0x5f,
  0x72, 0x75, 0x6e, 0x74, 0x69, 0x6d, 0x65, 0x5f, 0x76, 0x65, 0x72, 0x73,
  0x69, 0x6f, 0x6e, 0x00, 0x29, 0x00, 0x00, 0x00, 0x14, 0x36, 0x00, 0x00,
  0x0c, 0x36, 0x00, 0x00, 0xf8, 0x35, 0x00, 0x00, 0xe4, 0x35, 0x00, 0x00,
  0xd0, 0x35, 0x00, 0x00, 0xbc, 0x35, 0x00, 0x00, 0xb4, 0x35, 0x00, 0x00,
  0x9c, 0x35, 0x00, 0x00, 0x6c, 0x35, 0x00, 0x00, 0x5c, 0x33, 0x00, 0x00,
  0x4c, 0x32, 0x00, 0x00, 0x3c, 0x22, 0x00, 0x00, 0x2c, 0x21, 0x00, 0x00,
  0x1c, 0x11, 0x00, 0x00, 0x0c, 0x10, 0x00, 0x00, 0xbc, 0x0d, 0x00, 0x00,
  0xac, 0x0c, 0x00, 0x00, 0x9c, 0x04, 0x00, 0x00, 0x0c, 0x04, 0x00, 0x00,
  0xdc, 0x02, 0x00, 0x00, 0x4c, 0x02, 0x00, 0x00, 0x1c, 0x01, 0x00, 0x00,
  0x14, 0x01, 0x00, 0x00, 0x0c, 0x01, 0x00, 0x00, 0x04, 0x01, 0x00, 0x00,
  0xfc, 0x00, 0x00, 0x00, 0xf4, 0x00, 0x00, 0x00, 0xec, 0x00, 0x00, 0x00,
  0xe4, 0x00, 0x00, 0x00, 0xdc, 0x00, 0x00, 0x00, 0xd4, 0x00, 0x00, 0x00,
  0xcc, 0x00, 0x00, 0x00, 0xc4, 0x00, 0x00, 0x00, 0xbc, 0x00, 0x00, 0x00,
  0xb4, 0x00, 0x00, 0x00, 0xac, 0x00, 0x00, 0x00, 0xa4, 0x00, 0x00, 0x00,
  0x9c, 0x00, 0x00, 0x00, 0x94, 0x00, 0x00, 0x00, 0x74, 0x00, 0x00, 0x00,
  0x04, 0x00, 0x00, 0x00, 0xba, 0xc6, 0xff, 0xff, 0x04, 0x00, 0x00, 0x00,
  0x60, 0x00, 0x00, 0x00, 0x0c, 0x00, 0x00, 0x00, 0x08, 0x00, 0x0e, 0x00,
  0x08, 0x00, 0x04, 0x00, 0x08, 0x00, 0x00, 0x00, 0x10, 0x00, 0x00, 0x00,
  0x28, 0x00, 0x00, 0x00, 0x00, 0x00, 0x06, 0x00, 0x08, 0x00, 0x04, 0x00,
  0x06, 0x00, 0x00, 0x00, 0x04, 0x00, 0x00, 0x00, 0x01, 0x00, 0x00, 0x00,
  0xeb, 0x03, 0x00, 0x00, 0x0c, 0x00, 0x18, 0x00, 0x14, 0x00, 0x10, 0x00,
  0x0c, 0x00, 0x04, 0x00, 0x0c, 0x00, 0x00, 0x00, 0xcc, 0x18, 0x48, 0x61,
  0x21, 0x9a, 0x3f, 0xf8, 0x02, 0x00, 0x00, 0x00, 0x02, 0x00, 0x00, 0x00,
  0x04, 0x00, 0x00, 0x00, 0x06, 0x00, 0x00, 0x00, 0x32, 0x2e, 0x32, 0x30,
  0x2e, 0x30, 0x00, 0x00, 0x26, 0xc7, 0xff, 0xff, 0x04, 0x00, 0x00, 0x00,
  0x10, 0x00, 0x00, 0x00, 0x31, 0x2e, 0x31, 0x34, 0x2e, 0x30, 0x00, 0x00,
  0x00, 0x00, 0x00, 0x00, 0x00, 0x00, 0x00, 0x00, 0x08, 0x95, 0xff, 0xff,
  0x0c, 0x95, 0xff, 0xff, 0x10, 0x95, 0xff, 0xff, 0x14, 0x95, 0xff, 0xff,
  0x18, 0x95, 0xff, 0xff, 0x1c, 0x95, 0xff, 0xff, 0x20, 0x95, 0xff, 0xff,
  0x24, 0x95, 0xff, 0xff, 0x28, 0x95, 0xff, 0xff, 0x2c, 0x95, 0xff, 0xff,
  0x30, 0x95, 0xff, 0xff, 0x34, 0x95, 0xff, 0xff, 0x38, 0x95, 0xff, 0xff,
  0x3c, 0x95, 0xff, 0xff, 0x40, 0x95, 0xff, 0xff, 0x44, 0x95, 0xff, 0xff,
  0x48, 0x95, 0xff, 0xff, 0x86, 0xc7, 0xff, 0xff, 0x04, 0x00, 0x00, 0x00,
  0x20, 0x01, 0x00, 0x00, 0x10, 0xea, 0xf7, 0xfe, 0xce, 0xb4, 0xec, 0x81,
  0xad, 0x1a, 0x81, 0x28, 0xef, 0xaf, 0x19, 0xee, 0x19, 0xc3, 0x71, 0x81,
  0xcb, 0x40, 0xd1, 0xe5, 0x47, 0x50, 0xb8, 0x6e, 0x20, 0xfb, 0x4a, 0x30,
  0x32, 0xb9, 0x25, 0x7f, 0xdc, 0x63, 0x88, 0xd7, 0x7f, 0x9c, 0xe2, 0x74,
  0xba, 0x3a, 0x55, 0xd2, 0x58, 0x0a, 0xe3, 0x7f, 0xad, 0xd2, 0x25, 0x29,
  0x0b, 0x14, 0x49, 0x28, 0xe3, 0x7f, 0x2b, 0xcf, 0x7f, 0xe8, 0xa4, 0xee,
  0x3b, 0x12, 0x9f, 0x31, 0x67, 0xf5, 0x05, 0x7f, 0x0c, 0xf8, 0x5e, 0x0c,
  0x06, 0x5a, 0x2c, 0x86, 0x1c, 0xb4, 0xf6, 0x9b, 0x11, 0x7f, 0x09, 0xdc,
  0xd1, 0x3f, 0x7f, 0x54, 0xb8, 0xb1, 0xde, 0x34, 0x3a, 0x46, 0xf6, 0xeb,
  0xba, 0xcd, 0x81, 0xf7, 0x2b, 0x2a, 0xfd, 0xee, 0xcc, 0xd4, 0xad, 0x81,
  0xed, 0x78, 0xd9, 0xd4, 0x33, 0x63, 0xf0, 0x81, 0x09, 0x3a, 0xd8, 0x17,
  0x05, 0x96, 0x02, 0xfd, 0x81, 0x14, 0x1c, 0x1a, 0x9c, 0x3e, 0xef, 0xf2,
  0x16, 0xdb, 0x7f, 0xc3, 0x33, 0x15, 0xac, 0xed, 0xb6, 0x81, 0xa3, 0x90,
  0xd6, 0x47, 0x7f, 0x5a, 0xfd, 0xeb, 0x0b, 0xc4, 0x9d, 0xa3, 0x7f, 0xba,
  0x27, 0xf1, 0x05, 0x08, 0x9e, 0x3b, 0xc5, 0x39, 0xf9, 0x81, 0x56, 0xce,
  0xce, 0x3a, 0xc6, 0xfb, 0xf9, 0x3b, 0x24, 0x54, 0x41, 0xfc, 0x7f, 0xf4,
  0xe7, 0x7f, 0x0e, 0x35, 0xe8, 0xb6, 0x2c, 0xb2, 0x81, 0x11, 0xe8, 0x7f,
  0xfe, 0x0f, 0x14, 0xf6, 0x49, 0xa5, 0xf2, 0x37, 0xa7, 0xb4, 0xc0, 0xaf,
  0x5a, 0xa8, 0x7f, 0x49, 0x34, 0x81, 0x00, 0x20, 0x12, 0xd7, 0xfb, 0x6e,
  0xf7, 0x7f, 0xd0, 0x36, 0x24, 0x22, 0xe4, 0x94, 0x3d, 0xbd, 0xb7, 0x81,
  0xcd, 0xe4, 0x19, 0x1b, 0x5d, 0x76, 0x46, 0x81, 0x47, 0x31, 0xfe, 0x00,
  0x15, 0x78, 0x87, 0xd1, 0x51, 0x17, 0x7c, 0x7f, 0x56, 0x1c, 0x44, 0x55,
  0xee, 0x0a, 0xfb, 0xbf, 0x3d, 0xe4, 0x85, 0x62, 0xc3, 0x81, 0x7f, 0x61,
  0xb5, 0xdd, 0xfd, 0xfa, 0x96, 0x5d, 0x57, 0xda, 0x5a, 0xc2, 0xa0, 0x1e,
  0x27, 0x42, 0x81, 0x29, 0xb2, 0xc8, 0xff, 0xff, 0x04, 0x00, 0x00, 0x00,
  0x80, 0x00, 0x00, 0x00, 0x6c, 0xf5, 0xff, 0xff, 0xaf, 0xff, 0xff, 0xff,
  0x74, 0xf3, 0xff, 0xff, 0xe2, 0xfb, 0xff, 0xff, 0xc3, 0xf6, 0xff, 0xff,
  0xb5, 0xfb, 0xff, 0xff, 0xc4, 0xf8, 0xff, 0xff, 0x0d, 0xfb, 0xff, 0xff,
  0xb4, 0xfe, 0xff, 0xff, 0x22, 0xf9, 0xff, 0xff, 0x0a, 0xfb, 0xff, 0xff,
  0xec, 0xfe, 0xff, 0xff, 0xd9, 0xfa, 0xff, 0xff, 0x1f, 0xf9, 0xff, 0xff,
  0x2a, 0xfe, 0xff, 0xff, 0xf6, 0xfc, 0xff, 0xff, 0x56, 0xf0, 0xff, 0xff,
  0x8d, 0xfb, 0xff, 0xff, 0xf0, 0xfd, 0xff, 0xff, 0x13, 0x00, 0x00, 0x00,
  0x04, 0xf9, 0xff, 0xff, 0xb7, 0xf8, 0xff, 0xff, 0x7c, 0xf5, 0xff, 0xff,
  0x70, 0xf4, 0xff, 0xff, 0x3a, 0xfa, 0xff, 0xff, 0xf4, 0xfc, 0xff, 0xff,
  0x9b, 0xfc, 0xff, 0xff, 0xf0, 0xfa, 0xff, 0xff, 0x0f, 0x00, 0x00, 0x00,
  0xca, 0x00, 0x00, 0x00, 0x05, 0xfb, 0xff, 0xff, 0x01, 0xff, 0xff, 0xff,
  0x3e, 0xc9, 0xff, 0xff, 0x04, 0x00, 0x00, 0x00, 0x20, 0x01, 0x00, 0x00,
  0x4c, 0x84, 0x4b, 0x0f, 0x7f, 0x6a, 0x2d, 0xf7, 0x90, 0x70, 0x67, 0xbf,
  0x16, 0x64, 0x2f, 0xe4, 0x53, 0xb8, 0x14, 0x8c, 0x62, 0xb9, 0x0b, 0x00,
  0x4f, 0x0d, 0x43, 0x1a, 0x8b, 0x0c, 0x11, 0xb7, 0xec, 0x47, 0xdd, 0xcd,
  0x0d, 0xdd, 0xbb, 0x39, 0xea, 0x72, 0x32, 0xf3, 0xde, 0x0a, 0x11, 0xea,
  0xf3, 0xb0, 0x21, 0xf5, 0x0e, 0x69, 0x7f, 0xf5, 0x7f, 0x81, 0x3b, 0xca,
  0x13, 0xfd, 0x34, 0xea, 0xb7, 0xf6, 0x7c, 0x83, 0x29, 0x08, 0xc5, 0x2e,
  0xfc, 0x3c, 0x31, 0x0c, 0xfb, 0x14, 0x9a, 0xf7, 0x07, 0x07, 0xf7, 0x05,
  0xe2, 0xe6, 0xed, 0x35, 0xee, 0x21, 0xf1, 0x38, 0x11, 0x9e, 0xea, 0xf9,
  0x4a, 0x81, 0x4f, 0x1d, 0xe6, 0xef, 0x23, 0xcb, 0x81, 0x7f, 0x7f, 0x03,
  0xbe, 0x7f, 0x1a, 0xa4, 0x40, 0x81, 0x46, 0x81, 0x7f, 0x96, 0x67, 0x26,
  0x4c, 0xe9, 0x7f, 0x7f, 0x81, 0xfd, 0xe7, 0x81, 0x2e, 0x54, 0xa7, 0xfc,
  0x00, 0xe0, 0x81, 0x5a, 0xf4, 0x78, 0x55, 0x1a, 0xfc, 0xf9, 0x0b, 0xcd,
  0xa1, 0xc9, 0x2c, 0x00, 0x0f, 0x7f, 0x4c, 0x12, 0x57, 0xba, 0xdc, 0x91,
  0x17, 0x03, 0x7f, 0xe1, 0x9e, 0x08, 0x7f, 0x81, 0x18, 0x0a, 0xe3, 0x0e,
  0xfd, 0x69, 0x4c, 0xe4, 0x46, 0x15, 0x81, 0xed, 0x48, 0x03, 0xfb, 0xff,
  0xba, 0xef, 0x08, 0x65, 0xfe, 0x32, 0xd4, 0x5a, 0x0b, 0x90, 0xe3, 0x03,
  0x7f, 0x91, 0x17, 0x12, 0xee, 0xd3, 0x2c, 0xfd, 0x9a, 0xda, 0x7f, 0x7f,
  0x81, 0x3a, 0x09, 0x81, 0xdf, 0x97, 0x7f, 0x9e, 0x26, 0xa4, 0x6d, 0x50,
  0x08, 0x1c, 0x3c, 0x61, 0xa4, 0x02, 0xc3, 0x98, 0x3b, 0x11, 0xa0, 0x48,
  0x04, 0x7f, 0x96, 0x7f, 0x05, 0x27, 0x4d, 0x3b, 0x19, 0xe7, 0x1a, 0xba,
  0x81, 0xf1, 0x3a, 0x05, 0x01, 0x61, 0x42, 0x1b, 0x0e, 0x43, 0x99, 0xcc,
  0x11, 0x03, 0x60, 0xdb, 0x9b, 0x0a, 0x55, 0xb6, 0xfe, 0x00, 0xf1, 0x04,
  0x05, 0x34, 0x39, 0xe8, 0x5a, 0xfb, 0x83, 0xf1, 0xf8, 0xed, 0x06, 0xff,
  0x86, 0xee, 0x0a, 0x7f, 0x38, 0x2b, 0xcd, 0x1f, 0xf9, 0x81, 0x07, 0x05,
  0x6a, 0xca, 0xff, 0xff, 0x04, 0x00, 0x00, 0x00, 0x80, 0x00, 0x00, 0x00,
  0xaf, 0x02, 0x00, 0x00, 0x59, 0x0d, 0x00, 0x00, 0x37, 0x03, 0x00, 0x00,
  0x29, 0x0b, 0x00, 0x00, 0xb8, 0xff, 0xff, 0xff, 0x6e, 0xfd, 0xff, 0xff,
  0xd7, 0x08, 0x00, 0x00, 0x8c, 0x01, 0x00, 0x00, 0xce, 0x0d, 0x00, 0x00,
  0x02, 0x00, 0x00, 0x00, 0xfa, 0xff, 0xff, 0xff, 0x71, 0x04, 0x00, 0x00,
  0x32, 0x05, 0x00, 0x00, 0x7b, 0x01, 0x00, 0x00, 0x74, 0x0a, 0x00, 0x00,
  0xc6, 0x10, 0x00, 0x00, 0x85, 0x05, 0x00, 0x00, 0x90, 0x11, 0x00, 0x00,
  0x12, 0x02, 0x00, 0x00, 0x16, 0x1a, 0x00, 0x00, 0x05, 0x01, 0x00, 0x00,
  0x85, 0x06, 0x00, 0x00, 0x37, 0x00, 0x00, 0x00, 0xea, 0x00, 0x00, 0x00,
  0xad, 0x00, 0x00, 0x00, 0xb0, 0x02, 0x00, 0x00, 0xd3, 0x05, 0x00, 0x00,
  0x0a, 0x07, 0x00, 0x00, 0x58, 0x0b, 0x00, 0x00, 0xb0, 0x12, 0x00, 0x00,
  0x09, 0x07, 0x00, 0x00, 0x08, 0x19, 0x00, 0x00, 0xf6, 0xca, 0xff, 0xff,
  0x04, 0x00, 0x00, 0x00, 0x00, 0x08, 0x00, 0x00, 0x1a, 0x19, 0x24, 0x04,
  0x7f, 0x0c, 0xfd, 0x12, 0xbc, 0xc7, 0xeb, 0xed, 0xfc, 0x0f, 0xf6, 0xe3,
  0x0a, 0x02, 0x10, 0xd0, 0xf6, 0x24, 0xc7, 0xdf, 0x2b, 0xfa, 0xf9, 0xdc,
  0xfb, 0x2b, 0xf4, 0xbe, 0x2c, 0x0d, 0x10, 0x3a, 0xde, 0xf1, 0x7f, 0x52,
  0xce, 0xeb, 0xf9, 0x2a, 0x07, 0x10, 0x27, 0x6b, 0x15, 0x28, 0x0b, 0xa3,
  0x28, 0x2d, 0x1d, 0xb5, 0x0e, 0xfc, 0xe0, 0xdc, 0xcb, 0x16, 0xb8, 0x25,
  0x1e, 0x09, 0x02, 0x2b, 0x00, 0xe2, 0x3e, 0x0c, 0xb9, 0x01, 0x81, 0xf9,
  0x0d, 0xb7, 0x37, 0x05, 0xc8, 0xd9, 0xcb, 0xf1, 0x24, 0x18, 0x39, 0xcd,
  0xfb, 0xf5, 0x2b, 0xee, 0xf8, 0xea, 0x1b, 0x16, 0xd5, 0x1d, 0xc0, 0xf5,
  0xfe, 0x05, 0x00, 0x02, 0xa0, 0x04, 0xfd, 0x02, 0x31, 0x04, 0x81, 0x18,
  0x04, 0xca, 0xff, 0xa9, 0x12, 0xe4, 0xed, 0x38, 0xe3, 0xd3, 0x1e, 0xe8,
  0xdb, 0x24, 0xd5, 0xf7, 0xa6, 0x28, 0xf5, 0xd4, 0xed, 0xaf, 0x1b, 0x00,
  0x33, 0xce, 0x19, 0xfa, 0xed, 0xf9, 0x23, 0x03, 0xf1, 0x12, 0x21, 0x65,
  0x81, 0xfe, 0x83, 0x05, 0xca, 0x1e, 0xf9, 0xdf, 0xa5, 0x0f, 0xb1, 0xff,
  0x4c, 0xe3, 0xf3, 0xfc, 0x13, 0xf4, 0x20, 0xfa, 0x23, 0x1b, 0xb7, 0x02,
  0x2c, 0xcd, 0xc6, 0xce, 0x43, 0x32, 0x1c, 0xa8, 0x37, 0xe5, 0x2e, 0x7f,
  0xd0, 0xfa, 0xcf, 0xf6, 0x2b, 0x0b, 0xe0, 0x02, 0xd7, 0x28, 0xeb, 0x2a,
  0xf8, 0xa5, 0xa7, 0x25, 0x81, 0x16, 0x02, 0x32, 0x1c, 0xed, 0x12, 0x09,
  0xef, 0x81, 0xc4, 0x33, 0x35, 0xf4, 0x23, 0xe5, 0xb9, 0xd1, 0x25, 0x03,
  0x81, 0xb7, 0x27, 0x0c, 0xf6, 0x2c, 0x0b, 0x25, 0x0f, 0xf9, 0xf5, 0xee,
  0xd7, 0x09, 0xbc, 0x81, 0x0c, 0x0b, 0xef, 0xc1, 0xf9, 0x2b, 0xda, 0xed,
  0xff, 0x0f, 0x06, 0xee, 0x06, 0xec, 0xac, 0x29, 0xb7, 0xde, 0xf4, 0x50,
  0xe0, 0x2b, 0x08, 0xf5, 0x2b, 0xef, 0xd9, 0xb1, 0xdd, 0x02, 0xf4, 0xf8,
  0xe4, 0xa5, 0xbd, 0xed, 0xcb, 0x28, 0x38, 0x71, 0x93, 0x51, 0xc4, 0x03,
  0xe8, 0x00, 0xe0, 0x05, 0x3d, 0xf0, 0xe8, 0x7f, 0x3f, 0x45, 0x10, 0x36,
  0x1e, 0xf1, 0x3c, 0xf1, 0x88, 0xf9, 0xcf, 0x1d, 0xf5, 0x14, 0x34, 0x2b,
  0xe4, 0x81, 0xe5, 0x02, 0x5f, 0x25, 0x01, 0xe7, 0xec, 0xfd, 0xe4, 0xc6,
  0x92, 0xbb, 0xef, 0xf6, 0xc7, 0x4f, 0x8d, 0x50, 0x2a, 0xb7, 0x66, 0xb2,
  0xba, 0x34, 0x9c, 0x1a, 0x14, 0xae, 0x18, 0xeb, 0x9e, 0x81, 0x20, 0xcf,
  0x39, 0x0b, 0x12, 0x1c, 0xe4, 0xa0, 0xbb, 0xb2, 0xa5, 0x25, 0x07, 0x4d,
  0xfc, 0xf7, 0x16, 0xed, 0xc5, 0x09, 0xe4, 0xf8, 0x06, 0x81, 0xb9, 0x21,
  0x1a, 0xa9, 0xe5, 0xf8, 0xf2, 0x6d, 0x02, 0xe2, 0xef, 0xfd, 0x1a, 0x31,
  0x09, 0xd8, 0xfd, 0xf3, 0x23, 0x13, 0x11, 0x04, 0xaf, 0xfd, 0xae, 0xe9,
  0xe0, 0x04, 0x16, 0x31, 0x0d, 0xb9, 0x15, 0x26, 0x30, 0xdc, 0xcb, 0x81,
  0xdd, 0x05, 0x73, 0x0c, 0xdc, 0xd7, 0xe8, 0xba, 0xc7, 0x6f, 0xc9, 0x09,
  0x0b, 0xff, 0x13, 0x02, 0x2e, 0xb0, 0xf6, 0x98, 0xf3, 0xdd, 0xef, 0xef,
  0xd4, 0x03, 0xb5, 0x15, 0x91, 0x20, 0x95, 0xfc, 0x7f, 0x12, 0x14, 0x8b,
  0x10, 0xbb, 0xbe, 0xca, 0xee, 0x2c, 0x16, 0x06, 0xfc, 0x34, 0xf5, 0x20,
  0xf8, 0x2d, 0x21, 0x23, 0x1e, 0x0a, 0x2b, 0x28, 0x07, 0x81, 0xcb, 0x14,
  0xc1, 0x1c, 0x29, 0x28, 0xda, 0x47, 0xf1, 0x0b, 0x09, 0x31, 0xd3, 0xad,
  0xf3, 0x4e, 0xdc, 0x89, 0xf0, 0x3e, 0xc8, 0xb4, 0x09, 0xa8, 0xd4, 0x25,
  0xc3, 0x45, 0xd8, 0xac, 0x5f, 0x78, 0x81, 0x03, 0xc5, 0xa6, 0xc1, 0xb0,
  0x40, 0x0b, 0xed, 0xc5, 0x06, 0xc6, 0x57, 0x50, 0x9c, 0xe5, 0x18, 0x8f,
  0xe8, 0xd1, 0xd5, 0x55, 0xaa, 0xfd, 0x03, 0x16, 0x10, 0x06, 0xf2, 0xf7,
  0xc7, 0x13, 0xa0, 0xd1, 0x03, 0xfe, 0x06, 0x0b, 0x0a, 0x50, 0xe9, 0xef,
  0xef, 0x01, 0x06, 0xe1, 0x13, 0x01, 0xdc, 0x1b, 0x81, 0x91, 0x04, 0x1f,
  0xfe, 0x35, 0xd5, 0xea, 0x1d, 0x1c, 0x24, 0xcc, 0x11, 0x24, 0xa9, 0xd7,
  0xee, 0xae, 0x36, 0xb2, 0xf8, 0x13, 0xed, 0xff, 0x14, 0x3c, 0x3a, 0xf7,
  0xe2, 0xf9, 0x12, 0x15, 0xcd, 0x14, 0x9b, 0x7f, 0x22, 0xeb, 0x01, 0xd4,
  0xfc, 0xf5, 0x81, 0x4c, 0x26, 0x00, 0xfa, 0x0e, 0x17, 0xec, 0x0b, 0xfd,
  0x23, 0x02, 0x00, 0xf3, 0xda, 0xdc, 0xe7, 0xf1, 0x04, 0x01, 0x09, 0xf8,
  0x3a, 0xe9, 0x14, 0x1d, 0xd5, 0xd9, 0xfe, 0xd0, 0x17, 0x13, 0xe9, 0xf4,
  0x0c, 0x02, 0x0b, 0xe5, 0x00, 0x2b, 0xeb, 0x0e, 0x32, 0x0d, 0xa2, 0x2e,
  0xdb, 0xe4, 0xf9, 0xd8, 0xbf, 0x24, 0x16, 0xe4, 0x32, 0x00, 0xf9, 0x7f,
  0xb3, 0x1f, 0xc5, 0x13, 0xf6, 0x2c, 0xa3, 0x0e, 0x10, 0x1b, 0x0b, 0xd6,
  0x04, 0xb5, 0xe1, 0x18, 0xf4, 0x44, 0x02, 0x5e, 0xc7, 0xc7, 0x01, 0xf0,
  0x1f, 0xf6, 0x04, 0x1d, 0x54, 0xb4, 0x0d, 0x7f, 0x0c, 0xe2, 0xf4, 0x81,
  0xf3, 0x3e, 0x19, 0x0e, 0x13, 0xd6, 0xb0, 0xdf, 0x16, 0xda, 0x8e, 0xd2,
  0xca, 0x07, 0xc7, 0xdf, 0xfb, 0x1d, 0xd1, 0x02, 0xe1, 0x11, 0x3e, 0x93,
  0xec, 0x1a, 0x8b, 0x45, 0xcf, 0xec, 0x0f, 0x81, 0x1d, 0x1a, 0xc2, 0xb5,
  0xeb, 0x25, 0xfe, 0x1c, 0x88, 0x30, 0x03, 0x11, 0xc8, 0xa9, 0xff, 0xfc,
  0xe0, 0xa1, 0xe1, 0xd4, 0x19, 0xff, 0xb0, 0xed, 0xd7, 0xb6, 0x30, 0x0a,
  0x03, 0xbe, 0x00, 0xcc, 0xe3, 0xe7, 0xda, 0xc1, 0xca, 0x17, 0x0a, 0x31,
  0xf6, 0x38, 0xce, 0xf1, 0xd5, 0xb6, 0x1d, 0x1e, 0x0d, 0xe4, 0x14, 0xf0,
  0xc3, 0x05, 0xf0, 0x23, 0xf6, 0x81, 0x1b, 0xd5, 0xf6, 0xe3, 0x3b, 0x19,
  0x13, 0x07, 0x81, 0x01, 0x06, 0xbc, 0xec, 0xca, 0x1a, 0xc1, 0x1f, 0xdb,
  0x2c, 0x5f, 0xf4, 0x2b, 0xc4, 0xe3, 0xed, 0xc5, 0x1f, 0x47, 0x0b, 0xfb,
  0x35, 0x8c, 0x2e, 0x05, 0xe6, 0x2d, 0xb6, 0xdf, 0x07, 0x14, 0xd2, 0xf2,
  0x4d, 0x16, 0x0f, 0xdf, 0x01, 0x1b, 0xe5, 0xca, 0x30, 0xee, 0xed, 0x26,
  0x81, 0xea, 0xd8, 0xea, 0xe1, 0x5d, 0x12, 0xf7, 0x1b, 0xf1, 0xe2, 0x0e,
  0xf7, 0xe9, 0x0b, 0x2b, 0x11, 0x1d, 0x1e, 0xad, 0xba, 0x11, 0xc4, 0xf3,
  0x7f, 0xf6, 0xf5, 0x1a, 0xf4, 0xf8, 0xcb, 0x0a, 0x28, 0x07, 0x20, 0x08,
  0xe6, 0x24, 0x4c, 0xe9, 0xf4, 0xe5, 0xf2, 0x3e, 0xc4, 0x05, 0x30, 0xf9,
  0x27, 0xcf, 0x1b, 0x02, 0x8d, 0xf2, 0xe9, 0xf1, 0xef, 0xb5, 0x41, 0x81,
  0x23, 0x24, 0x3a, 0xbb, 0x16, 0x07, 0xfb, 0xc6, 0x02, 0x05, 0xbd, 0x0d,
  0xd1, 0xc0, 0xf9, 0xd0, 0xd8, 0xe6, 0x81, 0x0d, 0xd5, 0xfd, 0xfd, 0xe8,
  0x0d, 0xea, 0xe2, 0xd8, 0xb2, 0xd7, 0x63, 0xd5, 0x14, 0x20, 0xe4, 0x78,
  0x17, 0x23, 0x32, 0x13, 0xd8, 0xb7, 0x0c, 0xeb, 0xf4, 0x78, 0x11, 0xd7,
  0xf8, 0xc1, 0x08, 0xf1, 0x03, 0x2c, 0xe7, 0xcd, 0xdb, 0x0c, 0xf6, 0x09,
  0xfd, 0xd9, 0xfe, 0xe6, 0x20, 0xff, 0x81, 0x5f, 0xd3, 0xc2, 0x38, 0xf7,
  0xdf, 0xfe, 0x04, 0xf0, 0x2d, 0xef, 0xf7, 0x4e, 0xfc, 0x0f, 0x12, 0xf2,
  0x07, 0xf7, 0x0c, 0x11, 0xd2, 0xff, 0xf8, 0xef, 0xef, 0xff, 0xfb, 0x09,
  0x02, 0x0d, 0xfa, 0xd2, 0x09, 0x1a, 0xfb, 0xe1, 0x02, 0x14, 0xf9, 0xe5,
  0xe0, 0x81, 0xd2, 0x03, 0x42, 0x10, 0xf8, 0xfd, 0xf3, 0xf7, 0x20, 0x11,
  0x03, 0x1d, 0xf6, 0x25, 0x81, 0x00, 0x02, 0xf7, 0xbc, 0xe2, 0x22, 0xdc,
  0xf3, 0x2e, 0xf2, 0xfe, 0xed, 0x07, 0x1d, 0xee, 0x09, 0x68, 0xdc, 0xda,
  0x1c, 0x03, 0xeb, 0x2b, 0xd2, 0xf2, 0x0d, 0x23, 0x7f, 0x23, 0xfe, 0x12,
  0xff, 0xea, 0x30, 0x1c, 0x13, 0x22, 0xd8, 0x1e, 0xa0, 0x0a, 0xf6, 0x43,
  0x96, 0xfa, 0xff, 0xf3, 0x0f, 0x14, 0xd4, 0x0e, 0xc4, 0x44, 0xe3, 0xe6,
  0x37, 0x03, 0x1a, 0x00, 0x08, 0xeb, 0xdd, 0xeb, 0x1b, 0x28, 0x81, 0x12,
  0xf7, 0x09, 0x06, 0x33, 0x06, 0x33, 0xf6, 0xfa, 0xf8, 0x2e, 0xe8, 0xf7,
  0x08, 0xb6, 0xbf, 0x13, 0x1b, 0x1c, 0xd4, 0x0c, 0x02, 0x01, 0x20, 0xef,
  0x81, 0x05, 0xd7, 0x0f, 0xe3, 0x32, 0xd6, 0x23, 0x03, 0xe0, 0xd4, 0xe5,
  0x19, 0x13, 0x0b, 0x0c, 0x18, 0xfc, 0xf2, 0xe1, 0xcc, 0xf2, 0xd6, 0x08,
  0xe2, 0xc8, 0x24, 0xf6, 0xe5, 0x51, 0xf7, 0x0d, 0xc5, 0x12, 0x81, 0x05,
  0x20, 0xdf, 0xed, 0xef, 0x08, 0x56, 0x00, 0xe2, 0x28, 0xd7, 0x0c, 0x2a,
  0xd8, 0xe0, 0xef, 0xd0, 0x2d, 0xd2, 0x0c, 0x58, 0xd0, 0xaf, 0x09, 0xcf,
  0xaf, 0xd6, 0xef, 0xd5, 0xcd, 0xc8, 0x2a, 0x54, 0x4e, 0x98, 0xd0, 0x30,
  0xd4, 0xcc, 0x14, 0x00, 0x3a, 0x25, 0x2b, 0x03, 0xc3, 0x57, 0x26, 0x14,
  0xd4, 0xd2, 0x0e, 0x7f, 0x13, 0xf3, 0x0d, 0xfe, 0x0f, 0x7f, 0xd2, 0xee,
  0x72, 0x2f, 0xc5, 0xca, 0x1a, 0x06, 0x11, 0x16, 0x21, 0x0b, 0xcb, 0x0e,
  0xb5, 0xf4, 0xbd, 0xf7, 0xb2, 0x11, 0x48, 0xd7, 0x6c, 0xe9, 0x16, 0x75,
  0xfa, 0x0c, 0xd5, 0x74, 0x23, 0x50, 0xe2, 0xe7, 0xe3, 0x67, 0xee, 0xc3,
  0x64, 0xfc, 0xda, 0xc5, 0x6d, 0x5d, 0x16, 0x81, 0xe7, 0xfc, 0xe3, 0x5f,
  0xe9, 0x56, 0x3d, 0xd4, 0x00, 0xa0, 0xf3, 0x1b, 0x23, 0xd2, 0xf1, 0x06,
  0xd9, 0x01, 0x87, 0xea, 0x1b, 0xd5, 0x09, 0xbb, 0x16, 0xca, 0x1d, 0x00,
  0x4c, 0x3b, 0xc9, 0x1a, 0x81, 0xb3, 0xd9, 0x9f, 0x61, 0xf4, 0x41, 0x4c,
  0x5b, 0xa6, 0x27, 0x10, 0x0c, 0x81, 0x27, 0xe9, 0xc3, 0xb5, 0xbc, 0xf9,
  0xdb, 0x17, 0x03, 0x30, 0xf7, 0x99, 0x4f, 0x18, 0x12, 0xdd, 0xdb, 0xac,
  0xa6, 0xd9, 0x16, 0xeb, 0xd7, 0x02, 0x15, 0x48, 0x32, 0x95, 0x50, 0xb5,
  0x81, 0xed, 0xe9, 0xff, 0xff, 0xf3, 0xbf, 0x1f, 0xe3, 0xea, 0xaf, 0x03,
  0x05, 0xd5, 0xfd, 0x73, 0xf2, 0x38, 0xd7, 0x0e, 0x18, 0xab, 0xf4, 0xfd,
  0x2d, 0xb4, 0x1c, 0x11, 0x13, 0xc1, 0x0c, 0x2a, 0xf9, 0x20, 0x1d, 0xfc,
  0xb9, 0xdb, 0x0e, 0x17, 0x3f, 0xa4, 0x10, 0xed, 0x20, 0xf7, 0x42, 0x07,
  0xf5, 0xf8, 0x81, 0x38, 0x0a, 0xea, 0xe7, 0xff, 0xed, 0x01, 0xf6, 0xfc,
  0xcb, 0xfa, 0xf3, 0x0f, 0x0c, 0x07, 0xd9, 0x03, 0xef, 0x1c, 0x35, 0x00,
  0x29, 0x25, 0x81, 0xfa, 0xfc, 0xcc, 0xfb, 0xbf, 0xfc, 0x1a, 0xfb, 0x28,
  0xec, 0x19, 0x18, 0x0e, 0xc2, 0xf2, 0x30, 0xc8, 0xed, 0xcc, 0x97, 0xe2,
  0xf7, 0xbd, 0x32, 0xce, 0xcb, 0xdc, 0x0e, 0x20, 0xdb, 0xea, 0x09, 0xdf,
  0x30, 0xc6, 0xfb, 0xf8, 0xf8, 0xeb, 0x0b, 0xb4, 0xbc, 0xfe, 0x81, 0xe9,
  0x45, 0xc6, 0xeb, 0x37, 0xed, 0xe9, 0x0a, 0xec, 0x1f, 0x0e, 0xc0, 0x58,
  0x04, 0xfe, 0xe0, 0xbb, 0x60, 0x11, 0xd4, 0xe5, 0x06, 0x0d, 0x04, 0x01,
  0x42, 0x0e, 0x0b, 0x4e, 0xbf, 0xc5, 0xff, 0xd4, 0x25, 0xd7, 0x18, 0x27,
  0x7f, 0xe3, 0x46, 0xdf, 0xf1, 0x10, 0xd0, 0x47, 0x02, 0x55, 0x65, 0xe9,
  0xd2, 0xef, 0x9f, 0x31, 0xd6, 0x13, 0x04, 0x20, 0xeb, 0xe1, 0x25, 0xe5,
  0x4c, 0x00, 0x04, 0x07, 0x0e, 0xfb, 0xe0, 0x81, 0xad, 0xcd, 0xd2, 0x08,
  0x9a, 0x18, 0xe3, 0x2b, 0x0d, 0x46, 0x3a, 0xfb, 0xbf, 0x1b, 0xc5, 0xf3,
  0x6f, 0x00, 0xb6, 0x55, 0xb7, 0x19, 0xcd, 0x05, 0x01, 0x99, 0xe1, 0x73,
  0x0f, 0x99, 0x81, 0xf4, 0xf1, 0x85, 0x02, 0x33, 0x13, 0xcf, 0x96, 0x81,
  0xdb, 0x04, 0xf6, 0x02, 0x07, 0x0f, 0x1f, 0xf3, 0x2c, 0xfa, 0xd2, 0xd0,
  0xd3, 0xf0, 0xfd, 0xbf, 0xea, 0x11, 0x37, 0x08, 0xd0, 0x12, 0x49, 0xcc,
  0xfd, 0x1b, 0xc9, 0xe5, 0xe7, 0x21, 0x15, 0x2e, 0x1b, 0x0f, 0xea, 0x03,
  0xed, 0x13, 0xc7, 0xb5, 0x1c, 0xf7, 0x00, 0xe3, 0x16, 0x7f, 0xe2, 0xec,
  0xee, 0xf4, 0xc5, 0x12, 0x1e, 0x09, 0xfc, 0x11, 0x09, 0xe4, 0x01, 0x04,
  0x9b, 0x40, 0xd8, 0x7f, 0x04, 0x18, 0x16, 0xe4, 0x90, 0x14, 0xf3, 0xf2,
  0x29, 0x12, 0x9f, 0xb7, 0x09, 0x2f, 0x01, 0x2e, 0xe2, 0xda, 0x00, 0xf3,
  0x3c, 0x0a, 0x34, 0x22, 0x05, 0x9c, 0x25, 0xce, 0x1f, 0xf3, 0x4d, 0xf9,
  0x07, 0x20, 0x01, 0x1c, 0xa7, 0x3c, 0xd8, 0x08, 0x0b, 0x34, 0xf3, 0x0e,
  0x2b, 0x01, 0xf9, 0xaf, 0xf5, 0xf7, 0xc9, 0xe9, 0x2a, 0x14, 0xdc, 0xe3,
  0xa5, 0x81, 0x02, 0x02, 0x13, 0xe6, 0xe1, 0x81, 0x0a, 0xed, 0xdc, 0x0b,
  0x0f, 0x18, 0x00, 0x0d, 0xe0, 0x11, 0xea, 0xff, 0xea, 0xc8, 0x06, 0xfb,
  0xd3, 0xfc, 0xfe, 0xfb, 0xfc, 0x00, 0xf6, 0x17, 0x2b, 0xf0, 0xee, 0xe3,
  0xdd, 0x81, 0xdd, 0xfc, 0x6c, 0x05, 0xe5, 0x22, 0xfa, 0xe6, 0x17, 0xea,
  0x11, 0xd4, 0xcb, 0xd9, 0x25, 0x06, 0x12, 0xd2, 0xdb, 0xbe, 0xff, 0xeb,
  0xdf, 0x0c, 0x0e, 0xe8, 0x02, 0xf1, 0x13, 0xc2, 0x0b, 0xf3, 0x0b, 0xe9,
  0x05, 0x29, 0xf6, 0xee, 0xee, 0xf9, 0xfd, 0x98, 0xfc, 0xed, 0x01, 0xda,
  0xe1, 0x13, 0x81, 0xed, 0xdd, 0xf5, 0xfa, 0xfc, 0xe0, 0x1b, 0x13, 0xfb,
  0x19, 0x0f, 0xee, 0x2a, 0xfb, 0x1f, 0x81, 0x2e, 0x36, 0x19, 0x17, 0xf3,
  0xe0, 0xab, 0xde, 0xf6, 0x0f, 0x13, 0x89, 0x0b, 0xc7, 0x27, 0x0e, 0x08,
  0x1e, 0x18, 0x12, 0x02, 0x03, 0xb4, 0xff, 0xd5, 0x96, 0x1f, 0xb3, 0xe7,
  0xae, 0xd0, 0x02, 0xee, 0x10, 0xf4, 0xe0, 0x2d, 0xb8, 0x1c, 0xcd, 0xdc,
  0x07, 0xdc, 0xa1, 0xb5, 0x0f, 0x1d, 0x7f, 0xc2, 0xab, 0xc7, 0xcb, 0xdb,
  0xfa, 0xf2, 0xbf, 0x02, 0xc6, 0xd6, 0x15, 0xed, 0x29, 0x86, 0x1e, 0xf5,
  0x24, 0xe9, 0x81, 0x44, 0xfa, 0x8f, 0xac, 0x24, 0x06, 0x8b, 0xfa, 0x5f,
  0x0a, 0x30, 0xd4, 0xd3, 0xba, 0xe1, 0xb7, 0xee, 0x09, 0x15, 0xe0, 0x1d,
  0x25, 0xc9, 0x2e, 0x05, 0xff, 0xd1, 0x1d, 0x43, 0xe6, 0x60, 0xbc, 0x34,
  0x37, 0xd8, 0xd0, 0xa5, 0x7f, 0xf9, 0x2f, 0x56, 0x29, 0x30, 0xfc, 0xa3,
  0xde, 0xaa, 0xf6, 0x2b, 0x09, 0xd6, 0x20, 0x10, 0xd9, 0xd1, 0xfa, 0x3d,
  0x16, 0x2a, 0xd0, 0xd5, 0x36, 0x08, 0x21, 0x55, 0x0b, 0x09, 0xcd, 0xd2,
  0x02, 0xf2, 0x1b, 0xdd, 0x81, 0xf3, 0xf3, 0x8c, 0xe2, 0x3d, 0x03, 0x5d,
  0xe7, 0xd1, 0xcd, 0x82, 0x9a, 0x55, 0x99, 0x0c, 0xfe, 0x0f, 0x05, 0x1c,
  0x06, 0x0d, 0xf4, 0x03, 0xef, 0xee, 0xb7, 0xe4, 0x00, 0x02, 0xf3, 0x0a,
  0x04, 0x7f, 0xec, 0xec, 0x0f, 0xf7, 0xfa, 0x05, 0x0a, 0x02, 0xf3, 0x0e,
  0xd2, 0xe4, 0x09, 0xfb, 0x88, 0x98, 0x30, 0xf4, 0x20, 0xdc, 0x12, 0x05,
  0xc2, 0x34, 0xcb, 0xb6, 0x39, 0xec, 0x22, 0xf8, 0x38, 0x2e, 0x11, 0xd3,
  0xe4, 0x04, 0xf3, 0xe5, 0x1b, 0x14, 0x54, 0xf1, 0xe6, 0x81, 0xf3, 0x0c,
  0x30, 0xfc, 0x05, 0xf6, 0xf9, 0xf5, 0x21, 0xcc, 0x18, 0xf3, 0xd8, 0xee,
  0x57, 0x84, 0x36, 0xee, 0xb5, 0xe3, 0xee, 0x1b, 0x07, 0x13, 0x2b, 0xba,
  0xd7, 0x2d, 0x7f, 0xd1, 0xf7, 0x0f, 0xf2, 0x56, 0xd0, 0xea, 0x13, 0xfd,
  0x04, 0xd9, 0xd7, 0x2b, 0x07, 0x08, 0xf3, 0x0c, 0xfe, 0xca, 0x0c, 0x7f,
  0x25, 0x1a, 0xcb, 0x4b, 0xdd, 0x06, 0xdb, 0xc8, 0x20, 0xfa, 0x12, 0x0a,
  0x2a, 0xe4, 0x0f, 0xf5, 0x02, 0xd3, 0xff, 0xff, 0x04, 0x00, 0x00, 0x00,
  0x00, 0x01, 0x00, 0x00, 0x15, 0x07, 0x00, 0x00, 0x16, 0xe3, 0xff, 0xff,
  0xbf, 0x06, 0x00, 0x00, 0xa0, 0x0e, 0x00, 0x00, 0x8b, 0x01, 0x00, 0x00,
  0xcf, 0xf7, 0xff, 0xff, 0x0c, 0x20, 0x00, 0x00, 0x71, 0xf8, 0xff, 0xff,
  0xd0, 0xe0, 0xff, 0xff, 0x84, 0x13, 0x00, 0x00, 0x81, 0x11, 0x00, 0x00,
  0xb0, 0xf3, 0xff, 0xff, 0xcc, 0x06, 0x00, 0x00, 0x29, 0x0b, 0x00, 0x00,
  0xb5, 0xf8, 0xff, 0xff, 0x29, 0x12, 0x00, 0x00, 0xfe, 0xf5, 0xff, 0xff,
  0x53, 0xf0, 0xff, 0xff, 0x12, 0xfe, 0xff, 0xff, 0x67, 0xe2, 0xff, 0xff,
  0x08, 0xcf, 0xff, 0xff, 0x49, 0x0e, 0x00, 0x00, 0x3a, 0x2d, 0x00, 0x00,
  0x66, 0x18, 0x00, 0x00, 0x7c, 0xf7, 0xff, 0xff, 0xa6, 0xfb, 0xff, 0xff,
  0xdf, 0xef, 0xff, 0xff, 0x36, 0x19, 0x00, 0x00, 0x44, 0xf6, 0xff, 0xff,
  0x0b, 0xf6, 0xff, 0xff, 0x4e, 0x0b, 0x00, 0x00, 0x15, 0x02, 0x00, 0x00,
  0x5f, 0xe4, 0xff, 0xff, 0xd4, 0x07, 0x00, 0x00, 0xe0, 0x0b, 0x00, 0x00,
  0x10, 0xef, 0xff, 0xff, 0xbc, 0xf2, 0xff, 0xff, 0xef, 0xd3, 0xff, 0xff,
  0xdf, 0xd9, 0xff, 0xff, 0xfa, 0xf4, 0xff, 0xff, 0x9b, 0x09, 0x00, 0x00,
  0x72, 0xf0, 0xff, 0xff, 0xbe, 0xfa, 0xff, 0xff, 0xd9, 0x0b, 0x00, 0x00,
  0x20, 0x0e, 0x00, 0x00, 0xd6, 0xe4, 0xff, 0xff, 0x25, 0x07, 0x00, 0x00,
  0xdb, 0x03, 0x00, 0x00, 0xa8, 0x12, 0x00, 0x00, 0xa6, 0xe6, 0xff, 0xff,
  0xf6, 0xeb, 0xff, 0xff, 0x28, 0x05, 0x00, 0x00, 0x14, 0x09, 0x00, 0x00,
  0x91, 0x02, 0x00, 0x00, 0x09, 0x06, 0x00, 0x00, 0xac, 0x09, 0x00, 0x00,
  0x1c, 0x1b, 0x00, 0x00, 0x14, 0xfa, 0xff, 0xff, 0x63, 0xe6, 0xff, 0xff,
  0x95, 0x17, 0x00, 0x00, 0x18, 0xeb, 0xff, 0xff, 0x9e, 0xf9, 0xff, 0xff,
  0x4d, 0xf3, 0xff, 0xff, 0xa6, 0xdd, 0xff, 0xff, 0x0e, 0xd4, 0xff, 0xff,
  0x04, 0x00, 0x00, 0x00, 0x40, 0x02, 0x00, 0x00, 0x81, 0xc1, 0xb4, 0xb9,
  0x36, 0xb9, 0xa9, 0x29, 0x47, 0x5f, 0x5e, 0xfe, 0xd2, 0x95, 0xdc, 0xb5,
  0x81, 0x6a, 0xe2, 0x26, 0xce, 0xfa, 0x1b, 0x59, 0x0c, 0x25, 0x81, 0x01,
  0x4d, 0x69, 0x0e, 0x03, 0x06, 0x13, 0x92, 0xac, 0x81, 0x81, 0x48, 0xe5,
  0x3e, 0x7f, 0x7f, 0xd9, 0x6a, 0x9a, 0xb5, 0xb3, 0xa4, 0x34, 0x56, 0x7f,
  0xb2, 0x7f, 0x7f, 0x89, 0x81, 0xbe, 0x0c, 0xdd, 0x4c, 0xd1, 0xff, 0xec,
  0xb6, 0x2e, 0x50, 0x01, 0x35, 0xad, 0x12, 0xf0, 0x5a, 0x0e, 0xdb, 0xf4,
  0xe3, 0x0a, 0xfd, 0xf1, 0xe5, 0xe2, 0x02, 0x9f, 0xad, 0x49, 0xe8, 0x41,
  0xe5, 0x72, 0xba, 0x20, 0xf0, 0xbd, 0x04, 0x10, 0xd7, 0xf3, 0xf5, 0xd5,
  0xfa, 0x31, 0x2d, 0xc8, 0x3b, 0x5a, 0x79, 0x1b, 0x41, 0x1f, 0xd8, 0x18,
  0xd6, 0xc0, 0x0d, 0x4c, 0x23, 0x43, 0x19, 0x33, 0x8e, 0x33, 0xfa, 0xf5,
  0x19, 0xba, 0xec, 0xdf, 0xb4, 0x97, 0xe0, 0xf7, 0x30, 0xc4, 0xff, 0x01,
  0x90, 0x0c, 0x43, 0x8e, 0xf5, 0x9d, 0xae, 0x81, 0xff, 0x14, 0x29, 0xdc,
  0xfe, 0xf0, 0x81, 0x09, 0x15, 0xfc, 0xb6, 0x0a, 0x81, 0x10, 0xdf, 0x8f,
  0x64, 0xc2, 0x05, 0xd6, 0x11, 0xa8, 0x4d, 0xed, 0xcf, 0x09, 0x22, 0x13,
  0xf9, 0xb1, 0x11, 0xca, 0x35, 0xd7, 0xbf, 0xd9, 0x02, 0x28, 0x18, 0xbc,
  0xeb, 0xea, 0x4f, 0xca, 0xdf, 0x81, 0x81, 0xfe, 0xe2, 0xc2, 0x81, 0x9b,
  0xb0, 0xc4, 0x81, 0x3a, 0xd5, 0xa7, 0x34, 0xf7, 0x3d, 0xe7, 0x6f, 0xee,
  0x2f, 0x7f, 0x81, 0x75, 0x7f, 0xfc, 0x1d, 0x7f, 0x0e, 0xd3, 0xcf, 0xc2,
  0xef, 0x7f, 0x05, 0x97, 0x7f, 0x1a, 0x9e, 0x30, 0x3f, 0xbb, 0xbe, 0x0c,
  0x61, 0xd5, 0x1e, 0x81, 0x6a, 0xb8, 0x14, 0x84, 0x81, 0x57, 0x7f, 0xdc,
  0x98, 0x59, 0xd2, 0xcb, 0xbb, 0xbd, 0xb0, 0xb2, 0x1b, 0x45, 0x53, 0x23,
  0xf8, 0x1a, 0x11, 0xd1, 0xde, 0xea, 0x01, 0xed, 0xef, 0x11, 0x19, 0xfe,
  0x0b, 0x25, 0x20, 0x26, 0x0e, 0x5f, 0x0f, 0x56, 0x29, 0x58, 0x05, 0x16,
  0x2c, 0x7f, 0xf2, 0xf2, 0x4d, 0xab, 0xed, 0x15, 0x0a, 0xd9, 0xb9, 0x1b,
  0x49, 0x37, 0xc8, 0xb5, 0x19, 0xef, 0x4b, 0x12, 0x2c, 0x34, 0x81, 0x15,
  0xb8, 0xe6, 0x0b, 0xee, 0x24, 0x05, 0x5a, 0xbd, 0xe3, 0xc7, 0xb5, 0x0a,
  0x2c, 0xe8, 0x25, 0x73, 0xfb, 0x81, 0xd8, 0x16, 0xe9, 0xca, 0xfe, 0xe4,
  0x81, 0x00, 0x48, 0x54, 0xfc, 0x81, 0x69, 0x60, 0xec, 0x53, 0xaf, 0x81,
  0xe8, 0xf6, 0x92, 0xd3, 0x7d, 0x2e, 0xef, 0xfe, 0xa7, 0x11, 0xd0, 0x8a,
  0x5d, 0x81, 0x10, 0xc8, 0x18, 0xe0, 0x7f, 0xf1, 0xc2, 0x10, 0xe7, 0x3d,
  0x0e, 0x81, 0x0e, 0x96, 0x35, 0xa3, 0xa1, 0xdc, 0x7f, 0xe6, 0xf1, 0x69,
  0x26, 0xf3, 0x4f, 0xae, 0x09, 0x95, 0x72, 0xef, 0x1f, 0xcb, 0x8a, 0x81,
  0x81, 0xeb, 0x8c, 0x81, 0x15, 0x81, 0x81, 0x32, 0x7f, 0xd7, 0x7f, 0xff,
  0x6e, 0x53, 0x85, 0xa0, 0x57, 0x64, 0x1a, 0xcd, 0xef, 0xad, 0x37, 0x81,
  0xf8, 0xbc, 0x0b, 0x81, 0x6c, 0x19, 0x81, 0x7c, 0x67, 0xaf, 0x84, 0x1d,
  0x7f, 0xd5, 0x93, 0x84, 0x81, 0xb9, 0x3f, 0x81, 0x9f, 0x78, 0x83, 0xd8,
  0x1d, 0xa6, 0x9f, 0x0f, 0xdb, 0x0d, 0x81, 0xae, 0x81, 0x41, 0x48, 0x7f,
  0x0d, 0x39, 0xdc, 0xc7, 0xa1, 0x21, 0xf9, 0x46, 0xdc, 0xe8, 0x19, 0x18,
  0x54, 0x36, 0x58, 0x63, 0xe9, 0x9b, 0x0c, 0x49, 0x31, 0x96, 0x14, 0xa5,
  0x1c, 0x8b, 0x49, 0xc2, 0x4e, 0xcc, 0xf3, 0x04, 0x0a, 0xf3, 0xb9, 0x6a,
  0x37, 0xad, 0xb7, 0x7f, 0x22, 0xe7, 0x1c, 0xa4, 0xe7, 0xf9, 0xa3, 0x35,
  0xb4, 0xcc, 0x0d, 0xee, 0xc7, 0xf0, 0x3b, 0xaa, 0xf7, 0x7f, 0x9a, 0x42,
  0xff, 0x40, 0x30, 0x9f, 0x1b, 0x21, 0xd4, 0x30, 0x9e, 0x7f, 0xff, 0x05,
  0xc0, 0x03, 0xee, 0x7f, 0x40, 0x8f, 0x7d, 0x74, 0x01, 0xe6, 0xa9, 0x90,
  0xd4, 0x7f, 0xe9, 0x86, 0x7f, 0x01, 0x32, 0xff, 0x93, 0x05, 0x7f, 0x96,
  0x43, 0x9a, 0x0d, 0x7f, 0xfc, 0xf7, 0xb3, 0xfe, 0xfc, 0xf4, 0xc3, 0x2e,
  0x1a, 0x98, 0x18, 0xa1, 0xba, 0x81, 0xf3, 0xff, 0x5e, 0xf5, 0x01, 0x7f,
  0x1f, 0x1f, 0xeb, 0x81, 0x3c, 0xc0, 0x54, 0xdf, 0x5a, 0xd6, 0xff, 0xff,
  0x04, 0x00, 0x00, 0x00, 0x00, 0x01, 0x00, 0x00, 0xe8, 0x15, 0x00, 0x00,
  0xf8, 0x06, 0x00, 0x00, 0x08, 0x06, 0x00, 0x00, 0xc2, 0x06, 0x00, 0x00,
  0x3c, 0x07, 0x00, 0x00, 0xd7, 0x0c, 0x00, 0x00, 0x71, 0x1e, 0x00, 0x00,
  0xeb, 0xff, 0xff, 0xff, 0x78, 0xff, 0xff, 0xff, 0x72, 0x05, 0x00, 0x00,
  0xaa, 0xfd, 0xff, 0xff, 0x88, 0xff, 0xff, 0xff, 0x2a, 0x00, 0x00, 0x00,
  0xb0, 0x05, 0x00, 0x00, 0xe2, 0xff, 0xff, 0xff, 0x73, 0xff, 0xff, 0xff,
  0x05, 0x00, 0x00, 0x00, 0x03, 0x00, 0x00, 0x00, 0xa5, 0x0c, 0x00, 0x00,
  0xfb, 0xff, 0xff, 0xff, 0x14, 0x00, 0x00, 0x00, 0xb1, 0xff, 0xff, 0xff,
  0x60, 0x1a, 0x00, 0x00, 0x26, 0x08, 0x00, 0x00, 0x36, 0x00, 0x00, 0x00,
  0x12, 0x00, 0x00, 0x00, 0xe2, 0x07, 0x00, 0x00, 0x56, 0x0e, 0x00, 0x00,
  0xa6, 0xff, 0xff, 0xff, 0xff, 0xff, 0xff, 0xff, 0x71, 0xfd, 0xff, 0xff,
  0x66, 0x21, 0x00, 0x00, 0x38, 0xfd, 0xff, 0xff, 0xf2, 0x17, 0x00, 0x00,
  0x06, 0x0e, 0x00, 0x00, 0xf6, 0x00, 0x00, 0x00, 0x86, 0xfd, 0xff, 0xff,
  0xdd, 0x01, 0x00, 0x00, 0xbc, 0x01, 0x00, 0x00, 0x50, 0xfe, 0xff, 0xff,
  0x03, 0x02, 0x00, 0x00, 0x4d, 0xff, 0xff, 0xff, 0x0e, 0x00, 0x00, 0x00,
  0x14, 0x06, 0x00, 0x00, 0x3c, 0xff, 0xff, 0xff, 0xf8, 0x06, 0x00, 0x00,
  0xaf, 0x07, 0x00, 0x00, 0x56, 0x09, 0x00, 0x00, 0xbe, 0x0d, 0x00, 0x00,
  0x37, 0x03, 0x00, 0x00, 0x23, 0xff, 0xff, 0xff, 0x96, 0x02, 0x00, 0x00,
  0x0a, 0x00, 0x00, 0x00, 0x08, 0x00, 0x00, 0x00, 0xe9, 0xff, 0xff, 0xff,
  0xb1, 0x05, 0x00, 0x00, 0xd9, 0x12, 0x00, 0x00, 0xf5, 0xff, 0xff, 0xff,
  0x41, 0x06, 0x00, 0x00, 0x8b, 0x0b, 0x00, 0x00, 0xfe, 0xff, 0xff, 0xff,
  0x46, 0x05, 0x00, 0x00, 0x4d, 0xff, 0xff, 0xff, 0xfa, 0xff, 0xff, 0xff,
  0x66, 0xd7, 0xff, 0xff, 0x04, 0x00, 0x00, 0x00, 0x00, 0x10, 0x00, 0x00,
  0x35, 0x15, 0xca, 0xdc, 0x54, 0xf5, 0x09, 0x01, 0x81, 0x94, 0xa8, 0x14,
  0xf6, 0x17, 0x16, 0xd0, 0x04, 0xe7, 0xc5, 0x22, 0x1d, 0x2c, 0xfa, 0x0b,
  0x0a, 0x2b, 0x04, 0xbf, 0xd6, 0xee, 0x06, 0xe4, 0xdf, 0x89, 0xec, 0x0e,
  0xe2, 0xe3, 0xd2, 0x18, 0x08, 0xe0, 0x0b, 0x03, 0x18, 0xb7, 0x3d, 0x2e,
  0x1a, 0xfa, 0xf0, 0x11, 0x0f, 0x8f, 0x12, 0x32, 0xe5, 0x06, 0xb7, 0xff,
  0x0b, 0x22, 0xe8, 0x0a, 0x28, 0x22, 0xf8, 0x10, 0x32, 0xfc, 0xbc, 0xbc,
  0xb6, 0xd0, 0xdd, 0x04, 0xeb, 0xf9, 0x17, 0x9c, 0xf1, 0x98, 0x81, 0xd1,
  0x48, 0xd4, 0x10, 0x1a, 0x27, 0x31, 0x06, 0xd7, 0xb7, 0xb4, 0xae, 0xb9,
  0x9f, 0x9b, 0x96, 0x0f, 0xe1, 0xc5, 0xfb, 0x22, 0xee, 0xf0, 0xbf, 0xed,
  0x37, 0x47, 0x34, 0x1e, 0x68, 0xcf, 0xbd, 0x0b, 0x09, 0xb6, 0xaa, 0x36,
  0xc9, 0xfe, 0xf7, 0x03, 0xfd, 0x1e, 0xfc, 0xe7, 0x61, 0x2f, 0xf6, 0xf4,
  0x3d, 0xe7, 0xe1, 0xea, 0xf6, 0xbd, 0xd9, 0xfa, 0x15, 0xf7, 0xe1, 0x8d,
  0x08, 0xbd, 0xad, 0xea, 0x2b, 0x0d, 0xd8, 0xe0, 0x00, 0x14, 0x1b, 0xaf,
  0xcb, 0xeb, 0x0f, 0xac, 0xbd, 0xaf, 0x16, 0xd7, 0xfb, 0xec, 0xb9, 0x19,
  0x24, 0xd6, 0x1f, 0x41, 0x06, 0xc6, 0x1e, 0x2f, 0xd3, 0x1d, 0xf0, 0x81,
  0x06, 0xc8, 0xfe, 0x42, 0x0b, 0x07, 0xf9, 0x29, 0xef, 0x43, 0xee, 0xce,
  0x2d, 0xec, 0xfb, 0xdf, 0xd6, 0x06, 0xe4, 0x8f, 0x50, 0xef, 0xb6, 0x23,
  0x24, 0x81, 0x29, 0xa4, 0x07, 0xd4, 0x0f, 0x49, 0x34, 0x08, 0xf0, 0x47,
  0x14, 0xc5, 0xa4, 0x4e, 0x91, 0xdb, 0x10, 0x41, 0x1d, 0x14, 0x38, 0xce,
  0xdb, 0xc7, 0xfc, 0xe0, 0xef, 0x3c, 0xe9, 0xe6, 0x29, 0x36, 0x44, 0xd2,
  0x27, 0xd2, 0xf7, 0x1f, 0x81, 0x13, 0x05, 0x4a, 0x17, 0x3d, 0x98, 0xfc,
  0x41, 0xd8, 0xe5, 0x06, 0xf5, 0xe6, 0x03, 0x1c, 0x26, 0x18, 0xd3, 0x27,
  0x00, 0xe0, 0xb1, 0xe2, 0xe5, 0x06, 0x96, 0x16, 0x24, 0xd4, 0x11, 0xd9,
  0x15, 0xf6, 0xdd, 0x2d, 0xe0, 0x1b, 0x1b, 0xf0, 0x23, 0xaf, 0xff, 0xca,
  0x04, 0x16, 0x1f, 0x15, 0xf7, 0xcf, 0xd8, 0xfe, 0x9d, 0xa5, 0xf7, 0x1c,
  0x1e, 0xd9, 0x05, 0xf1, 0x07, 0xdf, 0xf2, 0x81, 0x4e, 0xf6, 0xee, 0x12,
  0xe0, 0xa4, 0xee, 0xd1, 0xee, 0x27, 0x0c, 0xdb, 0xe2, 0xa5, 0xf8, 0x3d,
  0xca, 0x9f, 0x07, 0xee, 0x69, 0x38, 0x0c, 0xcf, 0x9e, 0x2c, 0xeb, 0xd9,
  0x3f, 0xfb, 0x69, 0xeb, 0xa7, 0x1a, 0x26, 0x21, 0x0f, 0x08, 0xca, 0x1c,
  0x3d, 0x81, 0x96, 0xe7, 0xd5, 0x34, 0x0c, 0xfb, 0x9d, 0xe5, 0x58, 0x1a,
  0xc5, 0xee, 0xc9, 0xce, 0xb4, 0x37, 0x0f, 0x99, 0x5a, 0xeb, 0x32, 0x20,
  0xcc, 0x34, 0xe1, 0xfa, 0xae, 0x57, 0x1d, 0xc6, 0xe3, 0xfa, 0xe4, 0x91,
  0x81, 0xda, 0x9d, 0x9b, 0xfc, 0x06, 0xeb, 0xd2, 0xf7, 0x04, 0x17, 0xe3,
  0x86, 0xd3, 0x04, 0x46, 0xea, 0xb0, 0xed, 0x3d, 0xfc, 0x00, 0xe3, 0xcd,
  0xfb, 0x3d, 0xd3, 0x74, 0xd3, 0xfa, 0x36, 0xfd, 0xf1, 0x9c, 0xc8, 0x36,
  0xdd, 0xea, 0x0f, 0x30, 0xf9, 0x46, 0xf1, 0xe9, 0x08, 0xec, 0xad, 0x11,
  0x0f, 0xe2, 0x2f, 0x06, 0x11, 0xea, 0xe6, 0xf3, 0x1b, 0x49, 0xe6, 0xc9,
  0x06, 0xde, 0xe7, 0x59, 0xef, 0xf7, 0xfc, 0x06, 0x36, 0x28, 0xea, 0x19,
  0x18, 0xe5, 0xe7, 0xf4, 0xcf, 0xe4, 0x81, 0x27, 0x0c, 0x03, 0x1b, 0xe3,
  0x17, 0x18, 0xd5, 0x18, 0xc9, 0x1d, 0x16, 0xcb, 0x18, 0xc6, 0xda, 0xd3,
  0xf8, 0x36, 0xde, 0x1d, 0xf7, 0x29, 0xdb, 0xd7, 0xea, 0xd6, 0x03, 0x14,
  0x10, 0x0c, 0xf6, 0xcd, 0xf4, 0xd5, 0xf4, 0xaa, 0x19, 0xef, 0x07, 0xf1,
  0x06, 0xa8, 0xea, 0xf6, 0xb1, 0x20, 0x00, 0xeb, 0x11, 0x1d, 0xea, 0x60,
  0xdb, 0x51, 0xd5, 0xe7, 0xd9, 0xc4, 0xe2, 0x21, 0x94, 0x13, 0x2b, 0xe3,
  0x24, 0xdd, 0x81, 0xdf, 0x32, 0x1f, 0xf0, 0x0a, 0x21, 0x0a, 0x0b, 0xb4,
  0x0e, 0xe1, 0xbc, 0xf8, 0xe1, 0xee, 0xbf, 0x43, 0xc8, 0xf1, 0xbc, 0x07,
  0xc4, 0xf9, 0xeb, 0xd5, 0x21, 0x58, 0x16, 0xa8, 0x2d, 0xe1, 0x9d, 0xbb,
  0x0f, 0xb2, 0xf0, 0x0a, 0x09, 0x17, 0xb0, 0xd4, 0x0d, 0x35, 0xb6, 0x19,
  0x30, 0xea, 0xc4, 0xdf, 0x36, 0x08, 0x81, 0xf4, 0xd8, 0xcc, 0xeb, 0xd2,
  0xea, 0x0f, 0x07, 0x21, 0xe5, 0xf9, 0x12, 0x3c, 0xf7, 0x03, 0xf1, 0x0d,
  0x14, 0xde, 0x02, 0xed, 0x11, 0x09, 0x0d, 0xa1, 0xd0, 0x14, 0xf8, 0xdb,
  0xee, 0xdb, 0x26, 0x16, 0x0d, 0xe6, 0x1c, 0x2d, 0x04, 0xeb, 0xfb, 0x1f,
  0x2b, 0xb5, 0x31, 0xf7, 0x07, 0xf0, 0x27, 0x15, 0x17, 0xef, 0xfc, 0xfd,
  0x01, 0x0f, 0x10, 0xf8, 0x0d, 0x10, 0xc5, 0xa1, 0xfd, 0xe7, 0xd1, 0xe8,
  0x30, 0xbb, 0xd1, 0x34, 0x81, 0x39, 0x0e, 0xd9, 0xdf, 0xc8, 0xbd, 0x0d,
  0x20, 0xf6, 0x90, 0x34, 0x09, 0x49, 0xd0, 0x3a, 0x9d, 0x16, 0x40, 0x2d,
  0xb4, 0xee, 0xaa, 0x0b, 0xfd, 0xc7, 0xf2, 0x2c, 0x8f, 0x11, 0xd1, 0x02,
  0xde, 0xfe, 0x0d, 0x0a, 0xa6, 0xc4, 0x18, 0xdd, 0x32, 0x15, 0x1b, 0xca,
  0x04, 0x05, 0xeb, 0x44, 0x24, 0xda, 0xe2, 0x43, 0xe7, 0xe7, 0x42, 0xc9,
  0xf2, 0xe8, 0x1e, 0x81, 0x0d, 0x20, 0x2f, 0xf9, 0x1d, 0xf0, 0xe4, 0xb6,
  0x97, 0xd7, 0xda, 0xf7, 0xff, 0xef, 0xc2, 0xa3, 0x2a, 0x07, 0xfc, 0x1c,
  0xf3, 0xf9, 0xe7, 0xdb, 0xd8, 0x13, 0x84, 0xbf, 0xfa, 0x2b, 0xcb, 0xf5,
  0x1a, 0x37, 0x08, 0xdb, 0x05, 0x12, 0xe0, 0x1a, 0xd0, 0xc8, 0xc2, 0xf2,
  0xf9, 0x02, 0xf4, 0xb3, 0x11, 0x09, 0x03, 0x08, 0xe5, 0x9d, 0xef, 0x2c,
  0x13, 0xdc, 0xf1, 0x11, 0x19, 0x2d, 0xf4, 0x26, 0x16, 0xd8, 0x12, 0xf9,
  0xcf, 0xec, 0x86, 0x03, 0x24, 0x3b, 0x03, 0xfe, 0x18, 0x29, 0xd2, 0x8d,
  0x09, 0xe5, 0x04, 0xd3, 0xf4, 0x0d, 0xc5, 0x18, 0xfc, 0x09, 0xe7, 0x1d,
  0xf4, 0x02, 0xe9, 0xb0, 0x81, 0xe6, 0x1f, 0xd8, 0xe8, 0xeb, 0xc5, 0xeb,
  0xf5, 0x2d, 0x04, 0xaf, 0x1a, 0xbc, 0x16, 0xde, 0x2a, 0x09, 0x00, 0xdf,
  0x9a, 0xea, 0x16, 0x0c, 0x04, 0xa0, 0x00, 0x07, 0x04, 0xbd, 0x43, 0x81,
  0xeb, 0xca, 0xdf, 0xe5, 0xce, 0x38, 0xee, 0xf1, 0xb3, 0x17, 0xb0, 0xff,
  0xbf, 0x34, 0x0e, 0xf1, 0x1d, 0x08, 0xd5, 0xe3, 0x0a, 0xcb, 0xdf, 0xe2,
  0xe1, 0xea, 0x0c, 0x37, 0xc5, 0xec, 0xb7, 0xdc, 0x1b, 0xcb, 0xff, 0xb8,
  0xeb, 0xeb, 0x12, 0xbc, 0x0b, 0x14, 0x09, 0x0f, 0xf5, 0x12, 0x01, 0xea,
  0x06, 0xfd, 0x09, 0xad, 0xdc, 0xfa, 0xf6, 0xcb, 0xc7, 0xfc, 0x12, 0x33,
  0x59, 0x17, 0xf5, 0x3c, 0xcb, 0xfc, 0x00, 0x11, 0x3b, 0xc4, 0xe6, 0x05,
  0x48, 0x2e, 0x28, 0xf2, 0x24, 0x1a, 0xe2, 0xf6, 0x0f, 0x0d, 0xcd, 0xcc,
  0x2b, 0x29, 0xf6, 0x81, 0xa9, 0x37, 0x9b, 0x3e, 0x9f, 0xf0, 0xaf, 0xa9,
  0xdc, 0x51, 0x00, 0x3e, 0xff, 0x56, 0xec, 0xf2, 0x8b, 0x14, 0xd9, 0xf0,
  0x5a, 0xd5, 0x13, 0xec, 0x3c, 0x12, 0x1c, 0xb3, 0x66, 0x25, 0x99, 0x33,
  0xb0, 0x21, 0x33, 0x52, 0xb8, 0xe0, 0x26, 0xa2, 0x1e, 0xf9, 0xb2, 0xf6,
  0x01, 0xe7, 0xff, 0xd0, 0xfd, 0xd7, 0x1d, 0xb4, 0x93, 0xbe, 0xff, 0x06,
  0xf7, 0x25, 0x0f, 0x1e, 0xd2, 0x99, 0x09, 0xdb, 0x0c, 0x35, 0x28, 0xa2,
  0xa2, 0x08, 0x2a, 0x06, 0xc7, 0x2b, 0x90, 0xdb, 0xf1, 0x29, 0xc5, 0x09,
  0x30, 0xbb, 0x03, 0x38, 0x13, 0x10, 0x81, 0x20, 0x81, 0xfe, 0x39, 0x00,
  0xe8, 0xfe, 0xf3, 0xd5, 0xf9, 0xe7, 0x0e, 0xde, 0xf6, 0xf6, 0xda, 0xf5,
  0x03, 0x14, 0x0f, 0xfc, 0xd8, 0xdd, 0xff, 0xf0, 0x21, 0xe6, 0xf8, 0xf2,
  0x30, 0xfb, 0x00, 0xf2, 0x1f, 0x36, 0xb0, 0x0d, 0xfa, 0xde, 0xfa, 0xe1,
  0x06, 0xf1, 0xb8, 0xf5, 0xdc, 0x29, 0x08, 0xf9, 0xe1, 0x10, 0xdb, 0x04,
  0x26, 0x0b, 0xc8, 0x01, 0x04, 0xd2, 0xd1, 0xec, 0xec, 0xfe, 0x0f, 0xf9,
  0xe8, 0xfb, 0x10, 0xe4, 0x06, 0x81, 0xfb, 0x0f, 0x1f, 0xfb, 0xe9, 0x08,
  0x7f, 0xa5, 0xba, 0x04, 0x73, 0xd3, 0x19, 0xa2, 0xef, 0x0c, 0x0d, 0xc8,
  0x24, 0xf6, 0xb1, 0xea, 0x2d, 0x51, 0x1c, 0x07, 0x08, 0x16, 0xe2, 0xbf,
  0xe4, 0xe1, 0x97, 0xbe, 0xcf, 0xfe, 0xd9, 0xec, 0xf3, 0xb6, 0xb9, 0x1f,
  0x12, 0xfb, 0xf1, 0xbb, 0xf0, 0x13, 0xf0, 0xdf, 0x18, 0xf6, 0x0f, 0x2b,
  0xdb, 0xfa, 0x45, 0x44, 0xa9, 0xae, 0x09, 0xc0, 0xe0, 0xc7, 0xf4, 0x68,
  0x1d, 0xe5, 0xbd, 0x20, 0x26, 0xe8, 0xab, 0xf2, 0x19, 0xae, 0xf6, 0xd5,
  0xd3, 0x29, 0x0f, 0xdb, 0xe5, 0xd4, 0xf4, 0x5b, 0x12, 0xc7, 0x1f, 0x0c,
  0x1e, 0x23, 0xd7, 0x9e, 0x01, 0x40, 0xc3, 0x81, 0xe8, 0x00, 0x1d, 0x94,
  0xff, 0x18, 0x3e, 0x20, 0xaa, 0xd9, 0x2a, 0x37, 0xce, 0xe4, 0xe7, 0xa9,
  0x44, 0xbe, 0x13, 0xc8, 0x1c, 0x0a, 0x43, 0x06, 0x29, 0xfa, 0x2b, 0xcc,
  0xf9, 0xb8, 0x3e, 0xd2, 0xe2, 0xaf, 0x7f, 0x3a, 0xde, 0xcd, 0x68, 0x1d,
  0xf7, 0x40, 0x1a, 0xfe, 0x0a, 0xe8, 0xe5, 0xec, 0xd5, 0xe2, 0xc8, 0xda,
  0x9e, 0x31, 0xd6, 0xdf, 0xd1, 0x05, 0xd8, 0xba, 0x19, 0xdf, 0x26, 0xa0,
  0x09, 0xe2, 0x4d, 0xe0, 0xe3, 0x6c, 0xda, 0xfa, 0x12, 0xe5, 0xdc, 0x01,
  0x16, 0xed, 0xf4, 0x05, 0xff, 0xfd, 0x18, 0x12, 0x34, 0x0b, 0xd5, 0xf3,
  0xbd, 0xd4, 0xc6, 0xdc, 0x18, 0xdd, 0xcc, 0x00, 0x03, 0xe6, 0x81, 0x14,
  0xf4, 0xcb, 0x22, 0x2b, 0x11, 0xb6, 0xfb, 0xd9, 0xb7, 0x6a, 0x12, 0x0b,
  0xc6, 0x1e, 0xbc, 0x62, 0xf1, 0xcb, 0x1b, 0x1a, 0x12, 0xbd, 0xdd, 0xe0,
  0x0d, 0x32, 0xee, 0xde, 0xdb, 0xf8, 0x18, 0xfb, 0xc7, 0xa8, 0x2a, 0x01,
  0xea, 0xd1, 0x0a, 0x46, 0xd8, 0x02, 0x34, 0xa3, 0x42, 0x90, 0x1a, 0x03,
  0xa2, 0xe6, 0x1b, 0x09, 0xfc, 0xfc, 0x0a, 0xce, 0x1a, 0x03, 0x11, 0xfa,
  0x38, 0x13, 0xf4, 0x1c, 0x1c, 0x3b, 0x06, 0x15, 0x56, 0x10, 0xdb, 0x33,
  0x10, 0xee, 0x04, 0xfb, 0x3a, 0xde, 0x17, 0x0a, 0x1a, 0x17, 0xea, 0x37,
  0x1e, 0xf8, 0xfb, 0x0b, 0x4c, 0x0c, 0x08, 0x1f, 0x11, 0x23, 0xc4, 0xf8,
  0x01, 0x07, 0x98, 0xf6, 0xb4, 0xf0, 0x16, 0x14, 0xcb, 0x4e, 0x03, 0xad,
  0x81, 0xfe, 0xd6, 0xc5, 0xf9, 0xd0, 0x30, 0xb7, 0x32, 0x2a, 0xe3, 0xc9,
  0x33, 0x08, 0xed, 0x24, 0xfd, 0x04, 0xf3, 0x1f, 0xe2, 0xd7, 0x95, 0x2f,
  0x1c, 0x07, 0xf8, 0x03, 0x81, 0xd5, 0xf9, 0x14, 0x00, 0xf9, 0x2b, 0x2b,
  0xc0, 0xda, 0x66, 0xfc, 0xf4, 0xb9, 0xca, 0x24, 0xee, 0xea, 0x17, 0x1c,
  0x10, 0xb2, 0x25, 0x00, 0xd8, 0xe8, 0x19, 0xfd, 0xc7, 0xf9, 0xd0, 0x3a,
  0xd0, 0x2b, 0xd4, 0xd7, 0x5e, 0xe3, 0x06, 0x23, 0x9f, 0x05, 0x03, 0x11,
  0xca, 0x0f, 0x0c, 0xe0, 0x39, 0xdc, 0xe3, 0xeb, 0x18, 0xf0, 0xac, 0x81,
  0xf6, 0x92, 0xd4, 0xdf, 0x42, 0x16, 0xff, 0xe2, 0x96, 0xef, 0x25, 0xbe,
  0xb1, 0xd9, 0xd6, 0x34, 0x27, 0xe4, 0x1a, 0xc1, 0x3c, 0x33, 0x94, 0x44,
  0x13, 0x19, 0x3a, 0xeb, 0xeb, 0xb5, 0xca, 0xc0, 0xec, 0x17, 0x23, 0x3c,
  0xdd, 0x20, 0xac, 0x4a, 0xdb, 0xf2, 0x16, 0x37, 0x2d, 0x01, 0x0f, 0xf9,
  0xc7, 0x15, 0x3d, 0x0f, 0xfb, 0x15, 0xb7, 0x22, 0x31, 0x96, 0x16, 0x50,
  0x4f, 0xd2, 0xed, 0xeb, 0x47, 0xed, 0x02, 0xce, 0x21, 0xe2, 0xe6, 0x3b,
  0xdc, 0x09, 0x1e, 0xfa, 0x25, 0x1b, 0xf5, 0x5a, 0x43, 0xe0, 0xdc, 0x15,
  0x17, 0x2e, 0xbe, 0x9c, 0xa2, 0x2e, 0xd2, 0xb7, 0xd1, 0xc5, 0x8b, 0x23,
  0x36, 0x4a, 0x41, 0xea, 0xc5, 0xc5, 0x0b, 0x35, 0xae, 0x05, 0x9d, 0xae,
  0xe8, 0xdd, 0xcc, 0xa2, 0xf9, 0xe8, 0x39, 0xee, 0x7f, 0xf3, 0x21, 0xbc,
  0x0e, 0xb8, 0x26, 0x15, 0xde, 0x3a, 0xdf, 0xea, 0x0a, 0xdc, 0xda, 0x33,
  0xed, 0xfd, 0x26, 0x0c, 0x99, 0x32, 0x0f, 0xf3, 0x05, 0x37, 0x3f, 0x22,
  0x29, 0xf4, 0x37, 0xfb, 0xd1, 0xd4, 0xc7, 0x24, 0x04, 0x1a, 0x08, 0x49,
  0x1b, 0xa9, 0x05, 0x1f, 0xd9, 0xd8, 0x27, 0xce, 0xbd, 0xd7, 0xa0, 0x37,
  0xf4, 0x42, 0x7f, 0xfc, 0xfe, 0xf2, 0x10, 0x1f, 0xbc, 0x1a, 0x03, 0x1d,
  0xd4, 0xef, 0xdf, 0x24, 0x26, 0xdf, 0xdc, 0x1b, 0x14, 0xcf, 0xb8, 0xf8,
  0x04, 0x03, 0x81, 0xf4, 0xce, 0xbe, 0x02, 0xed, 0xfc, 0xa9, 0x0b, 0xfc,
  0xf1, 0xfe, 0x11, 0x0d, 0x13, 0x04, 0xd0, 0x3e, 0x00, 0x14, 0xd2, 0xf8,
  0xf6, 0x0a, 0x01, 0xe7, 0x13, 0xf0, 0x0b, 0xd4, 0x2a, 0xd9, 0x11, 0x06,
  0x08, 0x38, 0x0c, 0x08, 0xea, 0xde, 0xf9, 0x0a, 0xfa, 0xb1, 0x13, 0xc9,
  0x00, 0xc1, 0x33, 0xfd, 0x16, 0x49, 0x08, 0x18, 0x22, 0xd4, 0x12, 0xf4,
  0x97, 0x1c, 0xf0, 0x05, 0x31, 0xf5, 0xf2, 0x5a, 0x59, 0xe2, 0x1f, 0x18,
  0x0d, 0xe2, 0xc6, 0x1d, 0x34, 0x4c, 0x35, 0xd5, 0x34, 0x07, 0xc6, 0xb7,
  0xde, 0x28, 0x40, 0x04, 0xf5, 0x17, 0x2b, 0x08, 0xf0, 0x2e, 0x9a, 0x33,
  0xfa, 0x07, 0xf3, 0x29, 0x81, 0x9c, 0xc7, 0x20, 0xdd, 0xff, 0x27, 0x04,
  0xe3, 0x31, 0xfc, 0xca, 0x0a, 0x29, 0x1c, 0xe2, 0xc4, 0x17, 0xfe, 0xf2,
  0xba, 0xd0, 0xf6, 0xea, 0xf9, 0xf1, 0xef, 0x10, 0x25, 0xcd, 0x10, 0x29,
  0xd9, 0xe1, 0x06, 0xc4, 0x05, 0x3c, 0x15, 0xf3, 0x1b, 0x0f, 0xf3, 0xf2,
  0x53, 0xfa, 0xcc, 0x8b, 0x1f, 0xf5, 0xcc, 0xb7, 0xde, 0x29, 0x81, 0xf2,
  0xad, 0x08, 0xa0, 0xfe, 0xd7, 0x55, 0x13, 0xdf, 0xf3, 0xf4, 0xc8, 0xf9,
  0x1a, 0x0e, 0xe5, 0x03, 0x34, 0x1c, 0xb1, 0x2b, 0x2e, 0x9e, 0x0f, 0xde,
  0x11, 0x4a, 0xf5, 0xe2, 0xde, 0x90, 0xf4, 0x1a, 0xb1, 0x61, 0xcd, 0x12,
  0x0f, 0x73, 0xd9, 0x13, 0x1a, 0xcf, 0xce, 0x1e, 0xd7, 0xd4, 0x99, 0xf0,
  0x4c, 0x92, 0x7f, 0x4b, 0xf0, 0x00, 0x91, 0xa4, 0x8a, 0xed, 0x61, 0xbc,
  0x87, 0xbc, 0x1c, 0x99, 0xdf, 0xee, 0x64, 0x3d, 0xfd, 0x9b, 0x86, 0xcc,
  0xa1, 0xd0, 0x0c, 0x77, 0x15, 0xf7, 0x9b, 0xfa, 0x56, 0x2e, 0x39, 0x10,
  0x37, 0x11, 0xed, 0x35, 0x94, 0xe6, 0x16, 0xc7, 0xca, 0x67, 0xf3, 0xf8,
  0x1d, 0xa2, 0xf2, 0x08, 0xfd, 0xc5, 0x7f, 0xcd, 0xb8, 0xd1, 0x02, 0xec,
  0x19, 0x17, 0x00, 0xb1, 0xae, 0xf9, 0xb1, 0xef, 0xdd, 0x09, 0xe3, 0xe2,
  0x19, 0xf6, 0xc2, 0xf0, 0xea, 0xbb, 0xec, 0xcb, 0xda, 0xf3, 0x02, 0xd7,
  0x0a, 0xf5, 0xe0, 0x06, 0x1f, 0xc5, 0x0a, 0xdc, 0xd5, 0xee, 0x2e, 0x0d,
  0xf0, 0xf3, 0xce, 0xcd, 0x00, 0x04, 0xd2, 0xf0, 0x3c, 0x17, 0x32, 0xde,
  0xdc, 0xe4, 0x14, 0xf8, 0x1c, 0xce, 0xf5, 0x81, 0x5b, 0xcf, 0x08, 0xf3,
  0x1a, 0xe6, 0x16, 0xd0, 0xd1, 0xf9, 0xfe, 0x2d, 0xfe, 0x15, 0xca, 0x23,
  0x14, 0x1c, 0xf0, 0xd0, 0x21, 0x14, 0xe5, 0x18, 0xdf, 0x10, 0x45, 0xab,
  0xd4, 0x03, 0xb3, 0x18, 0x01, 0x25, 0x17, 0x13, 0x04, 0xcb, 0x15, 0x0e,
  0xc0, 0xd4, 0xf3, 0x2e, 0xfe, 0xe6, 0xe1, 0x02, 0xd3, 0x2f, 0x1c, 0xfc,
  0x35, 0x18, 0xd8, 0x0c, 0xca, 0xbd, 0x1d, 0xfc, 0xdf, 0x1e, 0x0b, 0xcd,
  0x29, 0xc3, 0x0e, 0x58, 0x49, 0x18, 0x3f, 0xe5, 0x0f, 0x0c, 0xf5, 0xf4,
  0x38, 0x1f, 0xe7, 0xbd, 0x15, 0x4c, 0x81, 0xc1, 0xfe, 0xfc, 0x04, 0x25,
  0x05, 0x02, 0x56, 0xf0, 0xb5, 0xe0, 0xd2, 0xf0, 0xef, 0x0d, 0xef, 0x24,
  0xff, 0x09, 0xe1, 0x5a, 0xdc, 0xc5, 0x28, 0x1c, 0xdb, 0x18, 0xfa, 0xd3,
  0xfe, 0x23, 0x16, 0xd9, 0xcf, 0x24, 0xde, 0x07, 0x07, 0xf9, 0xd2, 0x28,
  0xe7, 0xb9, 0xa6, 0xe0, 0x4b, 0x30, 0xe3, 0x21, 0x2a, 0xd8, 0x3a, 0x29,
  0xe4, 0x93, 0xb5, 0x04, 0x55, 0x2a, 0xd8, 0x08, 0x37, 0x15, 0xc9, 0xce,
  0x07, 0xea, 0xc8, 0x90, 0xb0, 0x54, 0xea, 0xa2, 0xcb, 0xff, 0x81, 0x37,
  0x38, 0xf0, 0x11, 0xb5, 0x89, 0x10, 0x1e, 0x40, 0xd7, 0xe3, 0xa7, 0x08,
  0xdd, 0x27, 0x18, 0xa4, 0x23, 0xeb, 0xfc, 0xc2, 0x11, 0xa1, 0x19, 0xac,
  0x43, 0xf6, 0x11, 0xd2, 0xad, 0x1a, 0x4e, 0xf3, 0xcf, 0x07, 0x60, 0x8c,
  0xc3, 0x74, 0x13, 0x06, 0x21, 0xe2, 0xd5, 0xef, 0xbd, 0xd7, 0xe1, 0xa2,
  0xe2, 0xc2, 0xff, 0xc0, 0x0f, 0x06, 0xdc, 0x19, 0xcc, 0x09, 0xb5, 0xee,
  0x22, 0xc7, 0xb2, 0xcf, 0xd7, 0xf3, 0xce, 0x8b, 0xe1, 0x45, 0xdf, 0x98,
  0x03, 0xe8, 0x81, 0x4f, 0x01, 0xf7, 0xbc, 0x15, 0xe7, 0x12, 0xd8, 0xcb,
  0x19, 0xca, 0x02, 0x2a, 0xf8, 0xe7, 0xe8, 0x2c, 0xdd, 0x0c, 0xed, 0x12,
  0x34, 0x32, 0x14, 0x09, 0xe9, 0xf5, 0x0f, 0x2a, 0xb3, 0x14, 0x1c, 0x31,
  0x31, 0x28, 0x29, 0xd9, 0x36, 0xff, 0xb7, 0x3f, 0xf8, 0x12, 0x03, 0x27,
  0x3e, 0xe8, 0xa8, 0xe2, 0xf4, 0x3b, 0xd4, 0x28, 0xa8, 0xe0, 0x16, 0x81,
  0xba, 0xf6, 0xeb, 0x0a, 0x1d, 0x3f, 0x63, 0xdd, 0x14, 0x1b, 0x03, 0x03,
  0xf7, 0x0c, 0xbd, 0x33, 0xca, 0xf9, 0xd9, 0xec, 0x1f, 0x19, 0xd8, 0xdf,
  0x10, 0x1e, 0x2d, 0x14, 0xd0, 0xd2, 0x2c, 0x40, 0xed, 0x15, 0x29, 0x9f,
  0x3a, 0xfb, 0x1b, 0xd3, 0x40, 0xf1, 0x18, 0x08, 0x06, 0x26, 0x82, 0xf8,
  0x81, 0xb6, 0x91, 0xd8, 0x09, 0x26, 0x07, 0xe8, 0xd9, 0xc8, 0xf1, 0xbf,
  0xee, 0x2d, 0x1f, 0xf5, 0x0e, 0x23, 0xbf, 0x32, 0xde, 0x0a, 0xf7, 0x1b,
  0x12, 0x07, 0x0e, 0x05, 0x39, 0xbd, 0xe6, 0x2a, 0xef, 0x02, 0xfd, 0x0c,
  0x46, 0xf3, 0xeb, 0xb5, 0x84, 0x20, 0xb2, 0x24, 0x0c, 0x28, 0xe3, 0xf9,
  0x50, 0xc7, 0x12, 0xce, 0xcb, 0xc8, 0xce, 0x19, 0x28, 0xb6, 0x66, 0x46,
  0xef, 0x09, 0xd8, 0xca, 0xef, 0xd5, 0xfb, 0xe4, 0x99, 0x95, 0xe7, 0x20,
  0x0f, 0xb7, 0xe5, 0x2f, 0xe7, 0xfb, 0xe1, 0xb6, 0xed, 0x3a, 0xc6, 0x42,
  0x24, 0x0a, 0x81, 0x0f, 0x4b, 0xdd, 0x1f, 0xf4, 0xf5, 0x20, 0xe3, 0x1b,
  0xe1, 0x1f, 0xe1, 0xa3, 0x59, 0x53, 0xfd, 0x2f, 0x2a, 0x28, 0x25, 0x3b,
  0x2f, 0x0e, 0x1b, 0x09, 0xcf, 0xd3, 0xea, 0x24, 0x14, 0x31, 0x19, 0x3b,
  0x2e, 0x10, 0x05, 0x81, 0xe7, 0x2f, 0xea, 0xfc, 0x39, 0xe5, 0xe4, 0xe1,
  0x2b, 0x9d, 0xec, 0xbf, 0x04, 0x51, 0xfa, 0x27, 0x90, 0xfa, 0x1f, 0xe3,
  0x16, 0x25, 0x22, 0x07, 0x32, 0x57, 0x0a, 0xd1, 0x27, 0x18, 0xc0, 0xbf,
  0x12, 0xf4, 0xb5, 0x26, 0x27, 0x09, 0x5f, 0xc1, 0xed, 0x1b, 0x09, 0x06,
  0xf0, 0x39, 0x34, 0x2f, 0xd3, 0x9e, 0xfa, 0xeb, 0x0b, 0x05, 0x3a, 0xb3,
  0xed, 0x24, 0xcb, 0xe8, 0xb4, 0x0e, 0x05, 0x24, 0xc6, 0xba, 0x1a, 0xb9,
  0x08, 0x29, 0xee, 0x05, 0xd1, 0x2a, 0xed, 0xe8, 0x15, 0xea, 0x2e, 0xb9,
  0xf1, 0x52, 0x1f, 0xfe, 0x24, 0xe9, 0x99, 0xe2, 0xd6, 0xfe, 0x04, 0x01,
  0x1e, 0xdc, 0xf3, 0x18, 0xe7, 0x0d, 0x17, 0x2b, 0xc7, 0xf7, 0x19, 0x11,
  0xd8, 0xb2, 0xb0, 0x81, 0x0f, 0x1c, 0xf7, 0xcf, 0x08, 0x14, 0xf4, 0xfd,
  0xbd, 0xb7, 0x02, 0xf7, 0x06, 0xe7, 0xf5, 0x11, 0x2f, 0xf2, 0x06, 0x01,
  0x27, 0xfe, 0xe6, 0xbd, 0xfa, 0xfc, 0x32, 0x0e, 0x06, 0x01, 0x28, 0x11,
  0xed, 0xcc, 0xe9, 0x09, 0x2c, 0xc9, 0xfd, 0x0e, 0xfd, 0xe1, 0x10, 0x11,
  0xd6, 0xc2, 0x20, 0xf5, 0xc9, 0x1f, 0xaf, 0xe4, 0xe5, 0x81, 0x17, 0x2a,
  0x45, 0x08, 0xa9, 0x35, 0xc7, 0x07, 0x03, 0x14, 0x0f, 0x23, 0xf1, 0x31,
  0x2e, 0x1c, 0xd7, 0x18, 0x1b, 0xb9, 0xbe, 0x0b, 0x26, 0xe3, 0xdb, 0x0d,
  0x13, 0xb5, 0xdd, 0xcc, 0x0d, 0xc6, 0x12, 0xc1, 0xfc, 0x0a, 0x1e, 0x88,
  0xb5, 0xba, 0x04, 0xda, 0xf9, 0xe4, 0xfb, 0x2f, 0x81, 0xd5, 0xb8, 0x05,
  0x97, 0xf1, 0x0c, 0xfb, 0xef, 0x0e, 0xb4, 0xcb, 0x37, 0x01, 0x02, 0x9b,
  0x26, 0x0b, 0xa2, 0xe0, 0xb2, 0xf8, 0x4f, 0xdd, 0xf4, 0xf9, 0xad, 0x04,
  0xca, 0x29, 0x0c, 0xef, 0x10, 0xe8, 0x00, 0x2f, 0x1b, 0x0b, 0x18, 0xeb,
  0x0e, 0x0b, 0xe8, 0x0a, 0x02, 0x04, 0xf6, 0xdd, 0x31, 0x2f, 0xd7, 0xee,
  0x1d, 0x12, 0x14, 0x0d, 0x06, 0xd9, 0x0a, 0xf3, 0xf4, 0xc5, 0xb4, 0x0c,
  0xfb, 0xf2, 0x0f, 0x23, 0xff, 0xfc, 0x81, 0x25, 0x23, 0xf1, 0x38, 0x04,
  0x0c, 0x0f, 0xe6, 0x12, 0x30, 0x19, 0xf4, 0x0d, 0xc0, 0x13, 0xda, 0x25,
  0x01, 0xec, 0xfc, 0xfd, 0xba, 0x0b, 0x4a, 0x00, 0xd4, 0x05, 0x1d, 0xc9,
  0xca, 0x5a, 0x24, 0x0d, 0x33, 0xd2, 0xd6, 0xe9, 0xf8, 0xfb, 0xd2, 0xdd,
  0xe6, 0xfc, 0x0b, 0x92, 0x15, 0xe9, 0xaf, 0xb5, 0xfe, 0x2f, 0xa5, 0xd9,
  0xd4, 0xdf, 0xce, 0xc4, 0xc9, 0x2f, 0xec, 0xac, 0xcd, 0x29, 0xc7, 0x07,
  0xcc, 0xf2, 0xe1, 0x26, 0xe8, 0xca, 0xad, 0x26, 0x0a, 0x05, 0x2a, 0x0d,
  0xd5, 0xb3, 0x15, 0x0b, 0xf3, 0x88, 0xff, 0x81, 0x5b, 0x38, 0x35, 0x1f,
  0x3c, 0x02, 0x77, 0x31, 0xff, 0x3d, 0x3a, 0x30, 0xd1, 0x4a, 0x1c, 0xef,
  0x51, 0xe2, 0xe1, 0x19, 0x0a, 0x38, 0x29, 0xee, 0xf0, 0x42, 0xfd, 0xe8,
  0x3c, 0x8f, 0x17, 0xd6, 0xe9, 0xfc, 0xd7, 0x34, 0xe4, 0x50, 0xf7, 0xec,
  0x0b, 0xf6, 0x0c, 0x1f, 0xde, 0x0a, 0xf6, 0xc0, 0xae, 0x0c, 0x81, 0xb9,
  0xdd, 0xd6, 0x14, 0x27, 0x4d, 0x1c, 0xd0, 0xa6, 0xf5, 0xd4, 0x96, 0x0e,
  0xc5, 0x41, 0x4a, 0xd0, 0x03, 0xe8, 0x47, 0xa0, 0xcc, 0x09, 0x00, 0x0c,
  0x0e, 0xfe, 0xdf, 0xec, 0xc7, 0xd5, 0x4f, 0xb2, 0xc3, 0xc4, 0xd5, 0x0b,
  0x05, 0x29, 0xd2, 0xee, 0x81, 0xba, 0xd3, 0xb7, 0xfc, 0xf7, 0xb0, 0x00,
  0xea, 0x0a, 0x08, 0xf2, 0xe7, 0x26, 0xd3, 0xcb, 0xfe, 0x3d, 0xc7, 0x19,
  0x11, 0x17, 0x0c, 0x17, 0x07, 0x1e, 0xe6, 0xde, 0xe6, 0xd0, 0x1a, 0x25,
  0xff, 0xff, 0xfa, 0x0a, 0x81, 0xb2, 0xf5, 0x0d, 0x0f, 0x12, 0xe5, 0x33,
  0xf5, 0xca, 0xaf, 0xda, 0xa5, 0x14, 0xea, 0x44, 0x1c, 0x14, 0x4e, 0x12,
  0x08, 0x07, 0x43, 0x02, 0x16, 0x9d, 0x1a, 0x01, 0x6f, 0xcc, 0x16, 0xd5,
  0xed, 0x2b, 0xbe, 0x24, 0x94, 0xd3, 0x27, 0xfa, 0xee, 0x40, 0xe0, 0x3d,
  0x1c, 0x11, 0xda, 0x1b, 0x0d, 0x15, 0x2d, 0x19, 0x27, 0xf5, 0xb0, 0xe5,
  0x03, 0x43, 0x14, 0xd1, 0x39, 0x0b, 0xb7, 0x37, 0xa4, 0xc3, 0x1c, 0x24,
  0xae, 0x04, 0xd6, 0x2c, 0xb8, 0x4a, 0xd4, 0xdd, 0x81, 0xfb, 0xd6, 0x1a,
  0xb5, 0xdc, 0x03, 0x15, 0xa8, 0xda, 0xfe, 0x1a, 0xef, 0xf9, 0xee, 0x4a,
  0xe1, 0x00, 0xd4, 0x05, 0xf9, 0xfc, 0x0e, 0xa6, 0xfa, 0xfa, 0x28, 0xee,
  0xf8, 0x4d, 0xe9, 0xfe, 0x0a, 0xbb, 0xdb, 0xcd, 0x1f, 0xe9, 0x09, 0x20,
  0xf6, 0xdd, 0xfc, 0x07, 0x21, 0xf5, 0x62, 0xdd, 0xe0, 0xc5, 0x0e, 0xf0,
  0xbe, 0xc8, 0xf4, 0xf2, 0xfa, 0xf0, 0xd7, 0x3c, 0x89, 0xdd, 0x1f, 0xd4,
  0xf1, 0xdd, 0xd3, 0x0a, 0x47, 0x00, 0x19, 0x11, 0xd9, 0x05, 0xc0, 0xfb,
  0xb6, 0x1e, 0xcc, 0x10, 0xe5, 0x12, 0x3f, 0x16, 0xf9, 0x92, 0x8e, 0x06,
  0xc7, 0xc7, 0xe2, 0xe6, 0x24, 0x06, 0xc1, 0x38, 0x03, 0x96, 0x22, 0x81,
  0xd7, 0x3b, 0x36, 0xe5, 0x3e, 0xd3, 0x1f, 0xb4, 0x04, 0xb3, 0xbc, 0xcf,
  0x36, 0xfe, 0xc9, 0x43, 0xfc, 0x41, 0x1b, 0xee, 0x1e, 0x8b, 0x24, 0x81,
  0xf9, 0x34, 0x9a, 0xe4, 0x03, 0x23, 0xc5, 0xec, 0x02, 0xc7, 0xfc, 0xc9,
  0xf7, 0x9d, 0xb6, 0x07, 0x13, 0xea, 0xde, 0x19, 0xd6, 0xa1, 0xd2, 0x43,
  0xd7, 0xd4, 0x1b, 0xeb, 0xdf, 0x2a, 0xfc, 0xe3, 0x1f, 0x27, 0xd2, 0x07,
  0x22, 0xef, 0xc4, 0x39, 0xc3, 0xaa, 0xfc, 0x0c, 0x82, 0x19, 0xfb, 0xc6,
  0x10, 0xc3, 0xa2, 0x42, 0x02, 0x4f, 0xd3, 0x4a, 0xc7, 0x18, 0x24, 0x1d,
  0xd9, 0x08, 0xfc, 0x2b, 0x21, 0x0b, 0x28, 0xf2, 0x0d, 0xe0, 0x0e, 0xd3,
  0x30, 0xe5, 0xf6, 0xc5, 0xe2, 0x36, 0xef, 0xfb, 0x1d, 0x0c, 0xdd, 0xe8,
  0xd7, 0xf2, 0xdb, 0xe0, 0xc6, 0x42, 0xe9, 0xde, 0xd0, 0x04, 0xe5, 0xe2,
  0xe2, 0x1c, 0x81, 0xe1, 0xff, 0x4f, 0xc3, 0x0b, 0x18, 0xe1, 0xe4, 0x10,
  0x0c, 0x17, 0x08, 0xfb, 0xae, 0x17, 0x2d, 0xcb, 0x11, 0xd2, 0xed, 0x02,
  0x29, 0x2f, 0xe4, 0xec, 0x06, 0xd3, 0xd0, 0xfb, 0x04, 0x04, 0x1c, 0xd3,
  0xdf, 0xcb, 0xf6, 0xa4, 0xf7, 0xed, 0xd4, 0x3b, 0x16, 0xd8, 0x16, 0x0b,
  0x90, 0x3c, 0xe4, 0x2d, 0xde, 0x14, 0xfe, 0x06, 0x1d, 0x04, 0xfd, 0xe9,
  0xfe, 0x81, 0x8b, 0x21, 0x06, 0xfb, 0xfc, 0xad, 0x02, 0xe1, 0xdd, 0xe2,
  0x09, 0xfe, 0xe1, 0xe7, 0xe5, 0x18, 0x18, 0xe5, 0x04, 0xce, 0xbc, 0xfe,
  0xf7, 0x18, 0xf6, 0xfc, 0x23, 0xec, 0x18, 0xd2, 0xe3, 0xae, 0xe2, 0xc4,
  0x0d, 0x1a, 0x25, 0xf5, 0xfa, 0xf7, 0x0c, 0xe4, 0xe8, 0x07, 0xd3, 0x0c,
  0x1e, 0xea, 0xf5, 0xf1, 0x2d, 0x09, 0xda, 0xe9, 0x20, 0x0d, 0xc8, 0x01,
  0xf8, 0x17, 0xc6, 0xa4, 0xe6, 0x4b, 0x16, 0x1c, 0xed, 0xfb, 0xfc, 0x16,
  0xf7, 0xf9, 0xdc, 0xe4, 0x05, 0x81, 0xc3, 0xd8, 0xa4, 0xf3, 0x1d, 0xed,
  0xfd, 0xd2, 0x04, 0xef, 0xe2, 0x0d, 0x17, 0x0b, 0x21, 0x0c, 0x0e, 0x40,
  0x01, 0x2d, 0x01, 0x0c, 0x4b, 0xd9, 0xf4, 0x41, 0x3c, 0x81, 0xdf, 0xd1,
  0x5e, 0x02, 0x18, 0xd9, 0x9f, 0x2c, 0xc0, 0xb5, 0xe8, 0xf0, 0x35, 0xaa,
  0x1c, 0x8d, 0x05, 0x58, 0xf2, 0x39, 0x52, 0xf9, 0xf0, 0xd8, 0xb7, 0xd1,
  0xed, 0xff, 0x11, 0x41, 0x09, 0xee, 0x15, 0x02, 0x0d, 0x35, 0xdf, 0xe8,
  0xf3, 0x3d, 0x22, 0x3a, 0xcb, 0x0c, 0xfe, 0x3a, 0xcf, 0x7f, 0x0e, 0xc6,
  0xa1, 0x0c, 0xf9, 0xab, 0x0a, 0xd7, 0xd8, 0x10, 0x24, 0xad, 0xc8, 0xc7,
  0x13, 0xec, 0xbf, 0xe4, 0x9e, 0x1c, 0x1a, 0xe8, 0x22, 0xff, 0xe4, 0xa1,
  0xef, 0xcb, 0x48, 0x45, 0x0f, 0x81, 0x11, 0xe2, 0x94, 0xfa, 0x05, 0xe0,
  0x12, 0x9e, 0x01, 0x58, 0xca, 0xb7, 0xc4, 0x1a, 0xed, 0x10, 0x2a, 0x2b,
  0xf2, 0x0c, 0x01, 0xfc, 0xf8, 0x16, 0x2a, 0xe5, 0xdc, 0x0a, 0xfd, 0xed,
  0xe6, 0xf3, 0xf9, 0x1b, 0x26, 0x04, 0x07, 0x23, 0xf1, 0xe8, 0x2b, 0x0e,
  0xea, 0x05, 0xc7, 0x30, 0xeb, 0x4a, 0x10, 0xe0, 0x20, 0xd2, 0x0d, 0xef,
  0xc4, 0x1f, 0x1e, 0x29, 0x19, 0xf8, 0xf4, 0xcd, 0x34, 0x81, 0xfb, 0xaf,
  0x09, 0x32, 0xe7, 0x11, 0xd6, 0x39, 0x98, 0x01, 0xd1, 0x32, 0x10, 0x15,
  0x09, 0x6c, 0xb1, 0xb6, 0xcb, 0x2f, 0xb2, 0xfe, 0xcb, 0xf7, 0x0b, 0xfb,
  0x19, 0x10, 0x2f, 0xb0, 0x2f, 0x14, 0x8a, 0xf3, 0x12, 0xb0, 0x28, 0xcc,
  0xe7, 0xba, 0x91, 0xfc, 0xf0, 0xf0, 0x14, 0x81, 0xfe, 0x95, 0xe3, 0xa5,
  0x0c, 0xfa, 0x02, 0x02, 0xf6, 0x43, 0xf2, 0x1c, 0x84, 0x09, 0xa2, 0xe9,
  0xd8, 0x24, 0x1c, 0xde, 0xfa, 0xd1, 0xb2, 0xff, 0xc9, 0x88, 0xbe, 0xb5,
  0x2b, 0xf4, 0xce, 0xd7, 0xe5, 0xc5, 0xeb, 0xa6, 0xef, 0x3a, 0x21, 0x0d,
  0x13, 0xf2, 0x65, 0xbf, 0x1d, 0xd7, 0x9c, 0xab, 0x01, 0xed, 0xfb, 0x03,
  0x18, 0x31, 0xef, 0xee, 0x7f, 0x19, 0xe3, 0xf9, 0x3d, 0xb6, 0xdd, 0x18,
  0xe2, 0xf1, 0x32, 0xea, 0xfd, 0xdf, 0xac, 0xcb, 0x20, 0xf4, 0xd6, 0xfe,
  0x2b, 0x32, 0x2d, 0x22, 0xeb, 0xd0, 0x0a, 0xb6, 0xcf, 0xe3, 0x8d, 0x1b,
  0xb7, 0xea, 0xdb, 0x32, 0xfd, 0x8f, 0xcf, 0xf5, 0x23, 0x3a, 0x3e, 0x37,
  0x14, 0x0d, 0xd6, 0xf6, 0x29, 0x0c, 0xee, 0x13, 0xa4, 0x2b, 0xa7, 0x14,
  0x01, 0x0d, 0xce, 0x1f, 0x32, 0xfa, 0xd2, 0xdb, 0x2a, 0xf7, 0xe1, 0xff,
  0x12, 0xd2, 0xfc, 0xf7, 0xa5, 0xbc, 0xbb, 0x15, 0xfd, 0x28, 0xe6, 0xf4,
  0x27, 0x15, 0xfe, 0xa4, 0x10, 0xda, 0xea, 0xe6, 0x08, 0x05, 0xe2, 0x04,
  0xf4, 0xf5, 0xd1, 0x17, 0xf2, 0x29, 0x15, 0xfd, 0xf2, 0xed, 0xf9, 0xe8,
  0x8b, 0x06, 0xb7, 0xc6, 0x0d, 0xfc, 0x81, 0xd0, 0xdb, 0xd2, 0x25, 0xd9,
  0x3c, 0xe2, 0xb7, 0xe4, 0xc6, 0xa1, 0x2c, 0xe9, 0xd9, 0x12, 0xce, 0xed,
  0xfb, 0xfb, 0xf4, 0xe8, 0x40, 0xac, 0xea, 0x25, 0x24, 0xee, 0x04, 0x00,
  0xa8, 0xf4, 0x0e, 0xfb, 0x2a, 0xef, 0xc1, 0xfb, 0x14, 0x2a, 0x2e, 0x2a,
  0xfb, 0xec, 0x16, 0xf2, 0x81, 0x1b, 0xd4, 0x20, 0x1d, 0xf7, 0xda, 0x30,
  0xb2, 0x87, 0xa4, 0x0a, 0xc7, 0xf8, 0x20, 0xea, 0xb9, 0x05, 0xb9, 0xea,
  0x0f, 0x2c, 0xf6, 0xbb, 0xd4, 0x2f, 0xda, 0x17, 0x1f, 0xd4, 0x20, 0x2d,
  0xff, 0xc7, 0xc1, 0x81, 0x32, 0x2d, 0xf2, 0x23, 0x9d, 0xdd, 0x06, 0x0e,
  0x0d, 0xbe, 0x00, 0x26, 0x26, 0x01, 0x14, 0x0b, 0x11, 0x17, 0xd1, 0x20,
  0x15, 0xdf, 0xed, 0xf0, 0x21, 0xfc, 0x2b, 0xd4, 0xcc, 0x0f, 0xba, 0x07,
  0x16, 0xcc, 0xe3, 0xfb, 0xda, 0x03, 0x1f, 0xf5, 0xcb, 0xcd, 0xfe, 0x17,
  0x9f, 0x01, 0x3a, 0xca, 0xf6, 0xe8, 0x08, 0xda, 0x33, 0x24, 0xbb, 0x02,
  0x37, 0x09, 0x05, 0xfe, 0x52, 0x2b, 0x03, 0x08, 0x1c, 0xd8, 0x15, 0x49,
  0xcd, 0x0c, 0x28, 0xb9, 0xdc, 0x10, 0x97, 0x1d, 0x3a, 0x1b, 0xd9, 0xf2,
  0xff, 0x49, 0xf2, 0xc6, 0xaf, 0xe2, 0xd5, 0xb0, 0x29, 0x27, 0x03, 0xf9,
  0xf8, 0x0c, 0xf2, 0x15, 0xc7, 0x28, 0xf8, 0x81, 0x1f, 0xec, 0x0d, 0x35,
  0xba, 0xf8, 0xc3, 0xf3, 0xdd, 0x03, 0xe9, 0xd8, 0x05, 0xa6, 0x2d, 0xe8,
  0x03, 0xdd, 0xe7, 0xce, 0xae, 0xdf, 0xde, 0xd2, 0x9f, 0xd0, 0x35, 0xbb,
  0x40, 0x1f, 0xe2, 0xf0, 0x53, 0xec, 0xf8, 0x1e, 0x21, 0xd1, 0xe2, 0x02,
  0x09, 0xf9, 0x01, 0xc0, 0x1e, 0xea, 0xc0, 0xf0, 0xbd, 0xc5, 0x29, 0xfe,
  0x0c, 0xa5, 0x2d, 0x8f, 0xe4, 0x6f, 0xec, 0xf9, 0xf3, 0x0f, 0x8a, 0x13,
  0x01, 0x81, 0x9b, 0xe5, 0xf6, 0x15, 0x2f, 0xef, 0xb7, 0x11, 0x04, 0xaf,
  0x2a, 0x15, 0xc7, 0x9e, 0xeb, 0x23, 0xcc, 0xe6, 0xb9, 0x29, 0xcc, 0x12,
  0x0f, 0xe0, 0xf7, 0xe1, 0x77, 0xe5, 0xf5, 0x33, 0x46, 0xf3, 0xe1, 0x21,
  0x03, 0xf9, 0x10, 0xc8, 0x02, 0xf1, 0x18, 0xca, 0x11, 0x04, 0xed, 0x45,
  0x07, 0xec, 0xce, 0x1e, 0x1d, 0xcb, 0x47, 0x81, 0x98, 0x23, 0x89, 0xe1,
  0xc1, 0xd6, 0xf0, 0x11, 0xef, 0x47, 0xf2, 0x4f, 0x0f, 0xf1, 0xc7, 0x0c,
  0x89, 0xfc, 0x08, 0x85, 0x2d, 0x1d, 0xd2, 0xca, 0xfd, 0x5a, 0x14, 0xe5,
  0x4b, 0xf9, 0x87, 0x61, 0x72, 0xe7, 0xff, 0xff, 0x04, 0x00, 0x00, 0x00,
  0x00, 0x01, 0x00, 0x00, 0xb3, 0xf4, 0xff, 0xff, 0xbe, 0x02, 0x00, 0x00,
  0x9c, 0xfc, 0xff, 0xff, 0x56, 0xf6, 0xff, 0xff, 0xb8, 0x09, 0x00, 0x00,
  0xc2, 0xfe, 0xff, 0xff, 0x04, 0x0b, 0x00, 0x00, 0x69, 0x02, 0x00, 0x00,
  0x4e, 0x07, 0x00, 0x00, 0xd2, 0xf6, 0xff, 0xff, 0xc7, 0x0e, 0x00, 0x00,
  0x2e, 0x12, 0x00, 0x00, 0x2a, 0x08, 0x00, 0x00, 0xee, 0x14, 0x00, 0x00,
  0xad, 0xeb, 0xff, 0xff, 0x0e, 0x0d, 0x00, 0x00, 0xde, 0x1a, 0x00, 0x00,
  0x87, 0x04, 0x00, 0x00, 0x6e, 0xfd, 0xff, 0xff, 0x70, 0x07, 0x00, 0x00,
  0xb7, 0x02, 0x00, 0x00, 0x8c, 0xe8, 0xff, 0xff, 0x71, 0xfe, 0xff, 0xff,
  0x05, 0x01, 0x00, 0x00, 0x31, 0xf5, 0xff, 0xff, 0xdc, 0xf5, 0xff, 0xff,
  0x97, 0x0e, 0x00, 0x00, 0x82, 0xf8, 0xff, 0xff, 0xbf, 0x03, 0x00, 0x00,
  0x7f, 0xf9, 0xff, 0xff, 0x60, 0x0b, 0x00, 0x00, 0x0a, 0xf9, 0xff, 0xff,
  0x4a, 0xf8, 0xff, 0xff, 0x5e, 0x11, 0x00, 0x00, 0x1f, 0x0a, 0x00, 0x00,
  0xb7, 0xe8, 0xff, 0xff, 0x7c, 0xf9, 0xff, 0xff, 0xa0, 0xff, 0xff, 0xff,
  0x6d, 0xd3, 0xff, 0xff, 0x00, 0x0b, 0x00, 0x00, 0x53, 0xff, 0xff, 0xff,
  0xc4, 0x17, 0x00, 0x00, 0xc1, 0xf4, 0xff, 0xff, 0x1f, 0x1a, 0x00, 0x00,
  0x4c, 0xd2, 0xff, 0xff, 0x02, 0x07, 0x00, 0x00, 0xed, 0xf0, 0xff, 0xff,
  0x9a, 0x06, 0x00, 0x00, 0xd9, 0x15, 0x00, 0x00, 0x94, 0x07, 0x00, 0x00,
  0xd7, 0x0c, 0x00, 0x00, 0xa7, 0x0f, 0x00, 0x00, 0xc7, 0x0e, 0x00, 0x00,
  0x65, 0xe5, 0xff, 0xff, 0x67, 0x11, 0x00, 0x00, 0x1e, 0xea, 0xff, 0xff,
  0x60, 0x25, 0x00, 0x00, 0x23, 0xeb, 0xff, 0xff, 0x6a, 0x12, 0x00, 0x00,
  0x61, 0x02, 0x00, 0x00, 0xd7, 0x08, 0x00, 0x00, 0xc2, 0x01, 0x00, 0x00,
  0xd7, 0x0c, 0x00, 0x00, 0xdd, 0xfb, 0xff, 0xff, 0x7e, 0xe8, 0xff, 0xff,
  0x04, 0x00, 0x00, 0x00, 0x00, 0x10, 0x00, 0x00, 0xc2, 0xd8, 0x37, 0xfb,
  0x0a, 0x0e, 0x49, 0x24, 0xf4, 0xd4, 0x28, 0x79, 0xf2, 0x17, 0xb8, 0xbc,
  0xc2, 0xf4, 0xe5, 0xf8, 0x49, 0xf8, 0x25, 0x6e, 0x81, 0x25, 0xcb, 0x2b,
  0xae, 0x38, 0x78, 0xf4, 0x22, 0xee, 0x09, 0x08, 0xd2, 0x20, 0x13, 0x17,
  0xa0, 0x63, 0x25, 0xcc, 0xf5, 0xbe, 0x18, 0xf4, 0x1a, 0x10, 0xd1, 0xca,
  0xfc, 0x10, 0xeb, 0xbf, 0xe4, 0x1f, 0xc0, 0x42, 0xfe, 0x16, 0x38, 0x09,
  0x20, 0x00, 0x77, 0x1d, 0x34, 0xe3, 0x2e, 0x2a, 0x0f, 0xd5, 0x4b, 0x43,
  0xe6, 0xcf, 0xe9, 0xa3, 0x0b, 0x05, 0xd5, 0xbd, 0xfe, 0x03, 0x51, 0x2e,
  0xcd, 0x0e, 0x2a, 0x22, 0xbd, 0xfc, 0x1e, 0x0a, 0xf9, 0xc7, 0x03, 0x07,
  0xe4, 0x19, 0x23, 0xde, 0xe7, 0x5b, 0x16, 0xca, 0xa4, 0xac, 0x3f, 0x2b,
  0x2c, 0xf1, 0x97, 0xf2, 0x15, 0x42, 0x2c, 0xc8, 0x19, 0x7f, 0xcf, 0x12,
  0x0e, 0x19, 0x2f, 0x11, 0x9f, 0xe6, 0xd5, 0xdd, 0x0b, 0x54, 0xcf, 0x45,
  0x4a, 0x97, 0xc8, 0xa4, 0x44, 0x02, 0x40, 0x54, 0xda, 0xec, 0x86, 0xcd,
  0xa9, 0x59, 0x16, 0xaa, 0xb7, 0xfd, 0xc1, 0x03, 0xcb, 0xa5, 0x04, 0xb0,
  0xf1, 0x36, 0x95, 0x52, 0x71, 0xbb, 0x76, 0x53, 0x1f, 0x3c, 0x8f, 0x13,
  0x33, 0xcc, 0xcf, 0x57, 0x18, 0xb9, 0xca, 0xd4, 0x81, 0x13, 0x19, 0x5c,
  0x66, 0x49, 0x17, 0x39, 0x7f, 0x4a, 0x2e, 0x15, 0x7f, 0x21, 0x3a, 0x04,
  0xf8, 0x41, 0x36, 0x05, 0xcf, 0xf6, 0x06, 0x28, 0xb8, 0x15, 0xf5, 0x17,
  0xe1, 0x1c, 0x93, 0xee, 0x1e, 0xd5, 0x10, 0x3c, 0x8e, 0x30, 0xe0, 0xe3,
  0x10, 0x2d, 0x42, 0xc3, 0x10, 0xae, 0x24, 0x10, 0xba, 0x3c, 0xc3, 0x06,
  0xf3, 0x0d, 0xf4, 0xd8, 0xb7, 0xe6, 0x22, 0xd0, 0xf7, 0xdc, 0x23, 0xfb,
  0xfd, 0x34, 0xc9, 0x9f, 0xbd, 0x1c, 0x91, 0xb3, 0xf6, 0x1c, 0xea, 0x00,
  0x65, 0xed, 0x34, 0xe2, 0x3d, 0xcd, 0x66, 0x11, 0xc3, 0x2c, 0x17, 0x5b,
  0xbb, 0xc1, 0x85, 0x24, 0x36, 0x46, 0x0b, 0xe4, 0xe7, 0x96, 0x04, 0x7d,
  0xe0, 0xbf, 0xe1, 0xc8, 0x0a, 0x04, 0x06, 0x4f, 0x1f, 0xbb, 0x50, 0xa6,
  0x81, 0x1f, 0x9c, 0x1b, 0xf1, 0xee, 0x2b, 0x42, 0xce, 0xd8, 0xfd, 0x3b,
  0x01, 0x36, 0x54, 0x32, 0x4b, 0x1f, 0x08, 0xb6, 0xaa, 0x51, 0xff, 0xaa,
  0xf2, 0x07, 0x15, 0x07, 0x35, 0xfe, 0x38, 0x3d, 0x10, 0x1d, 0x03, 0x30,
  0xe0, 0x18, 0xde, 0xee, 0x16, 0x0f, 0x1a, 0x29, 0x18, 0x18, 0xc8, 0xb9,
  0xf8, 0xb6, 0x48, 0x10, 0xf6, 0x24, 0xef, 0xe7, 0x24, 0x29, 0x1d, 0x0a,
  0x2e, 0xfd, 0xc9, 0xfa, 0x35, 0x4a, 0xd2, 0x03, 0x0a, 0xe1, 0x01, 0xf2,
  0x05, 0xc7, 0x0c, 0xeb, 0x3b, 0xf5, 0x32, 0xfc, 0xe3, 0x07, 0xcf, 0x81,
  0x19, 0xe5, 0x19, 0xc0, 0x1e, 0x5c, 0xd1, 0xef, 0x14, 0xf9, 0x27, 0xc5,
  0xeb, 0x54, 0x1d, 0xd8, 0xf5, 0x0a, 0x12, 0xfb, 0xc4, 0xfe, 0x30, 0xff,
  0x01, 0xe3, 0x03, 0xa9, 0x0a, 0x0a, 0x7f, 0x18, 0x1c, 0x0c, 0x21, 0xde,
  0x01, 0x23, 0x26, 0x10, 0xd3, 0x2b, 0xd5, 0x37, 0xb7, 0x49, 0x07, 0x34,
  0x13, 0x02, 0xd5, 0xd8, 0x0e, 0xc1, 0x37, 0x39, 0x26, 0xf5, 0xe4, 0xcb,
  0xd4, 0x3f, 0xe6, 0x04, 0xe0, 0x05, 0xdb, 0xd7, 0x22, 0xec, 0x09, 0x0a,
  0xb9, 0xde, 0x81, 0xc8, 0xed, 0x1a, 0xb6, 0xe8, 0x2f, 0xf9, 0x0c, 0xc8,
  0x2a, 0x24, 0x01, 0x3e, 0xe6, 0xbe, 0x0c, 0x70, 0x1f, 0x2d, 0xd2, 0xe3,
  0x3e, 0xc2, 0x04, 0xf1, 0xf8, 0xc0, 0xf4, 0x16, 0xef, 0x28, 0x08, 0xef,
  0x39, 0xc7, 0x21, 0x20, 0x02, 0xc7, 0xbb, 0x5d, 0x32, 0x3d, 0xdf, 0xbe,
  0xdf, 0x15, 0x0a, 0xa1, 0x14, 0xa1, 0xd4, 0x45, 0xeb, 0xd3, 0x34, 0x4a,
  0x15, 0x01, 0xe4, 0x28, 0xe2, 0xb6, 0xf7, 0xf0, 0x38, 0x14, 0xc7, 0x6b,
  0xde, 0x1d, 0xd2, 0x28, 0x7f, 0x04, 0x95, 0x1a, 0x10, 0xdc, 0x51, 0x4a,
  0x46, 0x06, 0x1c, 0x38, 0x20, 0x24, 0x0e, 0x10, 0xf0, 0x4e, 0xf9, 0x0e,
  0x0f, 0x5c, 0x17, 0xf9, 0x16, 0x48, 0xc0, 0x31, 0x30, 0xf9, 0xbb, 0x30,
  0x5b, 0xbf, 0xff, 0xaa, 0xd8, 0x19, 0x10, 0xa8, 0x3b, 0xfa, 0xdf, 0xee,
  0xb8, 0x90, 0x63, 0xe1, 0x38, 0x22, 0x45, 0x97, 0xae, 0x81, 0xe8, 0xb5,
  0x2c, 0xc3, 0xfc, 0x16, 0xb6, 0x1e, 0x10, 0x50, 0x19, 0xe3, 0xa2, 0xdc,
  0xeb, 0xca, 0x2e, 0x22, 0x52, 0x00, 0x3c, 0x69, 0xf7, 0x43, 0xcc, 0x28,
  0xa0, 0x15, 0x2f, 0x00, 0x21, 0xed, 0x34, 0xf0, 0xd3, 0xda, 0xe6, 0x46,
  0xf2, 0x44, 0xdf, 0x2a, 0x31, 0xf8, 0xc3, 0x20, 0xcf, 0x27, 0xca, 0xb9,
  0x38, 0xe4, 0x39, 0xb5, 0xdf, 0xdb, 0xd7, 0x73, 0x2b, 0xe2, 0x68, 0xf0,
  0x4f, 0x45, 0x18, 0x22, 0x27, 0xe9, 0xbf, 0xf6, 0x16, 0x4f, 0xaa, 0xf7,
  0x31, 0xde, 0xfb, 0x59, 0x0a, 0x6a, 0xe4, 0x37, 0x02, 0xe3, 0xee, 0xe1,
  0x1c, 0xd7, 0xcd, 0xc8, 0x43, 0xd5, 0xc8, 0x2e, 0x19, 0xe6, 0x2f, 0xe7,
  0x43, 0xff, 0x9c, 0x18, 0x3b, 0xa3, 0x17, 0x2a, 0x0b, 0x14, 0xaa, 0xbb,
  0xfc, 0x05, 0x7f, 0xfb, 0xf8, 0xff, 0xcf, 0xde, 0x06, 0xdb, 0x55, 0x99,
  0xf2, 0x30, 0xc0, 0xf8, 0x51, 0x3f, 0x0a, 0x07, 0xc3, 0x28, 0x03, 0xd5,
  0x09, 0xfe, 0xf7, 0xc5, 0xf1, 0xf6, 0x2e, 0x56, 0x0a, 0x28, 0xc2, 0xe5,
  0xdb, 0xeb, 0xe7, 0xc4, 0x11, 0x0b, 0x06, 0xd9, 0x22, 0xd0, 0x0b, 0x0d,
  0x02, 0xf3, 0xde, 0xf9, 0x40, 0xfe, 0x00, 0xe1, 0x21, 0xaf, 0xe4, 0xef,
  0xf3, 0x1d, 0x08, 0x06, 0x22, 0xc0, 0x37, 0x21, 0xa8, 0xff, 0xd8, 0xfc,
  0x12, 0x18, 0x2f, 0xc5, 0x16, 0x16, 0x81, 0x29, 0xdd, 0xcc, 0xee, 0xea,
  0xfe, 0xfc, 0x29, 0xfb, 0x99, 0x25, 0x13, 0xce, 0xee, 0xf9, 0xb9, 0x16,
  0x1b, 0x3a, 0xed, 0x2c, 0xf1, 0xf6, 0xb1, 0x26, 0x1d, 0xbd, 0x07, 0x15,
  0xf7, 0x14, 0xf2, 0x7f, 0x2a, 0x1d, 0xe5, 0x98, 0x15, 0x21, 0xd6, 0xea,
  0x2c, 0xe8, 0xfe, 0x0c, 0x48, 0xec, 0xfa, 0x09, 0x00, 0x07, 0x21, 0xf3,
  0x27, 0x14, 0x4d, 0x01, 0x2a, 0xc6, 0x4f, 0x05, 0x21, 0x03, 0x1e, 0x38,
  0xce, 0x25, 0xfc, 0x31, 0xe0, 0x31, 0xaf, 0x1d, 0x3f, 0x8e, 0xbf, 0x9d,
  0x20, 0xf2, 0x39, 0x1a, 0x04, 0xf3, 0xcb, 0xe5, 0xa2, 0x45, 0x47, 0x81,
  0xe6, 0xc4, 0x11, 0x17, 0xc1, 0xd7, 0xe9, 0xed, 0x2d, 0x40, 0xa4, 0x31,
  0x63, 0x19, 0x3c, 0x15, 0x41, 0x19, 0xd1, 0xfa, 0x1e, 0xfb, 0xe4, 0x29,
  0x34, 0xba, 0x02, 0xe5, 0xb5, 0xca, 0x0c, 0x18, 0x25, 0x19, 0x2c, 0x0d,
  0x32, 0x1b, 0x0c, 0xfb, 0x16, 0xf1, 0x43, 0x0c, 0xe2, 0x6e, 0x01, 0x13,
  0xf0, 0xf7, 0xe2, 0xb5, 0x1f, 0x04, 0x38, 0x11, 0xf9, 0xff, 0xb9, 0xe9,
  0xe0, 0x14, 0x7f, 0xd8, 0x0a, 0x0b, 0xde, 0x0a, 0xf4, 0xc8, 0x0d, 0xf9,
  0x0d, 0x4c, 0xa2, 0x42, 0x46, 0x30, 0xfd, 0x17, 0x4a, 0xff, 0xf8, 0xc9,
  0x14, 0xc0, 0x20, 0x02, 0x3d, 0xd7, 0x25, 0xda, 0xbd, 0xf0, 0xf1, 0xf3,
  0x0e, 0xfe, 0x27, 0xf3, 0x41, 0x29, 0xed, 0x06, 0x51, 0x32, 0x39, 0x28,
  0x06, 0x44, 0xd7, 0x28, 0x1f, 0x05, 0x90, 0x3a, 0x01, 0x0b, 0x1a, 0xf3,
  0xea, 0x29, 0xf3, 0xd4, 0x40, 0xe1, 0x3f, 0x22, 0x9e, 0x2a, 0xd5, 0x06,
  0x0e, 0x25, 0x40, 0x97, 0xf1, 0xd1, 0x35, 0x2f, 0xd0, 0x3f, 0xdb, 0x2a,
  0xd1, 0x16, 0x13, 0x14, 0x81, 0xe2, 0xd8, 0xd2, 0xe9, 0xe4, 0x35, 0xd3,
  0x01, 0x59, 0xcd, 0x9b, 0xac, 0x1e, 0xb2, 0xdd, 0xe1, 0x11, 0x19, 0xc0,
  0x20, 0xb7, 0x42, 0x04, 0xf7, 0x20, 0x2e, 0x0a, 0x18, 0x61, 0xdc, 0x23,
  0x9e, 0xd7, 0x1c, 0xe3, 0x0c, 0xd5, 0x4c, 0xe2, 0x38, 0xf5, 0x56, 0x22,
  0x04, 0x27, 0x3e, 0xb6, 0x10, 0x6e, 0x23, 0xe1, 0xa6, 0x2a, 0x0e, 0xee,
  0x81, 0x27, 0xce, 0x52, 0x23, 0xfc, 0x9f, 0x38, 0x12, 0xd7, 0x41, 0x1f,
  0x0b, 0xe6, 0x05, 0xd7, 0x31, 0x5c, 0xc5, 0x0f, 0xdb, 0xfa, 0xad, 0x85,
  0x3e, 0xb5, 0x34, 0x03, 0x35, 0xeb, 0x16, 0x45, 0xc7, 0x1c, 0x28, 0xca,
  0x07, 0x2d, 0x64, 0x00, 0xa2, 0x96, 0x0a, 0xe7, 0x44, 0x18, 0x11, 0x00,
  0xbe, 0x33, 0xcb, 0x1d, 0x02, 0xcb, 0x0a, 0xaf, 0xc8, 0xe2, 0xe6, 0xeb,
  0xdb, 0xdf, 0x36, 0xe0, 0xb6, 0x00, 0xfd, 0x03, 0x28, 0x0c, 0xf5, 0xf2,
  0xeb, 0x1b, 0xef, 0x52, 0xb7, 0x9f, 0x29, 0x0b, 0x0e, 0x6e, 0x4a, 0x40,
  0xc7, 0x7f, 0xc6, 0x1a, 0x0a, 0x94, 0xf8, 0x4a, 0x33, 0xfd, 0x15, 0xd4,
  0xc5, 0x33, 0xfe, 0xf7, 0x0f, 0xf9, 0xf5, 0xb1, 0xe9, 0x15, 0x60, 0x77,
  0xee, 0xed, 0xfe, 0xcd, 0xb4, 0x0f, 0x69, 0xf9, 0x1d, 0xf0, 0xf7, 0x0a,
  0xe9, 0xcc, 0x08, 0x31, 0x3a, 0x14, 0xa8, 0x57, 0x7d, 0xe7, 0x16, 0x08,
  0x30, 0xc3, 0xc4, 0xbb, 0x12, 0xc7, 0x2e, 0x3d, 0x7f, 0xb3, 0xde, 0x06,
  0xc1, 0xe4, 0xd9, 0xe0, 0x4a, 0x17, 0x02, 0xca, 0x3d, 0x29, 0x94, 0x1d,
  0x8a, 0xea, 0xb0, 0x03, 0xdc, 0xd1, 0x19, 0x41, 0xda, 0xa0, 0xe6, 0x11,
  0x58, 0x22, 0xef, 0x0d, 0xe0, 0xfb, 0xb0, 0x0f, 0xfc, 0x2c, 0xc5, 0x19,
  0xd9, 0x03, 0xbb, 0x5b, 0xdd, 0x19, 0x32, 0x07, 0x40, 0xdd, 0x05, 0xf0,
  0x4e, 0x17, 0x19, 0xd5, 0x9c, 0x18, 0x1f, 0xeb, 0x1a, 0xf3, 0xd5, 0x01,
  0x0f, 0x10, 0xcc, 0x05, 0xee, 0xcb, 0x37, 0xd2, 0x49, 0xfa, 0x12, 0x50,
  0xd3, 0x7f, 0x12, 0x12, 0xee, 0xc2, 0x21, 0x29, 0x21, 0xf4, 0x44, 0x23,
  0xc3, 0xe2, 0xec, 0x0d, 0x12, 0xf6, 0xc9, 0xef, 0xf6, 0x00, 0xbd, 0xd2,
  0xd7, 0xe6, 0x42, 0x11, 0xbf, 0xfc, 0xfc, 0x56, 0xbf, 0x3b, 0x01, 0x1f,
  0x7f, 0xfd, 0xdd, 0xce, 0x5b, 0x26, 0xfa, 0xf0, 0x09, 0x1e, 0x13, 0xc4,
  0xe3, 0xbd, 0x03, 0x27, 0x56, 0xd3, 0xf4, 0x30, 0xfa, 0x0b, 0x36, 0xc8,
  0x42, 0x1f, 0x31, 0x19, 0x12, 0x4e, 0x12, 0x1b, 0xf3, 0x02, 0x09, 0xaa,
  0x23, 0xa6, 0xf3, 0x09, 0xff, 0x05, 0x0b, 0x46, 0xd5, 0xf3, 0xb0, 0xf3,
  0xef, 0xed, 0x2d, 0x31, 0x41, 0xd5, 0x0a, 0x58, 0x32, 0x27, 0xde, 0x1b,
  0xe7, 0x08, 0x0c, 0xf8, 0xee, 0xc7, 0x4e, 0xcf, 0xd1, 0x9e, 0xcf, 0x12,
  0xc1, 0x26, 0x16, 0x3d, 0x04, 0x16, 0xdb, 0x0c, 0xc8, 0x41, 0xd7, 0xf0,
  0x07, 0xe8, 0x31, 0xd5, 0x81, 0x15, 0xcd, 0x47, 0xde, 0xd3, 0x20, 0xcd,
  0xdc, 0x30, 0xf2, 0xfd, 0x48, 0x93, 0xf7, 0x36, 0xf7, 0xe1, 0xea, 0x26,
  0x48, 0xd6, 0xc1, 0xef, 0x31, 0x06, 0xf2, 0x1a, 0xbd, 0x0e, 0xa4, 0x25,
  0xff, 0xed, 0xe3, 0x38, 0xec, 0xbd, 0xb9, 0x2f, 0xed, 0xcf, 0x3b, 0xec,
  0x5c, 0x81, 0x17, 0xbe, 0xd4, 0x3c, 0x22, 0x6d, 0xbe, 0x20, 0x9b, 0x12,
  0xf9, 0x2a, 0x08, 0x48, 0x35, 0x07, 0x65, 0xe6, 0xed, 0x15, 0x71, 0x32,
  0xb3, 0x42, 0xf2, 0xc6, 0x11, 0xbb, 0xd7, 0xa9, 0xba, 0x0d, 0xea, 0xbb,
  0xf5, 0x17, 0x13, 0xa7, 0xf7, 0x28, 0x09, 0x7f, 0xea, 0xf9, 0x10, 0x49,
  0x24, 0x13, 0xbe, 0xdd, 0x70, 0xeb, 0x1e, 0xe5, 0x06, 0xb2, 0x1e, 0x35,
  0x2f, 0x25, 0xf7, 0x0e, 0x24, 0xe5, 0xea, 0x2b, 0x0f, 0xae, 0xa3, 0x12,
  0x64, 0x13, 0x04, 0xe4, 0x0a, 0xf1, 0x35, 0xc4, 0xe8, 0xcf, 0xd0, 0x35,
  0xed, 0xc4, 0x3c, 0x03, 0x34, 0xc3, 0xb6, 0x1e, 0x0d, 0xeb, 0x0e, 0xef,
  0xf3, 0xf9, 0x49, 0xf5, 0xde, 0x27, 0x2e, 0x34, 0xd2, 0x13, 0xc8, 0x22,
  0xf8, 0x35, 0x2f, 0x28, 0x41, 0xe1, 0xef, 0x41, 0x12, 0xd7, 0xdf, 0xd7,
  0xfb, 0x17, 0x1e, 0x0e, 0xfe, 0x81, 0x42, 0xc1, 0xc2, 0x14, 0xd1, 0xfa,
  0xc1, 0xf4, 0x0f, 0x0f, 0xec, 0x03, 0xfb, 0x00, 0xe4, 0xf6, 0x19, 0xe7,
  0x0c, 0xf3, 0x0b, 0xfe, 0xba, 0x1e, 0xc7, 0x1b, 0xde, 0xd1, 0x1f, 0x0d,
  0x0d, 0x25, 0x0f, 0xf7, 0x2c, 0xfe, 0xa9, 0x00, 0x2f, 0x1d, 0xda, 0x0d,
  0xc5, 0xcc, 0x10, 0x11, 0x11, 0xdf, 0x3a, 0x01, 0x1a, 0x30, 0x12, 0xd7,
  0x03, 0x11, 0x14, 0xb5, 0xe2, 0xf3, 0xfc, 0xcf, 0x81, 0xf7, 0x26, 0x4b,
  0x08, 0xd6, 0x14, 0x23, 0x19, 0x0a, 0xcf, 0x37, 0xee, 0x0c, 0x00, 0x09,
  0xb4, 0xec, 0x00, 0x05, 0x2a, 0x11, 0xf9, 0x2d, 0xf2, 0x3a, 0xdd, 0xd6,
  0x08, 0xd2, 0x05, 0xf4, 0xd8, 0x03, 0x92, 0xf1, 0xdf, 0x35, 0xd5, 0x25,
  0x43, 0xd9, 0xd6, 0x81, 0x5a, 0x26, 0x1f, 0x01, 0xb9, 0xe4, 0xee, 0x01,
  0x02, 0x5b, 0xf9, 0xd1, 0xf3, 0xef, 0xcf, 0x24, 0xe6, 0xc9, 0x1e, 0xcf,
  0x10, 0x2c, 0xba, 0x03, 0x25, 0xf8, 0x35, 0x23, 0x01, 0x12, 0xd2, 0x0d,
  0x31, 0x17, 0xe3, 0x17, 0x09, 0xef, 0xfd, 0xbd, 0x9d, 0xaf, 0xd9, 0x32,
  0xf5, 0x24, 0x17, 0x32, 0x22, 0x1c, 0xf4, 0x19, 0xee, 0x24, 0x0a, 0xf8,
  0xd7, 0x92, 0xf9, 0xbc, 0x40, 0xbc, 0xfe, 0x06, 0x23, 0x1b, 0x01, 0x17,
  0xeb, 0xf1, 0xbb, 0xeb, 0xfc, 0x16, 0xe0, 0x03, 0x0c, 0x3e, 0xa0, 0x4f,
  0xb1, 0xaf, 0x02, 0xee, 0x15, 0x9b, 0x24, 0x18, 0x0f, 0x81, 0x66, 0xdc,
  0x97, 0x08, 0xfc, 0x2f, 0xfb, 0x1d, 0xf9, 0x48, 0xb7, 0x1d, 0xdd, 0x2d,
  0xe0, 0xee, 0x45, 0x6d, 0xed, 0x48, 0xb3, 0x3f, 0xb0, 0x37, 0xf6, 0x25,
  0x11, 0x25, 0x28, 0xda, 0xf7, 0xe7, 0x0e, 0x1f, 0x10, 0xe6, 0xfe, 0x33,
  0x1e, 0x07, 0xef, 0x0b, 0xf1, 0xf1, 0xa7, 0xfe, 0xfa, 0xb7, 0x10, 0x20,
  0xc5, 0x25, 0xb3, 0x3c, 0xda, 0xff, 0x29, 0xd7, 0x0c, 0xa2, 0x2f, 0x17,
  0xf4, 0x04, 0x17, 0xdc, 0xac, 0x30, 0x25, 0xe9, 0x94, 0x0f, 0xed, 0x03,
  0x19, 0x12, 0x05, 0x05, 0xd6, 0xe6, 0x1d, 0xd8, 0xe6, 0x4a, 0xc5, 0xfd,
  0x8b, 0x7f, 0xe8, 0x1e, 0x18, 0xd3, 0x25, 0x0d, 0x0a, 0xf2, 0x2e, 0x1c,
  0xb8, 0xf2, 0x00, 0xe8, 0xf4, 0x04, 0xfe, 0xf8, 0xfd, 0x0b, 0xf1, 0xd6,
  0xeb, 0xba, 0x34, 0x2b, 0xe2, 0x05, 0xff, 0x43, 0xe3, 0x39, 0x14, 0x40,
  0x34, 0xf7, 0xf1, 0xf9, 0xf7, 0x3f, 0xe2, 0x02, 0xdf, 0x08, 0x0c, 0xcd,
  0xf6, 0x81, 0x01, 0x2c, 0x4a, 0xd5, 0xd2, 0x0b, 0x0d, 0xf8, 0x14, 0xd4,
  0x56, 0x1d, 0x09, 0x01, 0x09, 0x5a, 0x17, 0x09, 0x81, 0xd1, 0xc3, 0x26,
  0x47, 0x0d, 0xb8, 0x39, 0x1e, 0x0b, 0xc8, 0x0f, 0x30, 0xd5, 0xef, 0xf3,
  0x16, 0xa3, 0x4f, 0x14, 0xec, 0x62, 0x09, 0xee, 0x0a, 0xed, 0x47, 0xfe,
  0xc0, 0x0e, 0xda, 0xe7, 0xc4, 0x5b, 0x13, 0xfb, 0x28, 0xd1, 0xfe, 0x1e,
  0x45, 0x25, 0xa8, 0x38, 0x2c, 0xf3, 0xe4, 0x02, 0xe9, 0xe2, 0xeb, 0xdc,
  0x41, 0xf6, 0xfe, 0x21, 0xca, 0xb9, 0xfc, 0xfc, 0x51, 0xdc, 0x51, 0x9a,
  0xee, 0xf1, 0x23, 0x1e, 0x28, 0x03, 0x22, 0x7f, 0xde, 0x44, 0x8b, 0xf0,
  0x34, 0xf1, 0xd9, 0xf8, 0x23, 0x18, 0x14, 0xff, 0x31, 0xd1, 0x25, 0x1c,
  0xea, 0x1c, 0xe1, 0x1c, 0x00, 0x5e, 0xfe, 0x14, 0xfe, 0x24, 0xf3, 0xe7,
  0xfb, 0x2c, 0xd6, 0x39, 0x11, 0xf9, 0xe5, 0x22, 0x15, 0xd4, 0xd9, 0xbd,
  0x01, 0xfb, 0x27, 0xd2, 0x35, 0x35, 0xdc, 0xcb, 0xe9, 0xcc, 0x48, 0xbb,
  0x21, 0x3d, 0x0f, 0xe1, 0x40, 0x28, 0x52, 0x28, 0xeb, 0xfb, 0x13, 0xc3,
  0x26, 0xd4, 0x14, 0xf7, 0xc7, 0xcd, 0x06, 0x09, 0x2a, 0x03, 0xa6, 0xdc,
  0xa7, 0x4c, 0x14, 0xf5, 0xb1, 0xdd, 0x06, 0x01, 0xb9, 0xd4, 0xec, 0x07,
  0xf0, 0xb8, 0x01, 0x0c, 0xe8, 0xde, 0x18, 0xdd, 0x15, 0x06, 0x03, 0xd3,
  0xdf, 0xf8, 0x11, 0x4e, 0xf8, 0xd7, 0x12, 0x36, 0xe1, 0x37, 0x40, 0x48,
  0xf0, 0x7f, 0xeb, 0x14, 0xe1, 0xe4, 0xf5, 0x6e, 0xa3, 0x89, 0xcf, 0x90,
  0xf3, 0xdc, 0x05, 0xbf, 0xe9, 0x23, 0x55, 0xd6, 0xa1, 0x07, 0xd1, 0x0a,
  0x45, 0xd3, 0x73, 0x23, 0x03, 0x2d, 0xc1, 0x0b, 0x57, 0x97, 0x23, 0x03,
  0x99, 0xe9, 0xdc, 0x31, 0x0a, 0xf0, 0x0f, 0xec, 0xbe, 0xf2, 0x13, 0x0a,
  0x06, 0x18, 0xf3, 0x2c, 0x26, 0x05, 0x0e, 0x42, 0xba, 0xec, 0xcc, 0xda,
  0x1f, 0x2c, 0x7f, 0x50, 0xd6, 0x33, 0xf7, 0x6c, 0x33, 0xa2, 0x61, 0x3f,
  0x50, 0x4e, 0x26, 0xe7, 0xe0, 0x0d, 0x07, 0xab, 0x0e, 0x45, 0xfd, 0xd2,
  0xd8, 0xe9, 0x29, 0x34, 0x3d, 0x2a, 0x1c, 0xee, 0xec, 0x06, 0xfc, 0xdf,
  0x3e, 0x01, 0x3f, 0x81, 0x01, 0xea, 0xf9, 0x08, 0xd1, 0xd2, 0x0c, 0x19,
  0xd5, 0xf5, 0xee, 0x08, 0x50, 0xc3, 0xc2, 0x35, 0xfe, 0x16, 0x26, 0x28,
  0x13, 0xe0, 0x2e, 0x09, 0xfd, 0x09, 0xab, 0x19, 0xe5, 0x27, 0xfc, 0x99,
  0x09, 0xd8, 0xae, 0x09, 0x3a, 0xe9, 0x1d, 0xdf, 0xe8, 0x49, 0x1c, 0xbe,
  0xfd, 0x27, 0x0a, 0xfd, 0x81, 0xe5, 0xfb, 0x13, 0x0a, 0x15, 0x23, 0x0a,
  0x26, 0x13, 0x05, 0x0c, 0x32, 0xad, 0x26, 0xa3, 0x0e, 0x13, 0x11, 0xfc,
  0xd2, 0x29, 0xe3, 0xee, 0xb8, 0x3b, 0xe2, 0x35, 0x22, 0xcb, 0xce, 0x09,
  0x27, 0xff, 0x1e, 0xfc, 0xee, 0xe7, 0x2e, 0xda, 0x03, 0x2e, 0xdd, 0x0f,
  0xc2, 0xe4, 0x01, 0xb0, 0x29, 0x90, 0x0d, 0x22, 0xb7, 0xc0, 0x9b, 0xd1,
  0x48, 0xcc, 0xaf, 0x42, 0x06, 0x0e, 0xc9, 0x24, 0x54, 0x17, 0xe8, 0x26,
  0xcc, 0xba, 0x0e, 0x5a, 0x6a, 0x17, 0x22, 0x2b, 0xf3, 0xfd, 0xbb, 0x0d,
  0x33, 0x24, 0x19, 0x01, 0x08, 0x2b, 0x51, 0xdf, 0x20, 0xc3, 0xe0, 0x59,
  0xf2, 0x02, 0x9f, 0x33, 0x31, 0x06, 0xd6, 0x81, 0xe8, 0x0e, 0xe7, 0x95,
  0x2d, 0xa7, 0xb8, 0xc8, 0xd9, 0x98, 0x21, 0x0b, 0x33, 0x14, 0x1c, 0xbb,
  0x2d, 0x55, 0x29, 0x17, 0xe9, 0xe6, 0x17, 0x20, 0xe7, 0xf8, 0xc4, 0xd5,
  0x06, 0xf5, 0xf6, 0x25, 0x3a, 0x4c, 0x89, 0xe5, 0x91, 0xe4, 0xf1, 0xdf,
  0xa9, 0xcb, 0xeb, 0x0b, 0xfa, 0xe7, 0xd0, 0x13, 0x25, 0xb9, 0x18, 0xd6,
  0x3d, 0x12, 0xee, 0xb2, 0x25, 0x09, 0x49, 0x03, 0xd4, 0xf7, 0xb6, 0x2d,
  0x49, 0x03, 0x29, 0x57, 0xcb, 0x21, 0x2f, 0x81, 0x5f, 0x03, 0x37, 0xee,
  0xcd, 0x55, 0xc6, 0x27, 0x48, 0x28, 0x33, 0xf2, 0xea, 0x2b, 0xb0, 0xe5,
  0x69, 0xc7, 0x0e, 0xe9, 0xfe, 0x19, 0x2e, 0xfb, 0xd8, 0x00, 0x9b, 0xcc,
  0x54, 0x13, 0x1f, 0xf4, 0xd9, 0x78, 0xf7, 0xb3, 0xde, 0xe8, 0x2f, 0x90,
  0xcc, 0x06, 0x44, 0x35, 0xe5, 0xed, 0x36, 0x18, 0xd0, 0x0c, 0xae, 0x2e,
  0xe5, 0x07, 0x2d, 0x0b, 0xc8, 0xfa, 0x26, 0xed, 0xaf, 0xdd, 0x91, 0x1f,
  0x98, 0x53, 0xa1, 0xd8, 0xd8, 0xee, 0x81, 0x1d, 0x0a, 0x4f, 0xec, 0xc1,
  0x11, 0xd6, 0xd2, 0x31, 0xe2, 0xfd, 0xac, 0x06, 0x68, 0x2b, 0x04, 0x4a,
  0xd8, 0x3e, 0xf2, 0x43, 0x23, 0xc8, 0x98, 0x27, 0x36, 0x01, 0xb3, 0xe9,
  0x64, 0xeb, 0xdd, 0x0c, 0x0e, 0xf1, 0x58, 0xf0, 0x4e, 0xbb, 0xb5, 0x09,
  0xc8, 0xe1, 0x28, 0x56, 0xf7, 0x34, 0xaa, 0xc7, 0xd0, 0x55, 0x2d, 0xf2,
  0x2d, 0xb3, 0xcc, 0xd4, 0xec, 0xf3, 0x30, 0xb8, 0xd6, 0x40, 0x81, 0xc7,
  0xd1, 0x04, 0x01, 0xd8, 0x3f, 0x92, 0xe5, 0x20, 0x18, 0xf9, 0x1b, 0x24,
  0x2a, 0xad, 0xb4, 0xec, 0x12, 0x0b, 0x12, 0x28, 0x1f, 0x06, 0xce, 0x35,
  0x09, 0x11, 0xe4, 0x0d, 0xda, 0xdb, 0xdb, 0x0a, 0xec, 0xd6, 0x69, 0x07,
  0x05, 0x81, 0x09, 0xc7, 0xd1, 0x40, 0x0f, 0x47, 0xc5, 0x0e, 0xb4, 0x11,
  0xc5, 0x4b, 0xf2, 0x1e, 0x38, 0x01, 0x51, 0x3c, 0xcf, 0x1d, 0x1a, 0x56,
  0xde, 0x28, 0x21, 0xd2, 0x43, 0x3e, 0x25, 0xea, 0xc8, 0x40, 0xa3, 0xb3,
  0xf3, 0x34, 0xe6, 0xc8, 0x03, 0xc8, 0x3f, 0x61, 0x0e, 0x30, 0x1c, 0x38,
  0xd7, 0x17, 0xa3, 0x9d, 0x3f, 0xc5, 0x22, 0xd9, 0x2b, 0xe4, 0xc6, 0x11,
  0xfc, 0x25, 0x0a, 0x13, 0x43, 0xe9, 0xdf, 0x44, 0x44, 0x98, 0xc6, 0x2d,
  0x32, 0x22, 0xd4, 0xe5, 0xea, 0xce, 0x7f, 0xda, 0xed, 0x25, 0xd9, 0x06,
  0x0a, 0x03, 0x38, 0xb0, 0x37, 0xfe, 0xd8, 0x1e, 0x97, 0xe7, 0x81, 0xf2,
  0xc6, 0xd0, 0x29, 0x1c, 0xe4, 0xd0, 0xf2, 0xe0, 0x28, 0x2c, 0xee, 0x2e,
  0xf9, 0x39, 0xfb, 0x2b, 0xe6, 0xfe, 0x8b, 0x17, 0x18, 0xf7, 0xbe, 0x38,
  0x0b, 0xcd, 0x2a, 0x23, 0x3d, 0xf7, 0xf2, 0xb3, 0x54, 0x03, 0xef, 0xca,
  0xae, 0x07, 0x0e, 0xe3, 0x3a, 0xff, 0xd2, 0xd5, 0x02, 0x19, 0x08, 0x05,
  0xe6, 0xb8, 0x3d, 0x2d, 0x36, 0xf1, 0x36, 0x40, 0xfa, 0x26, 0xfe, 0x15,
  0x08, 0x55, 0x20, 0x03, 0x6e, 0xe0, 0xdc, 0x52, 0x0d, 0x12, 0x81, 0x0a,
  0x4e, 0xf1, 0xed, 0x18, 0x22, 0xeb, 0x01, 0x0c, 0xfe, 0x13, 0xf5, 0x01,
  0xe6, 0xea, 0xed, 0xd3, 0x0e, 0xd5, 0xf4, 0xe9, 0xe2, 0x0d, 0x24, 0x0e,
  0x45, 0xc3, 0x14, 0x1a, 0x14, 0x1b, 0xf9, 0x3b, 0xbd, 0xf7, 0xaf, 0xd9,
  0xd2, 0x23, 0x29, 0x29, 0x40, 0xe2, 0xba, 0xe1, 0x07, 0x0b, 0x38, 0xa0,
  0xfe, 0x2f, 0xd7, 0xa4, 0x0b, 0xca, 0x06, 0xe1, 0xfd, 0x22, 0xfe, 0xf2,
  0xbf, 0x2a, 0x12, 0xd2, 0xf8, 0x17, 0xf2, 0x5d, 0x10, 0x17, 0xf2, 0x2f,
  0xf7, 0xf6, 0xcd, 0xd3, 0x7f, 0xcb, 0x21, 0xe1, 0x15, 0xed, 0xe0, 0x31,
  0x25, 0x22, 0xf6, 0xeb, 0x18, 0x21, 0xdf, 0x1d, 0x26, 0x96, 0xd7, 0xfa,
  0x38, 0xe2, 0x0d, 0x00, 0x11, 0xfb, 0x44, 0xf3, 0xfa, 0x0c, 0xef, 0x3b,
  0x0f, 0xc5, 0x4f, 0xb9, 0x2d, 0xec, 0xd7, 0x0d, 0x3a, 0x44, 0x0f, 0x14,
  0x0e, 0x0d, 0xcf, 0x32, 0xeb, 0x05, 0xa7, 0x07, 0x12, 0x0c, 0x26, 0x18,
  0xec, 0x0a, 0x81, 0xfe, 0xf8, 0xb2, 0x13, 0xc9, 0xd8, 0x0f, 0xc1, 0x20,
  0x2a, 0xed, 0x16, 0xc5, 0x05, 0xfb, 0x03, 0x1a, 0x0e, 0x22, 0xf1, 0xf0,
  0xf3, 0xf4, 0x16, 0xef, 0xbe, 0x0d, 0xcd, 0xec, 0x2a, 0xf0, 0x1c, 0xf8,
  0xd2, 0x09, 0x9c, 0xbf, 0x14, 0x1c, 0x0b, 0xcc, 0xe2, 0x4c, 0xba, 0xd8,
  0x45, 0x95, 0xe8, 0xf6, 0x98, 0x7f, 0x53, 0xad, 0xd0, 0x49, 0x27, 0xcc,
  0x8b, 0x16, 0xed, 0x2f, 0x0f, 0xf6, 0x06, 0x09, 0x2a, 0xee, 0xbb, 0xfd,
  0x5b, 0xdf, 0x07, 0xbb, 0x0e, 0x0b, 0x35, 0xf0, 0x02, 0xfb, 0xee, 0xca,
  0x82, 0x61, 0xb2, 0x0a, 0x15, 0xbb, 0xdf, 0xdc, 0x2e, 0xd7, 0x3f, 0xe4,
  0xda, 0xe2, 0x28, 0xbe, 0x33, 0x22, 0xde, 0x22, 0xc6, 0xc6, 0xd9, 0xab,
  0x66, 0x95, 0x2c, 0x20, 0x10, 0xf1, 0xfa, 0xb6, 0x81, 0x33, 0x3d, 0x8b,
  0xe7, 0x09, 0x37, 0x9c, 0x8e, 0x21, 0x07, 0x08, 0xf9, 0x0b, 0x0e, 0xf0,
  0xef, 0x00, 0x12, 0x11, 0x54, 0xeb, 0xfe, 0xeb, 0x04, 0xec, 0x3f, 0x1a,
  0x33, 0xea, 0xd0, 0xe6, 0xc5, 0x1d, 0x0f, 0x11, 0xc4, 0xc5, 0xf8, 0x9b,
  0x29, 0xd4, 0x22, 0x4f, 0x18, 0xda, 0xe6, 0xec, 0xc4, 0xe9, 0x1d, 0x09,
  0xf8, 0x20, 0x0e, 0x30, 0x1d, 0x13, 0x00, 0x5c, 0x22, 0xad, 0x05, 0xe0,
  0x81, 0x19, 0x1b, 0x8f, 0xb9, 0xf1, 0x50, 0xde, 0xa6, 0xe5, 0xfa, 0x0a,
  0x29, 0xe4, 0xf1, 0xc1, 0xcb, 0x2c, 0x3d, 0xf8, 0x2c, 0xe2, 0x30, 0x29,
  0xb2, 0xb6, 0x1f, 0x10, 0x14, 0xf1, 0xbc, 0xf9, 0xd6, 0x23, 0x15, 0x06,
  0x03, 0xfb, 0xe7, 0x9e, 0x19, 0xca, 0x4b, 0x77, 0x22, 0xd1, 0xd2, 0xfd,
  0xcf, 0x51, 0x62, 0x50, 0x25, 0x4d, 0xb2, 0x54, 0x36, 0xc0, 0x3f, 0x44,
  0xb2, 0xc9, 0xba, 0xfd, 0xd7, 0x11, 0xc1, 0xff, 0x03, 0xdf, 0xfb, 0xfe,
  0x2a, 0x0b, 0x0c, 0x10, 0xc3, 0x81, 0x15, 0xd8, 0x1f, 0x1e, 0x17, 0xfd,
  0x02, 0x10, 0x10, 0x08, 0xe7, 0xed, 0x34, 0xd0, 0xec, 0x0d, 0xe4, 0x04,
  0xfb, 0xe7, 0x22, 0x22, 0x29, 0x2e, 0xb6, 0xfb, 0x2a, 0x10, 0x00, 0x08,
  0xce, 0xdb, 0xea, 0xd1, 0xf8, 0xe7, 0x15, 0x1c, 0xe5, 0x0c, 0xed, 0x51,
  0x2b, 0xf4, 0x21, 0xff, 0x1c, 0x2c, 0xf9, 0xab, 0x06, 0xf8, 0xc0, 0xe3,
  0x45, 0x0e, 0xfe, 0xf1, 0x11, 0x0c, 0x0d, 0x1d, 0x04, 0xd3, 0x13, 0x0e,
  0x05, 0x1a, 0xc4, 0xf6, 0x3b, 0x0d, 0x00, 0xe9, 0x03, 0xea, 0x18, 0xde,
  0xb7, 0x07, 0x34, 0x23, 0xe2, 0xb6, 0x05, 0x30, 0xdb, 0x03, 0xe9, 0x4e,
  0x03, 0x28, 0xf9, 0xe0, 0x81, 0x20, 0x04, 0xdd, 0x23, 0xe4, 0xbf, 0x4c,
  0x83, 0x29, 0x22, 0xf3, 0x04, 0xce, 0xc7, 0xe6, 0x73, 0x02, 0x4e, 0xf3,
  0xff, 0xb2, 0x7f, 0xfd, 0xe0, 0x5a, 0x01, 0x3d, 0x9c, 0xba, 0x88, 0xf5,
  0x6b, 0x3d, 0xe9, 0xeb, 0xf3, 0xa3, 0x10, 0x74, 0xf6, 0xb0, 0xe1, 0xa7,
  0x03, 0x51, 0x01, 0x70, 0x30, 0xa2, 0x55, 0x8c, 0x9d, 0x0e, 0xa3, 0xff,
  0xfe, 0xdc, 0x19, 0x05, 0xd9, 0xfa, 0x1d, 0x44, 0x01, 0x2b, 0x5a, 0x1a,
  0x74, 0x24, 0x21, 0xbd, 0xd9, 0x3a, 0xdf, 0x0a, 0xbc, 0x11, 0x36, 0xfa,
  0xa7, 0xd9, 0x9c, 0xc8, 0xf5, 0x2e, 0xdc, 0x05, 0x3e, 0x9f, 0xea, 0xa3,
  0x24, 0x1a, 0x1f, 0xf8, 0xb0, 0x91, 0xb9, 0x02, 0x2b, 0x61, 0x07, 0xdc,
  0xe7, 0xcd, 0xd9, 0x1e, 0xe0, 0xa0, 0x31, 0xee, 0xd9, 0x3b, 0xcc, 0x23,
  0x24, 0xe8, 0x40, 0x3c, 0xfe, 0x46, 0x81, 0xc6, 0x51, 0x0d, 0xf0, 0x5d,
  0x19, 0xd3, 0xed, 0xa8, 0x96, 0xce, 0x04, 0x38, 0xf9, 0x14, 0x1d, 0x6b,
  0x54, 0x35, 0x30, 0x0c, 0x5e, 0x26, 0x17, 0xf3, 0x8f, 0x4a, 0x21, 0x91,
  0x0b, 0xb4, 0x58, 0xf5, 0xa7, 0x0e, 0x15, 0x36, 0x06, 0x28, 0x89, 0x0c,
  0x07, 0x1d, 0xea, 0xf8, 0xee, 0xe8, 0xe4, 0xf5, 0xe5, 0xb1, 0x4a, 0xdd,
  0x13, 0x81, 0xff, 0xe1, 0xe5, 0x0e, 0xf8, 0x00, 0xf0, 0x12, 0xe1, 0xb2,
  0xf2, 0x03, 0x30, 0x19, 0x28, 0xe9, 0x16, 0xe2, 0xb9, 0xf2, 0x0f, 0x13,
  0xc7, 0x59, 0x89, 0x01, 0x03, 0x12, 0x03, 0x4e, 0x81, 0xb1, 0xbc, 0xba,
  0xe1, 0xb6, 0xfd, 0xfc, 0xff, 0xfd, 0x2c, 0xdd, 0x31, 0xe8, 0xd9, 0x0b,
  0x31, 0xbe, 0x24, 0x28, 0x9b, 0x7b, 0xb5, 0x09, 0x21, 0xbc, 0x05, 0x58,
  0xa3, 0x92, 0xc1, 0x0c, 0x1c, 0x19, 0x16, 0xed, 0x10, 0x8d, 0x3d, 0xff,
  0xf2, 0x30, 0xeb, 0x5c, 0x32, 0x15, 0xd5, 0x40, 0x99, 0x0c, 0xc8, 0xeb,
  0x3d, 0x33, 0x6a, 0x69, 0xfa, 0x0a, 0x3a, 0x75, 0x0d, 0xd6, 0x25, 0x0a,
  0x42, 0x1c, 0x3c, 0x08, 0x50, 0xff, 0x22, 0x1b, 0x13, 0x3a, 0xc2, 0x48,
  0xf9, 0xd5, 0xe3, 0xff, 0x25, 0x03, 0x14, 0xfe, 0x29, 0xea, 0x42, 0x1f,
  0xfe, 0x4c, 0xf2, 0xaf, 0x17, 0x5c, 0x0f, 0x05, 0xb7, 0xe5, 0x3a, 0x1c,
  0xdb, 0x13, 0xdb, 0x18, 0x11, 0xfe, 0xdc, 0x2b, 0xcb, 0xe2, 0xf6, 0x02,
  0xeb, 0xfd, 0x0f, 0x16, 0x1d, 0x2f, 0xbe, 0xd0, 0xdd, 0xfc, 0xe8, 0x81,
  0xf9, 0xdf, 0x04, 0xd0, 0x1e, 0x7a, 0x3d, 0xfa, 0x1c, 0x1d, 0xb3, 0xe5,
  0x60, 0x95, 0xcd, 0x2d, 0xfb, 0x0f, 0x46, 0xfb, 0xc6, 0xdb, 0xd2, 0xbb,
  0x07, 0x42, 0x6d, 0xa6, 0xb6, 0x4b, 0x0e, 0xdb, 0xd5, 0xab, 0x59, 0x81,
  0xae, 0xee, 0x16, 0x72, 0x0e, 0xc9, 0x45, 0x24, 0x13, 0x46, 0xb5, 0x09,
  0xd4, 0x1b, 0x2c, 0x2e, 0xae, 0xec, 0xdd, 0xfc, 0x0b, 0xda, 0x9f, 0x1f,
  0xe9, 0x6a, 0xae, 0xf3, 0x01, 0xf6, 0xdc, 0xd4, 0xdc, 0xbb, 0x1f, 0x2f,
  0x3c, 0x06, 0x1f, 0x7f, 0xe8, 0x4a, 0x91, 0x06, 0x21, 0xfc, 0xce, 0xce,
  0x1d, 0x0f, 0x59, 0x14, 0x31, 0xc6, 0x50, 0xf5, 0x0e, 0x17, 0xd8, 0x26,
  0x20, 0x66, 0x04, 0x0c, 0xff, 0x3e, 0x0a, 0x06, 0xf5, 0x69, 0xb3, 0x58,
  0xfd, 0xfc, 0xda, 0x12, 0x16, 0xd1, 0xf5, 0xe8, 0xe3, 0xef, 0x0a, 0x9f,
  0x50, 0x37, 0xc1, 0xcf, 0xee, 0xac, 0x74, 0xcc, 0x23, 0x14, 0x3c, 0xb8,
  0xae, 0xc1, 0x0a, 0xf4, 0x16, 0xc6, 0x1b, 0x12, 0xd2, 0xf7, 0x30, 0x1a,
  0x0d, 0xfa, 0xd9, 0xc9, 0xcc, 0xdc, 0x33, 0xfd, 0x64, 0xce, 0x13, 0x50,
  0xe0, 0x24, 0xdf, 0x54, 0xbd, 0x55, 0x4c, 0x1c, 0x22, 0xc7, 0x15, 0xe4,
  0xeb, 0x11, 0x07, 0x17, 0x81, 0x38, 0xff, 0xe7, 0xf7, 0xc9, 0x1e, 0x0f,
  0x23, 0x04, 0xd1, 0xd4, 0x1b, 0xd9, 0x1b, 0xd9, 0x02, 0xfd, 0xef, 0x55,
  0xe0, 0x12, 0x41, 0x00, 0xea, 0xe4, 0x0f, 0x0f, 0xfc, 0x2b, 0xdc, 0x4c,
  0xe0, 0xd4, 0x9b, 0xc8, 0x4c, 0x3b, 0xfe, 0x1d, 0xb2, 0x22, 0xce, 0x05,
  0x28, 0xfd, 0x32, 0x04, 0xb4, 0x31, 0x9b, 0x14, 0x08, 0x06, 0x5f, 0xcf,
  0x3f, 0x2f, 0xca, 0xdd, 0x33, 0x34, 0xe0, 0x02, 0xe3, 0x1b, 0x15, 0xed,
  0x0f, 0xdc, 0xf0, 0x81, 0x49, 0xe7, 0x11, 0xe5, 0xd0, 0xb7, 0xcb, 0x8e,
  0x33, 0xc4, 0x32, 0x24, 0xf1, 0x47, 0x26, 0x05, 0x35, 0x2b, 0x5b, 0x34,
  0x3e, 0xd2, 0x2f, 0x52, 0xde, 0xef, 0x00, 0x4a, 0xee, 0xe6, 0xd3, 0xc2,
  0x1a, 0x01, 0xc0, 0xb8, 0xf1, 0xe6, 0x23, 0x4d, 0x81, 0x4c, 0x01, 0x29,
  0xd7, 0x13, 0x0c, 0x0b, 0xf4, 0xa9, 0x38, 0x08, 0xf7, 0x15, 0xdd, 0xd5,
  0x09, 0x54, 0x25, 0xe4, 0xa1, 0xce, 0x08, 0x15, 0x45, 0x1a, 0xe0, 0x14,
  0xfb, 0x2d, 0x2a, 0x82, 0x1c, 0x5a, 0xc1, 0xe4, 0xfa, 0x25, 0xf9, 0x00,
  0xfe, 0xbd, 0x0c, 0xf6, 0xdf, 0x13, 0x57, 0xe2, 0xe2, 0x0a, 0x4f, 0xfd,
  0xd5, 0xfc, 0x18, 0xf3, 0x05, 0xca, 0xf0, 0x96, 0xf7, 0x18, 0x61, 0x30,
  0xfb, 0x0e, 0x11, 0x00, 0xc0, 0x15, 0x1d, 0x1b, 0x1f, 0x1f, 0xc1, 0x20,
  0xbc, 0x58, 0xfb, 0x1c, 0x0f, 0x04, 0xe6, 0xd7, 0xee, 0xbb, 0x46, 0x7c,
  0x16, 0xb2, 0xc6, 0xde, 0x09, 0x7f, 0x37, 0x33, 0xf5, 0x2e, 0x9e, 0x4d,
  0x11, 0xd0, 0x48, 0x15, 0xfd, 0xc5, 0xe9, 0x05, 0xe1, 0xed, 0x34, 0xf2,
  0xb2, 0x10, 0x16, 0x98, 0x0b, 0x00, 0xdc, 0x3f, 0x1f, 0x26, 0xdf, 0x0b,
  0xd1, 0xfc, 0xd4, 0x00, 0x1a, 0xaf, 0xef, 0x02, 0xda, 0x08, 0xf3, 0x7f,
  0x49, 0xfd, 0xf0, 0xa0, 0x26, 0x2d, 0xd5, 0x05, 0x07, 0xf4, 0xfa, 0x17,
  0x15, 0xd0, 0xec, 0x1f, 0x29, 0x0f, 0x18, 0x19, 0x34, 0x0c, 0x51, 0xa7,
  0x2e, 0xf0, 0x43, 0x35, 0x20, 0x0f, 0x00, 0x2b, 0xea, 0xd5, 0x04, 0xb7,
  0x15, 0x14, 0x1a, 0xe2, 0x05, 0x22, 0x03, 0x45, 0xef, 0xf2, 0x07, 0xe5,
  0xf6, 0xd7, 0x2a, 0x1d, 0x7f, 0x34, 0x43, 0x3d, 0x21, 0x17, 0x17, 0xb0,
  0xf6, 0x4f, 0x48, 0xdb, 0xaf, 0x17, 0x29, 0x20, 0x9a, 0x40, 0xc1, 0x3c,
  0xf1, 0x08, 0xcc, 0x00, 0x3f, 0x10, 0x30, 0xcf, 0x08, 0x00, 0xdd, 0xa9,
  0x21, 0xee, 0xb9, 0xd8, 0xe2, 0xc5, 0xb4, 0xf9, 0x22, 0xb9, 0x49, 0xc9,
  0x8a, 0xf8, 0xff, 0xff, 0x04, 0x00, 0x00, 0x00, 0x00, 0x01, 0x00, 0x00,
  0x67, 0x03, 0x00, 0x00, 0x7c, 0xf4, 0xff, 0xff, 0xa8, 0xf6, 0xff, 0xff,
  0x36, 0x1d, 0x00, 0x00, 0xc7, 0xf3, 0xff, 0xff, 0xb3, 0xeb, 0xff, 0xff,
  0x4f, 0xec, 0xff, 0xff, 0x06, 0x0e, 0x00, 0x00, 0x66, 0xda, 0xff, 0xff,
  0x2b, 0x0e, 0x00, 0x00, 0x07, 0xf7, 0xff, 0xff, 0x88, 0x0d, 0x00, 0x00,
  0x64, 0xf4, 0xff, 0xff, 0x6a, 0x09, 0x00, 0x00, 0x90, 0xf1, 0xff, 0xff,
  0x94, 0xfd, 0xff, 0xff, 0x75, 0xe8, 0xff, 0xff, 0x87, 0x12, 0x00, 0x00,
  0x31, 0xf6, 0xff, 0xff, 0x19, 0x18, 0x00, 0x00, 0xf3, 0xfd, 0xff, 0xff,
  0x24, 0x2a, 0x00, 0x00, 0x26, 0x0c, 0x00, 0x00, 0x06, 0x0e, 0x00, 0x00,
  0x06, 0x15, 0x00, 0x00, 0x7c, 0xf6, 0xff, 0xff, 0x46, 0x19, 0x00, 0x00,
  0xd1, 0x1b, 0x00, 0x00, 0x7e, 0x11, 0x00, 0x00, 0x76, 0xfc, 0xff, 0xff,
  0x8b, 0x06, 0x00, 0x00, 0x64, 0xe5, 0xff, 0xff, 0x45, 0x0c, 0x00, 0x00,
  0xdf, 0xfe, 0xff, 0xff, 0xeb, 0xf7, 0xff, 0xff, 0xed, 0xfe, 0xff, 0xff,
  0x50, 0x14, 0x00, 0x00, 0x5f, 0x09, 0x00, 0x00, 0x6a, 0x27, 0x00, 0x00,
  0xa6, 0x11, 0x00, 0x00, 0x2b, 0x04, 0x00, 0x00, 0xaa, 0xf3, 0xff, 0xff,
  0x44, 0x11, 0x00, 0x00, 0x47, 0xef, 0xff, 0xff, 0x4a, 0xee, 0xff, 0xff,
  0xbf, 0x1d, 0x00, 0x00, 0x9d, 0x0f, 0x00, 0x00, 0x96, 0x20, 0x00, 0x00,
  0xb8, 0x0f, 0x00, 0x00, 0xf4, 0x18, 0x00, 0x00, 0x20, 0x0f, 0x00, 0x00,
  0x21, 0xf2, 0xff, 0xff, 0xe4, 0x1b, 0x00, 0x00, 0x10, 0x19, 0x00, 0x00,
  0xf9, 0x0d, 0x00, 0x00, 0xf0, 0xea, 0xff, 0xff, 0x40, 0x0e, 0x00, 0x00,
  0xbf, 0xe5, 0xff, 0xff, 0x7b, 0x14, 0x00, 0x00, 0x59, 0x10, 0x00, 0x00,
  0x16, 0xff, 0xff, 0xff, 0xbc, 0xf8, 0xff, 0xff, 0x76, 0xf7, 0xff, 0xff,
  0x16, 0xfb, 0xff, 0xff, 0x96, 0xf9, 0xff, 0xff, 0x04, 0x00, 0x00, 0x00,
  0x00, 0x02, 0x00, 0x00, 0x2b, 0x34, 0xc6, 0x1a, 0x3c, 0xb2, 0xd1, 0x8f,
  0x81, 0x22, 0xc6, 0xd0, 0x1c, 0x8f, 0xa2, 0xd4, 0x9e, 0x33, 0xe4, 0x51,
  0x36, 0x2d, 0x2f, 0xae, 0x29, 0x91, 0xa2, 0x36, 0x32, 0x2d, 0xcf, 0xb7,
  0x2e, 0x27, 0xde, 0xa9, 0xbb, 0x15, 0xa4, 0xdb, 0x34, 0xac, 0x23, 0x9a,
  0xca, 0x98, 0xf0, 0x21, 0x3e, 0xe9, 0xab, 0x23, 0xde, 0x1c, 0x44, 0xd6,
  0xb5, 0xb1, 0x2f, 0xd6, 0x3b, 0x07, 0x29, 0x93, 0xac, 0xa2, 0x98, 0xc6,
  0x4b, 0xc5, 0xe4, 0x1a, 0x2f, 0x2c, 0x28, 0xc7, 0x1f, 0x9e, 0xbe, 0xf1,
  0xfc, 0x24, 0x96, 0xce, 0xd6, 0x2f, 0x26, 0x15, 0x2c, 0x1b, 0xb0, 0xa5,
  0x81, 0xbe, 0x2c, 0x2a, 0xc5, 0x2c, 0x1d, 0x11, 0x42, 0xc3, 0xbf, 0x26,
  0x38, 0x1d, 0xe1, 0x22, 0x1a, 0x96, 0x37, 0xc0, 0xd7, 0x0e, 0x35, 0x27,
  0xaf, 0x8b, 0x39, 0x33, 0xae, 0x1a, 0xf8, 0xb4, 0xed, 0xc8, 0x1b, 0x1d,
  0x95, 0xd5, 0x36, 0xb4, 0x00, 0x1b, 0xf0, 0x19, 0x1a, 0xd0, 0x28, 0x12,
  0x18, 0x05, 0x1f, 0xc9, 0xab, 0xc4, 0x2f, 0x28, 0x2e, 0xa4, 0x27, 0x14,
  0x81, 0xa2, 0x1a, 0xce, 0xd0, 0x1d, 0x22, 0x20, 0xd7, 0xdd, 0xf5, 0xad,
  0x29, 0x23, 0xb8, 0x21, 0xf8, 0x1d, 0x23, 0x20, 0x1b, 0x20, 0xd7, 0xe3,
  0xdb, 0xfd, 0xe4, 0xe6, 0x22, 0x9b, 0x26, 0xe1, 0xdb, 0x10, 0xda, 0x16,
  0xfc, 0xae, 0x27, 0xa7, 0x1f, 0x26, 0x29, 0x25, 0xd2, 0x1a, 0x2b, 0xaa,
  0x23, 0x1e, 0x95, 0x9a, 0x82, 0x08, 0x1d, 0x33, 0x01, 0xde, 0x2b, 0x23,
  0x2f, 0xe4, 0xcc, 0x81, 0xbf, 0x04, 0x1b, 0xdc, 0xeb, 0x24, 0x25, 0x1e,
  0xe6, 0x94, 0xce, 0xc4, 0x1f, 0xcd, 0x03, 0x9a, 0xc7, 0x9a, 0x95, 0x10,
  0x9a, 0x11, 0xd5, 0xbe, 0x0d, 0x21, 0xcd, 0xb4, 0x29, 0xb8, 0xd9, 0x22,
  0x23, 0x0f, 0x15, 0x16, 0x32, 0xfe, 0xa0, 0x0f, 0xe4, 0x21, 0xba, 0x3d,
  0x47, 0xe4, 0xb3, 0xc7, 0x81, 0xbe, 0x29, 0x18, 0xc0, 0xbc, 0xa6, 0x47,
  0xcf, 0x35, 0xcc, 0xdb, 0xcd, 0x29, 0x29, 0xb7, 0x24, 0x1c, 0xa8, 0x37,
  0x2e, 0xba, 0xb2, 0xd1, 0x30, 0xac, 0x2f, 0xe5, 0xe7, 0x18, 0x2e, 0x29,
  0x2f, 0x1c, 0xb6, 0x2b, 0xc6, 0x35, 0xac, 0xb7, 0xd6, 0xae, 0x2f, 0x24,
  0xb8, 0x25, 0xc8, 0x31, 0x3c, 0xa0, 0x8c, 0xc3, 0x41, 0xa1, 0xc4, 0xb4,
  0xac, 0x15, 0x43, 0xc2, 0xbb, 0xcb, 0x3a, 0x1f, 0xf7, 0xa6, 0xdc, 0x0f,
  0xfa, 0x0c, 0x22, 0xb8, 0xf6, 0x32, 0x39, 0xca, 0xe7, 0x88, 0xa0, 0x19,
  0x99, 0x20, 0x28, 0x40, 0x9c, 0xcd, 0x25, 0xbe, 0x2c, 0x2a, 0x24, 0x14,
  0xca, 0xa7, 0x2c, 0x97, 0xc8, 0x1d, 0xc4, 0xae, 0x16, 0xb7, 0x2d, 0x21,
  0x3d, 0x26, 0x20, 0xca, 0x35, 0x24, 0x44, 0xe0, 0x3b, 0xd6, 0x81, 0x95,
  0xc8, 0x07, 0xf2, 0xfd, 0x24, 0xab, 0xf2, 0x1c, 0xbc, 0xb1, 0xa3, 0x1d,
  0xdf, 0x14, 0xc4, 0xde, 0xa0, 0xa1, 0x84, 0x13, 0x84, 0x8e, 0xb2, 0x24,
  0x81, 0x17, 0xad, 0x21, 0x20, 0xbd, 0x21, 0x1e, 0x1a, 0xc0, 0xaa, 0xa7,
  0x99, 0xc3, 0x8e, 0xe2, 0x22, 0x96, 0x1c, 0x1e, 0xe2, 0xb1, 0x1f, 0xbb,
  0xc9, 0x18, 0x22, 0x2c, 0xcb, 0x14, 0x1c, 0xa5, 0x20, 0x1e, 0xcf, 0xa6,
  0x12, 0x92, 0x23, 0x23, 0xb1, 0x95, 0xb2, 0x1a, 0x27, 0x52, 0x0e, 0x5f,
  0x6e, 0x3b, 0x5b, 0x8d, 0x00, 0xc3, 0x21, 0x1d, 0x2e, 0xf5, 0x2e, 0x5d,
  0xf0, 0x50, 0x65, 0xe6, 0x52, 0xb2, 0xab, 0x18, 0x47, 0xaf, 0xb5, 0x92,
  0xf0, 0x44, 0xed, 0x37, 0x41, 0x20, 0x43, 0x15, 0x98, 0x16, 0xfa, 0x9d,
  0xa0, 0x27, 0xb5, 0xa7, 0x2c, 0x1c, 0x5d, 0x42, 0x5c, 0x85, 0x81, 0x3f,
  0xc2, 0x30, 0xe8, 0x3b, 0x0f, 0x18, 0x0f, 0xeb, 0x62, 0x04, 0x3d, 0xf9,
  0xa2, 0xfb, 0xff, 0xff, 0x04, 0x00, 0x00, 0x00, 0x20, 0x00, 0x00, 0x00,
  0x11, 0xfe, 0xff, 0xff, 0x1f, 0x00, 0x00, 0x00, 0xa7, 0x00, 0x00, 0x00,
  0x88, 0x05, 0x00, 0x00, 0xd5, 0x05, 0x00, 0x00, 0x09, 0xf8, 0xff, 0xff,
  0x64, 0x05, 0x00, 0x00, 0xc7, 0xfa, 0xff, 0xff, 0xce, 0xfb, 0xff, 0xff,
  0x04, 0x00, 0x00, 0x00, 0x08, 0x00, 0x00, 0x00, 0x01, 0x00, 0x00, 0x00,
  0x02, 0x00, 0x00, 0x00, 0xa8, 0xc9, 0xff, 0xff, 0xe6, 0xfb, 0xff, 0xff,
  0x04, 0x00, 0x00, 0x00, 0x04, 0x00, 0x00, 0x00, 0x0d, 0x00, 0x00, 0x00,
  0xf6, 0xfb, 0xff, 0xff, 0x04, 0x00, 0x00, 0x00, 0x04, 0x00, 0x00, 0x00,
  0x31, 0x00, 0x00, 0x00, 0x06, 0xfc, 0xff, 0xff, 0x04, 0x00, 0x00, 0x00,
  0x04, 0x00, 0x00, 0x00, 0x01, 0x00, 0x00, 0x00, 0x16, 0xfc, 0xff, 0xff,
  0x04, 0x00, 0x00, 0x00, 0x04, 0x00, 0x00, 0x00, 0x00, 0x00, 0x00, 0x00,
  0xec, 0xc9, 0xff, 0xff, 0xf0, 0xc9, 0xff, 0xff, 0x0f, 0x00, 0x00, 0x00,
  0x4d, 0x4c, 0x49, 0x52, 0x20, 0x43, 0x6f, 0x6e, 0x76, 0x65, 0x72, 0x74,
  0x65, 0x64, 0x2e, 0x00, 0x01, 0x00, 0x00, 0x00, 0x14, 0x00, 0x00, 0x00,
  0x00, 0x00, 0x0e, 0x00, 0x18, 0x00, 0x14, 0x00, 0x10, 0x00, 0x0c, 0x00,
  0x08, 0x00, 0x04, 0x00, 0x0e, 0x00, 0x00, 0x00, 0x14, 0x00, 0x00, 0x00,
  0x1c, 0x00, 0x00, 0x00, 0x80, 0x04, 0x00, 0x00, 0x84, 0x04, 0x00, 0x00,
  0x88, 0x04, 0x00, 0x00, 0x04, 0x00, 0x00, 0x00, 0x6d, 0x61, 0x69, 0x6e,
  0x00, 0x00, 0x00, 0x00, 0x11, 0x00, 0x00, 0x00, 0x48, 0x04, 0x00, 0x00,
  0x00, 0x04, 0x00, 0x00, 0xa0, 0x03, 0x00, 0x00, 0x58, 0x03, 0x00, 0x00,
  0x30, 0x03, 0x00, 0x00, 0xd4, 0x02, 0x00, 0x00, 0x70, 0x02, 0x00, 0x00,
  0x18, 0x02, 0x00, 0x00, 0xd4, 0x01, 0x00, 0x00, 0x90, 0x01, 0x00, 0x00,
  0x48, 0x01, 0x00, 0x00, 0x04, 0x01, 0x00, 0x00, 0xd0, 0x00, 0x00, 0x00,
  0x94, 0x00, 0x00, 0x00, 0x5c, 0x00, 0x00, 0x00, 0x28, 0x00, 0x00, 0x00,
  0x04, 0x00, 0x00, 0x00, 0x0e, 0xfd, 0xff, 0xff, 0x0c, 0x00, 0x00, 0x00,
  0x10, 0x00, 0x00, 0x00, 0x0b, 0x00, 0x00, 0x00, 0x01, 0x00, 0x00, 0x00,
  0x25, 0x00, 0x00, 0x00, 0x01, 0x00, 0x00, 0x00, 0x24, 0x00, 0x00, 0x00,
  0x8a, 0xfd, 0xff, 0xff, 0x14, 0x00, 0x00, 0x00, 0x00, 0x00, 0x00, 0x09,
  0x14, 0x00, 0x00, 0x00, 0x18, 0x00, 0x00, 0x00, 0x0a, 0x00, 0x00, 0x00,
  0xfe, 0xfc, 0xff, 0xff, 0x00, 0x00, 0x80, 0x3f, 0x01, 0x00, 0x00, 0x00,
  0x24, 0x00, 0x00, 0x00, 0x01, 0x00, 0x00, 0x00, 0x23, 0x00, 0x00, 0x00,
  0xba, 0xfd, 0xff, 0xff, 0x14, 0x00, 0x00, 0x00, 0x00, 0x00, 0x00, 0x08,
  0x10, 0x00, 0x00, 0x00, 0x14, 0x00, 0x00, 0x00, 0x09, 0x00, 0x00, 0x00,
  0xf4, 0xca, 0xff, 0xff, 0x01, 0x00, 0x00, 0x00, 0x23, 0x00, 0x00, 0x00,
  0x03, 0x00, 0x00, 0x00, 0x22, 0x00, 0x00, 0x00, 0x08, 0x00, 0x00, 0x00,
  0x07, 0x00, 0x00, 0x00, 0xee, 0xfd, 0xff, 0xff, 0x14, 0x00, 0x00, 0x00,
  0x00, 0x00, 0x00, 0x08, 0x14, 0x00, 0x00, 0x00, 0x18, 0x00, 0x00, 0x00,
  0x09, 0x00, 0x00, 0x00, 0xc2, 0xfc, 0xff, 0xff, 0x00, 0x00, 0x00, 0x01,
  0x01, 0x00, 0x00, 0x00, 0x22, 0x00, 0x00, 0x00, 0x03, 0x00, 0x00, 0x00,
  0x21, 0x00, 0x00, 0x00, 0x0a, 0x00, 0x00, 0x00, 0x09, 0x00, 0x00, 0x00,
  0x26, 0xfe, 0xff, 0xff, 0x14, 0x00, 0x00, 0x00, 0x00, 0x00, 0x00, 0x1b,
  0x10, 0x00, 0x00, 0x00, 0x14, 0x00, 0x00, 0x00, 0x08, 0x00, 0x00, 0x00,
  0x60, 0xcb, 0xff, 0xff, 0x01, 0x00, 0x00, 0x00, 0x21, 0x00, 0x00, 0x00,
  0x02, 0x00, 0x00, 0x00, 0x20, 0x00, 0x00, 0x00, 0x06, 0x00, 0x00, 0x00,
  0x56, 0xfe, 0xff, 0xff, 0x14, 0x00, 0x00, 0x00, 0x00, 0x00, 0x00, 0x01,
  0x1c, 0x00, 0x00, 0x00, 0x20, 0x00, 0x00, 0x00, 0x05, 0x00, 0x00, 0x00,
  0x48, 0xfe, 0xff, 0xff, 0x00, 0x00, 0x00, 0x01, 0x01, 0x00, 0x00, 0x00,
  0x01, 0x00, 0x00, 0x00, 0x01, 0x00, 0x00, 0x00, 0x20, 0x00, 0x00, 0x00,
  0x03, 0x00, 0x00, 0x00, 0x1f, 0x00, 0x00, 0x00, 0x0c, 0x00, 0x00, 0x00,
  0x0b, 0x00, 0x00, 0x00, 0x96, 0xfe, 0xff, 0xff, 0x14, 0x00, 0x00, 0x00,
  0x00, 0x00, 0x00, 0x02, 0x20, 0x00, 0x00, 0x00, 0x24, 0x00, 0x00, 0x00,
  0x07, 0x00, 0x00, 0x00, 0x3a, 0xff, 0xff, 0xff, 0x00, 0x00, 0x00, 0x01,
  0x01, 0x00, 0x00, 0x00, 0x01, 0x00, 0x00, 0x00, 0x01, 0x00, 0x00, 0x00,
  0x01, 0x00, 0x00, 0x00, 0x1f, 0x00, 0x00, 0x00, 0x03, 0x00, 0x00, 0x00,
  0x1e, 0x00, 0x00, 0x00, 0x0e, 0x00, 0x00, 0x00, 0x0d, 0x00, 0x00, 0x00,
  0xda, 0xfe, 0xff, 0xff, 0x14, 0x00, 0x00, 0x00, 0x00, 0x00, 0x00, 0x05,
  0x24, 0x00, 0x00, 0x00, 0x28, 0x00, 0x00, 0x00, 0x06, 0x00, 0x00, 0x00,
  0x2a, 0xff, 0xff, 0xff, 0x02, 0x00, 0x00, 0x00, 0x02, 0x00, 0x00, 0x00,
  0x02, 0x00, 0x00, 0x00, 0x02, 0x00, 0x00, 0x00, 0x00, 0x00, 0x00, 0x01,
  0x01, 0x00, 0x00, 0x00, 0x1e, 0x00, 0x00, 0x00, 0x01, 0x00, 0x00, 0x00,
  0x1d, 0x00, 0x00, 0x00, 0x1a, 0xff, 0xff, 0xff, 0x14, 0x00, 0x00, 0x00,
  0x00, 0x00, 0x00, 0x01, 0x1c, 0x00, 0x00, 0x00, 0x20, 0x00, 0x00, 0x00,
  0x05, 0x00, 0x00, 0x00, 0x0c, 0xff, 0xff, 0xff, 0x00, 0x00, 0x00, 0x01,
  0x01, 0x00, 0x00, 0x00, 0x01, 0x00, 0x00, 0x00, 0x01, 0x00, 0x00, 0x00,
  0x1d, 0x00, 0x00, 0x00, 0x03, 0x00, 0x00, 0x00, 0x1c, 0x00, 0x00, 0x00,
  0x10, 0x00, 0x00, 0x00, 0x0f, 0x00, 0x00, 0x00, 0x3e, 0xfe, 0xff, 0xff,
  0x24, 0x00, 0x00, 0x00, 0x00, 0x00, 0x00, 0x02, 0x30, 0x00, 0x00, 0x00,
  0x34, 0x00, 0x00, 0x00, 0x07, 0x00, 0x00, 0x00, 0x00, 0x00, 0x0e, 0x00,
  0x14, 0x00, 0x00, 0x00, 0x10, 0x00, 0x0c, 0x00, 0x08, 0x00, 0x07, 0x00,
  0x0e, 0x00, 0x00, 0x00, 0x00, 0x00, 0x00, 0x01, 0x01, 0x00, 0x00, 0x00,
  0x01, 0x00, 0x00, 0x00, 0x01, 0x00, 0x00, 0x00, 0x01, 0x00, 0x00, 0x00,
  0x1c, 0x00, 0x00, 0x00, 0x03, 0x00, 0x00, 0x00, 0x1b, 0x00, 0x00, 0x00,
  0x12, 0x00, 0x00, 0x00, 0x11, 0x00, 0x00, 0x00, 0x92, 0xfe, 0xff, 0xff,
  0x24, 0x00, 0x00, 0x00, 0x00, 0x00, 0x00, 0x05, 0x34, 0x00, 0x00, 0x00,
  0x38, 0x00, 0x00, 0x00, 0x06, 0x00, 0x00, 0x00, 0x00, 0x00, 0x0e, 0x00,
  0x18, 0x00, 0x17, 0x00, 0x10, 0x00, 0x0c, 0x00, 0x08, 0x00, 0x04, 0x00,
  0x0e, 0x00, 0x00, 0x00, 0x02, 0x00, 0x00, 0x00, 0x02, 0x00, 0x00, 0x00,
  0x02, 0x00, 0x00, 0x00, 0x02, 0x00, 0x00, 0x00, 0x00, 0x00, 0x00, 0x01,
  0x01, 0x00, 0x00, 0x00, 0x1b, 0x00, 0x00, 0x00, 0x01, 0x00, 0x00, 0x00,
  0x1a, 0x00, 0x00, 0x00, 0x00, 0x00, 0x0e, 0x00, 0x18, 0x00, 0x14, 0x00,
  0x10, 0x00, 0x0c, 0x00, 0x0b, 0x00, 0x04, 0x00, 0x0e, 0x00, 0x00, 0x00,
  0x20, 0x00, 0x00, 0x00, 0x00, 0x00, 0x00, 0x01, 0x28, 0x00, 0x00, 0x00,
  0x2c, 0x00, 0x00, 0x00, 0x05, 0x00, 0x00, 0x00, 0x0c, 0x00, 0x10, 0x00,
  0x00, 0x00, 0x0c, 0x00, 0x08, 0x00, 0x07, 0x00, 0x0c, 0x00, 0x00, 0x00,
  0x00, 0x00, 0x00, 0x01, 0x01, 0x00, 0x00, 0x00, 0x01, 0x00, 0x00, 0x00,
  0x01, 0x00, 0x00, 0x00, 0x1a, 0x00, 0x00, 0x00, 0x03, 0x00, 0x00, 0x00,
  0x19, 0x00, 0x00, 0x00, 0x14, 0x00, 0x00, 0x00, 0x13, 0x00, 0x00, 0x00,
  0x00, 0x00, 0x0a, 0x00, 0x10, 0x00, 0x0c, 0x00, 0x08, 0x00, 0x04, 0x00,
  0x0a, 0x00, 0x00, 0x00, 0x0c, 0x00, 0x00, 0x00, 0x10, 0x00, 0x00, 0x00,
  0x04, 0x00, 0x00, 0x00, 0x01, 0x00, 0x00, 0x00, 0x19, 0x00, 0x00, 0x00,
  0x02, 0x00, 0x00, 0x00, 0x15, 0x00, 0x00, 0x00, 0x18, 0x00, 0x00, 0x00,
  0x6e, 0xff, 0xff, 0xff, 0x1c, 0x00, 0x00, 0x00, 0x00, 0x00, 0x00, 0x3b,
  0x1c, 0x00, 0x00, 0x00, 0x20, 0x00, 0x00, 0x00, 0x03, 0x00, 0x00, 0x00,
  0x00, 0x00, 0x06, 0x00, 0x08, 0x00, 0x04, 0x00, 0x06, 0x00, 0x00, 0x00,
  0x04, 0x00, 0x00, 0x00, 0x01, 0x00, 0x00, 0x00, 0x18, 0x00, 0x00, 0x00,
  0x04, 0x00, 0x00, 0x00, 0x17, 0x00, 0x00, 0x00, 0x03, 0x00, 0x00, 0x00,
  0x04, 0x00, 0x00, 0x00, 0x05, 0x00, 0x00, 0x00, 0xb2, 0xff, 0xff, 0xff,
  0x24, 0x00, 0x00, 0x00, 0x00, 0x00, 0x00, 0x20, 0x24, 0x00, 0x00, 0x00,
  0x28, 0x00, 0x00, 0x00, 0x02, 0x00, 0x00, 0x00, 0x00, 0x00, 0x0e, 0x00,
  0x08, 0x00, 0x00, 0x00, 0x00, 0x00, 0x00, 0x00, 0x00, 0x00, 0x04, 0x00,
  0x0e, 0x00, 0x00, 0x00, 0x01, 0x00, 0x00, 0x00, 0x01, 0x00, 0x00, 0x00,
  0x17, 0x00, 0x00, 0x00, 0x04, 0x00, 0x00, 0x00, 0x16, 0x00, 0x00, 0x00,
  0x01, 0x00, 0x00, 0x00, 0x02, 0x00, 0x00, 0x00, 0x02, 0x00, 0x00, 0x00,
  0x00, 0x00, 0x0e, 0x00, 0x1a, 0x00, 0x14, 0x00, 0x10, 0x00, 0x0c, 0x00,
  0x0b, 0x00, 0x04, 0x00, 0x0e, 0x00, 0x00, 0x00, 0x1c, 0x00, 0x00, 0x00,
  0x00, 0x00, 0x00, 0x37, 0x1c, 0x00, 0x00, 0x00, 0x20, 0x00, 0x00, 0x00,
  0x01, 0x00, 0x00, 0x00, 0x00, 0x00, 0x06, 0x00, 0x08, 0x00, 0x07, 0x00,
  0x06, 0x00, 0x00, 0x00, 0x00, 0x00, 0x00, 0x02, 0x01, 0x00, 0x00, 0x00,
  0x16, 0x00, 0x00, 0x00, 0x01, 0x00, 0x00, 0x00, 0x15, 0x00, 0x00, 0x00,
  0x00, 0x00, 0x0a, 0x00, 0x0c, 0x00, 0x00, 0x00, 0x08, 0x00, 0x04, 0x00,
  0x0a, 0x00, 0x00, 0x00, 0x08, 0x00, 0x00, 0x00, 0x0c, 0x00, 0x00, 0x00,
  0x01, 0x00, 0x00, 0x00, 0x15, 0x00, 0x00, 0x00, 0x01, 0x00, 0x00, 0x00,
  0x00, 0x00, 0x00, 0x00, 0x01, 0x00, 0x00, 0x00, 0x25, 0x00, 0x00, 0x00,
  0x01, 0x00, 0x00, 0x00, 0x00, 0x00, 0x00, 0x00, 0x26, 0x00, 0x00, 0x00,
  0x14, 0x31, 0x00, 0x00, 0xbc, 0x30, 0x00, 0x00, 0x64, 0x30, 0x00, 0x00,
  0x28, 0x30, 0x00, 0x00, 0xec, 0x2f, 0x00, 0x00, 0xb0, 0x2f, 0x00, 0x00,
  0x70, 0x2f, 0x00, 0x00, 0xb0, 0x2e, 0x00, 0x00, 0xf8, 0x2d, 0x00, 0x00,
  0xa4, 0x2a, 0x00, 0x00, 0x48, 0x27, 0x00, 0x00, 0xf4, 0x23, 0x00, 0x00,
  0x90, 0x20, 0x00, 0x00, 0x3c, 0x1d, 0x00, 0x00, 0xc0, 0x19, 0x00, 0x00,
  0x54, 0x16, 0x00, 0x00, 0xf0, 0x12, 0x00, 0x00, 0x1c, 0x11, 0x00, 0x00,
  0x34, 0x0f, 0x00, 0x00, 0x5c, 0x0d, 0x00, 0x00, 0x78, 0x0b, 0x00, 0x00,
  0x00, 0x0b, 0x00, 0x00, 0x98, 0x0a, 0x00, 0x00, 0x44, 0x0a, 0x00, 0x00,
  0xec, 0x09, 0x00, 0x00, 0x5c, 0x09, 0x00, 0x00, 0x78, 0x08, 0x00, 0x00,
  0xdc, 0x07, 0x00, 0x00, 0xb8, 0x06, 0x00, 0x00, 0xcc, 0x05, 0x00, 0x00,
  0x30, 0x05, 0x00, 0x00, 0x0c, 0x04, 0x00, 0x00, 0x20, 0x03, 0x00, 0x00,
  0x8c, 0x02, 0x00, 0x00, 0x88, 0x01, 0x00, 0x00, 0xe4, 0x00, 0x00, 0x00,
  0x60, 0x00, 0x00, 0x00, 0x04, 0x00, 0x00, 0x00, 0x9a, 0xcf, 0xff, 0xff,
  0x00, 0x00, 0x00, 0x01, 0x14, 0x00, 0x00, 0x00, 0x1c, 0x00, 0x00, 0x00,
  0x1c, 0x00, 0x00, 0x00, 0x26, 0x00, 0x00, 0x00, 0x34, 0x00, 0x00, 0x00,
  0x02, 0x00, 0x00, 0x00, 0xff, 0xff, 0xff, 0xff, 0x08, 0x00, 0x00, 0x00,
  0x80, 0xcf, 0xff, 0xff, 0x1b, 0x00, 0x00, 0x00, 0x53, 0x74, 0x61, 0x74,
  0x65, 0x66, 0x75, 0x6c, 0x50, 0x61, 0x72, 0x74, 0x69, 0x74, 0x69, 0x6f,
  0x6e, 0x65, 0x64, 0x43, 0x61, 0x6c, 0x6c, 0x5f, 0x31, 0x3a, 0x30, 0x00,
  0x02, 0x00, 0x00, 0x00, 0x01, 0x00, 0x00, 0x00, 0x08, 0x00, 0x00, 0x00,
  0xb2, 0xf5, 0xff, 0xff, 0x00, 0x00, 0x00, 0x01, 0x18, 0x00, 0x00, 0x00,
  0x20, 0x00, 0x00, 0x00, 0x40, 0x00, 0x00, 0x00, 0x25, 0x00, 0x00, 0x00,
  0x00, 0x00, 0x00, 0x09, 0x58, 0x00, 0x00, 0x00, 0x02, 0x00, 0x00, 0x00,
  0xff, 0xff, 0xff, 0xff, 0x08, 0x00, 0x00, 0x00, 0x34, 0xd2, 0xff, 0xff,
  0x08, 0x00, 0x00, 0x00, 0x14, 0x00, 0x00, 0x00, 0x01, 0x00, 0x00, 0x00,
  0x80, 0xff, 0xff, 0xff, 0xff, 0xff, 0xff, 0xff, 0x00, 0x00, 0x00, 0x00,
  0x01, 0x00, 0x00, 0x00, 0x00, 0x00, 0x80, 0x3b, 0x1c, 0x00, 0x00, 0x00,
  0x53, 0x74, 0x61, 0x74, 0x65, 0x66, 0x75, 0x6c, 0x50, 0x61, 0x72, 0x74,
  0x69, 0x74, 0x69, 0x6f, 0x6e, 0x65, 0x64, 0x43, 0x61, 0x6c, 0x6c, 0x5f,
  0x31, 0x3a, 0x30, 0x31, 0x00, 0x00, 0x00, 0x00, 0x02, 0x00, 0x00, 0x00,
  0x01, 0x00, 0x00, 0x00, 0x08, 0x00, 0x00, 0x00, 0x32, 0xf6, 0xff, 0xff,
  0x00, 0x00, 0x00, 0x01, 0x18, 0x00, 0x00, 0x00, 0x20, 0x00, 0x00, 0x00,
  0x40, 0x00, 0x00, 0x00, 0x24, 0x00, 0x00, 0x00, 0x00, 0x00, 0x00, 0x09,
  0x78, 0x00, 0x00, 0x00, 0x02, 0x00, 0x00, 0x00, 0xff, 0xff, 0xff, 0xff,
  0x08, 0x00, 0x00, 0x00, 0xb4, 0xd2, 0xff, 0xff, 0x08, 0x00, 0x00, 0x00,
  0x14, 0x00, 0x00, 0x00, 0x01, 0x00, 0x00, 0x00, 0x48, 0x00, 0x00, 0x00,
  0x00, 0x00, 0x00, 0x00, 0x00, 0x00, 0x00, 0x00, 0x01, 0x00, 0x00, 0x00,
  0xa8, 0xbd, 0x8c, 0x3e, 0x3c, 0x00, 0x00, 0x00, 0x73, 0x65, 0x71, 0x75,
  0x65, 0x6e, 0x74, 0x69, 0x61, 0x6c, 0x5f, 0x31, 0x2f, 0x64, 0x65, 0x6e,
  0x73, 0x65, 0x5f, 0x31, 0x5f, 0x32, 0x2f, 0x4d, 0x61, 0x74, 0x4d, 0x75,
  0x6c, 0x3b, 0x73, 0x65, 0x71, 0x75, 0x65, 0x6e, 0x74, 0x69, 0x61, 0x6c,
  0x5f, 0x31, 0x2f, 0x64, 0x65, 0x6e, 0x73, 0x65, 0x5f, 0x31, 0x5f, 0x32,
  0x2f, 0x42, 0x69, 0x61, 0x73, 0x41, 0x64, 0x64, 0x00, 0x00, 0x00, 0x00,
  0x02, 0x00, 0x00, 0x00, 0x01, 0x00, 0x00, 0x00, 0x08, 0x00, 0x00, 0x00,
  0xd2, 0xf6, 0xff, 0xff, 0x00, 0x00, 0x00, 0x01, 0x18, 0x00, 0x00, 0x00,
  0x20, 0x00, 0x00, 0x00, 0x3c, 0x00, 0x00, 0x00, 0x23, 0x00, 0x00, 0x00,
  0x00, 0x00, 0x00, 0x09, 0xd8, 0x00, 0x00, 0x00, 0x02, 0x00, 0x00, 0x00,
  0xff, 0xff, 0xff, 0xff, 0x40, 0x00, 0x00, 0x00, 0x54, 0xd3, 0xff, 0xff,
  0x08, 0x00, 0x00, 0x00, 0x10, 0x00, 0x00, 0x00, 0x01, 0x00, 0x00, 0x00,
  0x80, 0xff, 0xff, 0xff, 0xff, 0xff, 0xff, 0xff, 0x01, 0x00, 0x00, 0x00,
  0xcf, 0x9d, 0x99, 0x3c, 0xa1, 0x00, 0x00, 0x00, 0x73, 0x65, 0x71, 0x75,
  0x65, 0x6e, 0x74, 0x69, 0x61, 0x6c, 0x5f, 0x31, 0x2f, 0x64, 0x65, 0x6e,
  0x73, 0x65, 0x5f, 0x31, 0x2f, 0x4d, 0x61, 0x74, 0x4d, 0x75, 0x6c, 0x3b,
  0x73, 0x65, 0x71, 0x75, 0x65, 0x6e, 0x74, 0x69, 0x61, 0x6c, 0x5f, 0x31,
  0x2f, 0x62, 0x61, 0x74, 0x63, 0x68, 0x5f, 0x6e, 0x6f, 0x72, 0x6d, 0x61,
  0x6c, 0x69, 0x7a, 0x61, 0x74, 0x69, 0x6f, 0x6e, 0x5f, 0x35, 0x5f, 0x31,
  0x2f, 0x62, 0x61, 0x74, 0x63, 0x68, 0x6e, 0x6f, 0x72, 0x6d, 0x2f, 0x6d,
  0x75, 0x6c, 0x5f, 0x31, 0x3b, 0x73, 0x65, 0x71, 0x75, 0x65, 0x6e, 0x74,
  0x69, 0x61, 0x6c, 0x5f, 0x31, 0x2f, 0x72, 0x65, 0x5f, 0x6c, 0x75, 0x5f,
  0x35, 0x5f, 0x31, 0x2f, 0x52, 0x65, 0x6c, 0x75, 0x3b, 0x73, 0x65, 0x71,
  0x75, 0x65, 0x6e, 0x74, 0x69, 0x61, 0x6c, 0x5f, 0x31, 0x2f, 0x62, 0x61,
  0x74, 0x63, 0x68, 0x5f, 0x6e, 0x6f, 0x72, 0x6d, 0x61, 0x6c, 0x69, 0x7a,
  0x61, 0x74, 0x69, 0x6f, 0x6e, 0x5f, 0x35, 0x5f, 0x31, 0x2f, 0x62, 0x61,
  0x74, 0x63, 0x68, 0x6e, 0x6f, 0x72, 0x6d, 0x2f, 0x61, 0x64, 0x64, 0x5f,
  0x31, 0x00, 0x00, 0x00, 0x02, 0x00, 0x00, 0x00, 0x01, 0x00, 0x00, 0x00,
  0x40, 0x00, 0x00, 0x00, 0xd2, 0xf7, 0xff, 0xff, 0x00, 0x00, 0x00, 0x01,
  0x18, 0x00, 0x00, 0x00, 0x20, 0x00, 0x00, 0x00, 0x40, 0x00, 0x00, 0x00,
  0x22, 0x00, 0x00, 0x00, 0x00, 0x00, 0x00, 0x09, 0x68, 0x00, 0x00, 0x00,
